<unk>	0
<s>	0
</s>	0
▁	-4.14504
s	-4.92686
ం	-4.96739
లో	-5.14369
▁the	-5.16481
▁a	-5.21116
లు	-5.41167
ను	-5.41761
ని	-5.44038
▁పోస్ట్	-5.44681
▁చేసినవారు	-5.5158
▁i	-5.62873
కు	-5.63324
గా	-5.63775
ల	-5.65635
▁నుండి	-5.72804
న	-5.77166
ి	-5.80432
స్	-5.80929
▁ఉన్నాయి	-5.83731
▁you	-5.86373
▁ఉంది	-5.88902
▁love	-5.92528
క	-5.93609
▁it	-5.98619
ు	-5.99323
▁మరియు	-5.99406
ా	-6.03366
▁to	-6.08536
ే	-6.10995
తో	-6.11113
ము	-6.11606
కి	-6.12097
▁samosa	-6.15579
d	-6.16595
ర్	-6.18326
e	-6.19323
a	-6.20567
▁గ్రామం	-6.21743
t	-6.21998
▁with	-6.22988
▁దూరంలో	-6.24059
ాలు	-6.25037
i	-6.26163
▁అ	-6.26489
న్	-6.27802
ల్	-6.29154
్	-6.31426
వ	-6.32124
y	-6.32432
▁good	-6.36083
మ	-6.37061
ర	-6.37606
ాన్ని	-6.39311
▁is	-6.40068
▁సమీప	-6.41078
త	-6.4131
▁status	-6.43959
ది	-6.45578
▁creations	-6.47374
రు	-6.48147
▁for	-6.49787
m	-6.50443
n	-6.5118
o	-6.51398
▁and	-6.51898
నే	-6.53309
రి	-6.53828
l	-6.55856
క్	-6.57549
▁video	-6.58747
u	-6.59815
r	-6.60253
వి	-6.61602
▁me	-6.6304
▁కూడా	-6.63547
రా	-6.64138
▁పాఠశాల	-6.64941
ట్	-6.65659
ంగా	-6.65673
▁కళాశాల	-6.66621
ప	-6.68078
▁telugu	-6.68283
▁ఉన్న	-6.69475
లా	-6.69591
▁ఆ	-6.70285
▁కేంద్రం	-6.7044
య	-6.72478
▁made	-6.72677
c	-6.73765
నా	-6.74417
▁అని	-6.75352
ారు	-6.76554
la	-6.77422
గ	-6.78263
ానికి	-6.79029
ట	-6.79049
▁వి	-6.79756
స	-6.83082
ed	-6.84126
▁క	-6.84162
g	-6.84254
▁జిల్లా	-6.84426
▁be	-6.84903
▁ప్రభుత్వ	-6.85431
ing	-6.85688
na	-6.86294
k	-6.87953
ma	-6.90866
డ	-6.90869
డి	-6.91125
▁e	-6.92382
లి	-6.92624
▁by	-6.93608
▁likee	-6.94025
వా	-6.94509
▁యొక్క	-6.94933
▁ఇది	-6.95514
p	-6.96325
ద	-6.96987
▁ప్రేమ	-6.9729
డు	-6.97961
▁ఇ	-6.98252
▁ప	-6.98264
▁మ	-6.99159
పు	-6.99251
▁morning	-6.99297
ిన	-6.99841
టి	-7.00027
ాల	-7.00912
డ్	-7.01629
▁శ్రీ	-7.01849
▁your	-7.02638
h	-7.04167
ుడు	-7.04668
వు	-7.0471
లను	-7.05425
▁no	-7.05741
డం	-7.05809
er	-7.06485
మైన	-7.06715
le	-7.07227
te	-7.07538
▁కానీ	-7.07705
▁music	-7.08713
ra	-7.08756
▁గ్రామంలో	-7.08997
▁సౌకర్యం	-7.09097
▁నేను	-7.1015
ni	-7.1103
ri	-7.11475
▁స	-7.11923
ాడు	-7.12193
▁do	-7.12764
సి	-7.13373
ులు	-7.13937
▁కా	-7.14168
▁ఎ	-7.14715
b	-7.14811
నీ	-7.15803
మా	-7.16016
lo	-7.17021
li	-7.17372
ta	-7.17649
మి	-7.18257
z	-7.18476
దు	-7.18939
v	-7.2037
ne	-7.20488
▁నువ్వు	-7.20542
ంలో	-7.21508
ీ	-7.21943
తి	-7.22422
▁కింది	-7.229
ya	-7.23366
▁life	-7.23578
న్న	-7.23962
w	-7.24796
▁ఉ	-7.25057
▁వ	-7.25728
ండి	-7.26015
▁vidstatus	-7.26126
▁so	-7.27074
▁గ్రామానికి	-7.27094
re	-7.27621
▁kinemaster	-7.27623
లే	-7.28631
▁india	-7.30214
▁ప్రాథమిక	-7.30973
di	-7.30981
ింది	-7.31687
ti	-7.32951
▁ద్వారా	-7.3342
మే	-7.33503
ో	-7.33599
▁శుభోదయం	-7.33814
జ్	-7.34013
రీ	-7.35101
మ్	-7.35101
▁am	-7.35256
వే	-7.35803
ve	-7.35889
▁ka	-7.36007
▁ra	-7.36086
da	-7.36372
▁బ	-7.3686
▁లవ్	-7.36959
▁ప్రతి	-7.37611
ాలను	-7.3769
▁సంఖ్య	-7.38167
se	-7.38456
ప్	-7.38595
▁రా	-7.38629
▁ఉంటుంది	-7.38769
కా	-7.39127
▁day	-7.39333
▁చేయండి	-7.39388
in	-7.40475
▁విద్యా	-7.41571
లకు	-7.41612
▁ఏ	-7.41884
va	-7.4208
జ	-7.42265
▁అనే	-7.43278
ly	-7.43674
చ	-7.43723
ga	-7.443
▁o	-7.44304
▁ఎక్కువ	-7.44452
▁re	-7.44547
యా	-7.44567
lu	-7.44616
▁కాదు	-7.44702
es	-7.44704
▁ప్ర	-7.45267
▁are	-7.45311
de	-7.45331
▁an	-7.45639
ka	-7.45974
▁కోసం	-7.46109
పై	-7.46553
▁శుభ	-7.4661
vi	-7.46672
▁చాలా	-7.46834
▁roposo	-7.46834
▁from	-7.4716
▁ఆరోగ్య	-7.47302
▁నా	-7.47743
▁త	-7.47752
▁చెందిన	-7.47896
▁పైబడిన	-7.485
▁చేయ	-7.48884
▁t	-7.49196
▁night	-7.50447
▁వరకు	-7.50843
▁ఫోన్	-7.51262
ాలి	-7.51365
లోనూ	-7.51502
లోను	-7.51662
ha	-7.51817
▁ఒకటి	-7.51946
త్	-7.52142
▁జ	-7.52182
▁one	-7.52382
th	-7.52685
▁నాకు	-7.53016
▁న	-7.53327
▁నుంచి	-7.54017
యి	-7.54277
▁వైద్య	-7.54657
▁now	-7.54746
▁లేదా	-7.54818
tha	-7.54975
ru	-7.55112
▁రెండు	-7.55378
du	-7.55711
▁డౌన్లోడ్	-7.56137
మ్మ	-7.56263
ల్లో	-7.56435
▁రహదారి	-7.5672
ంది	-7.57144
f	-7.5715
▁ఆయన	-7.57365
▁శుభాకాంక్షలు	-7.5756
▁గ	-7.5776
▁వారి	-7.57813
al	-7.5827
▁ము	-7.58467
▁quotes	-7.58578
ూ	-7.5859
ాయి	-7.58629
హ	-7.59008
డానికి	-7.59144
an	-7.59332
ుల	-7.59775
▁b	-7.60061
▁na	-7.60081
▁sri	-7.60197
▁నిన్ను	-7.60273
or	-7.60927
x	-7.61547
లలో	-7.61756
▁all	-7.62457
తా	-7.62941
▁go	-7.63162
▁పో	-7.63236
▁మంచి	-7.63759
▁వా	-7.63759
to	-7.63824
▁ప్రైవేటు	-7.64258
సు	-7.64407
ce	-7.64468
▁లేదు	-7.64495
ro	-7.64594
▁welike	-7.65019
▁store	-7.65261
▁subscribe	-7.65771
▁not	-7.66512
ె	-7.66755
me	-7.67507
ch	-7.67565
▁pa	-7.6823
ణ	-7.68803
కే	-7.6888
ంత	-7.68895
▁చేసిన	-7.68958
j	-7.69279
▁మా	-7.69431
▁వారు	-7.69539
▁కంటే	-7.69585
▁అది	-7.69749
▁beats	-7.69957
▁creation	-7.69997
ke	-7.70289
పో	-7.7036
▁తరువాత	-7.7064
▁బా	-7.70829
▁sa	-7.71003
సా	-7.71793
రో	-7.72064
▁మె	-7.72101
▁అంటే	-7.72467
యం	-7.72481
▁లోపు	-7.72642
దా	-7.73082
▁ఎంత	-7.73146
▁ఇప్పుడే	-7.73967
రే	-7.74026
▁షేర్	-7.74553
▁మీకు	-7.74572
ar	-7.74644
▁po	-7.74827
కో	-7.75289
▁la	-7.76038
పి	-7.76275
▁m	-7.76382
▁సు	-7.76459
on	-7.76652
▁చ	-7.76862
▁have	-7.76926
▁నీకు	-7.76983
▁g	-7.77387
▁మీద	-7.77687
▁పోస్టాఫీసు	-7.77868
▁కొ	-7.78202
▁మధ్య	-7.78245
▁can	-7.78259
▁ఆఫీసు	-7.78346
▁but	-7.78419
లోని	-7.78758
en	-7.78766
nu	-7.78874
▁ప్రధాన	-7.7902
బ	-7.79198
▁ఉన్నారు	-7.79211
య్య	-7.79226
▁heart	-7.79496
▁u	-7.7974
జి	-7.80071
▁as	-7.80157
మో	-7.80225
sh	-7.80242
లీ	-7.80363
గ్	-7.80429
▁పెద్ద	-7.8098
▁చిన్న	-7.81073
am	-7.81145
గు	-7.81271
ge	-7.81307
▁oroposo	-7.81831
mi	-7.8193
ష	-7.82016
▁best	-7.82095
▁సం	-7.82333
యు	-7.82868
ించ	-7.82876
no	-7.82894
వ్	-7.82951
▁అమ్మ	-7.82952
▁రోజు	-7.83122
▁చెప్ప	-7.83178
రం	-7.83255
▁హ	-7.83954
లేదు	-7.84032
టం	-7.8406
▁more	-7.84129
▁కో	-7.84596
▁don	-7.8471
చి	-7.84838
▁tik	-7.84887
▁ja	-7.84891
ba	-7.84904
si	-7.85389
▁మంది	-7.85732
ja	-7.85895
▁చె	-7.85986
వారు	-7.86156
చే	-7.86368
▁will	-7.86461
it	-7.86648
▁ప్రత్యేక	-7.86823
▁మనం	-7.86885
▁పా	-7.87064
▁సినిమా	-7.87102
▁పేరు	-7.87327
▁బాధ	-7.8739
▁h	-7.87392
▁విధంగా	-7.87441
▁that	-7.8757
▁at	-7.87632
▁నీ	-7.87691
ై	-7.87872
▁కొన్ని	-7.87947
▁shayris	-7.88266
▁tok	-7.88364
▁చేసి	-7.89257
▁vi	-7.8946
el	-7.89746
wa	-7.8985
శ	-7.90101
sa	-7.90218
▁mo	-7.90406
▁world	-7.90421
ంద	-7.90478
▁కలిగి	-7.9052
▁శ	-7.90661
▁su	-7.91047
ధ	-7.91064
▁మాత్రమే	-7.91206
▁d	-7.91338
▁ni	-7.91599
లతో	-7.91786
▁కుటుంబ	-7.91905
▁news	-7.91967
▁man	-7.92307
ad	-7.92592
et	-7.92925
▁రాష్ట్ర	-7.93035
▁c	-7.93112
▁s	-7.93239
il	-7.93243
తు	-7.93268
▁le	-7.93657
do	-7.94192
టు	-7.94712
ళ్ళ	-7.94956
▁సంస్థ	-7.95194
ll	-7.95429
▁సా	-7.96428
▁se	-7.96437
mo	-7.96661
టీ	-7.96703
at	-7.96873
▁ఆమె	-7.972
co	-7.97291
pa	-7.97968
▁k	-7.98032
ండ	-7.98038
▁ఇతర	-7.98096
▁డిగ్రీ	-7.98145
ck	-7.9824
st	-7.98747
▁తెలంగాణ	-7.99001
▁అంత	-7.99262
▁మనసు	-7.99408
▁ఉత్పత్తి	-7.99652
▁మొదటి	-8.00577
▁this	-8.00675
జీ	-8.00708
▁మన	-8.00827
thi	-8.00953
▁miss	-8.00958
▁మి	-8.01096
▁అయితే	-8.01299
go	-8.01355
ki	-8.01562
ku	-8.01758
▁ఈ	-8.01963
ష్	-8.02216
▁తెలుగు	-8.02418
▁feel	-8.02464
బ్	-8.02694
▁పె	-8.02856
▁n	-8.03023
ts	-8.03028
▁de	-8.03394
▁sai	-8.03404
పా	-8.03577
ుని	-8.03702
▁భారత	-8.03719
క్క	-8.03854
▁v	-8.03972
▁సి	-8.04019
▁నీటి	-8.0418
దే	-8.04298
▁pro	-8.04471
ంటే	-8.04677
కుండా	-8.04686
▁ఉండ	-8.04782
▁nee	-8.05297
క్ష	-8.0588
తే	-8.05908
ాలని	-8.06056
ప్ప	-8.0626
▁nani	-8.06405
▁పెట్ట	-8.06527
▁ఒక్క	-8.07085
▁చాట్	-8.07625
జా	-8.07639
▁w	-8.07796
▁మాత్రం	-8.07895
▁గు	-8.07958
▁జీవితం	-8.08089
▁lo	-8.08177
ొ	-8.08662
▁che	-8.08816
ద్	-8.08895
▁ఆసుపత్రి	-8.09103
is	-8.09166
▁కోడ్	-8.09316
▁మే	-8.09486
▁bo	-8.09674
▁when	-8.09692
ట్లు	-8.09804
▁birthday	-8.09989
▁పి	-8.10372
▁ఓ	-8.10684
▁time	-8.10771
▁చేసే	-8.10775
▁మాధ్యమిక	-8.11052
▁naa	-8.11201
▁శిక్షణ	-8.11376
డా	-8.11828
ur	-8.11989
▁దాని	-8.11995
ట్టు	-8.12198
▁వృత్తి	-8.12198
గి	-8.12371
య్	-8.12532
▁నన్ను	-8.12742
ద్ద	-8.12941
▁r	-8.12996
▁జాతీయ	-8.13029
నో	-8.13177
▁hi	-8.13179
ry	-8.13217
ములు	-8.13272
▁వే	-8.13288
us	-8.13458
▁ముందు	-8.13697
▁pe	-8.13773
po	-8.13774
బా	-8.13937
▁ద	-8.14105
గల	-8.14108
▁దూరం	-8.14252
▁అనేక	-8.14388
▁వంటి	-8.1446
▁లోని	-8.14543
▁user	-8.14713
▁ఆర్	-8.14776
bo	-8.14875
▁తర్వాత	-8.15503
▁పబ్లిక్	-8.15597
వచ్చు	-8.15679
▁ne	-8.15856
tu	-8.16106
▁ర	-8.16207
▁కాని	-8.16281
lla	-8.16459
ౌ	-8.16543
నం	-8.16715
ిక	-8.16939
▁వె	-8.17069
▁దా	-8.17222
స్ట్	-8.17337
మని	-8.17482
▁అండ్	-8.17653
ina	-8.17739
ాలలో	-8.17755
▁ro	-8.17759
▁వీ	-8.1823
▁లా	-8.18419
▁ప్రకారం	-8.18552
కీ	-8.18938
▁సైన్స్	-8.18956
▁జా	-8.18957
ళ్ల	-8.19033
he	-8.1926
ty	-8.19455
▁official	-8.19483
▁co	-8.19511
సీ	-8.19539
hi	-8.19695
▁ప్రాథమికోన్నత	-8.19789
▁da	-8.19838
▁అదే	-8.19931
cha	-8.19952
▁పడ	-8.2003
▁ko	-8.20322
▁ఆర్ట్స్	-8.20397
▁sweet	-8.20525
ంచ	-8.20555
▁అను	-8.20561
ho	-8.20586
ించి	-8.20649
▁ఉన్నా	-8.20654
dha	-8.20857
▁జూనియర్	-8.20914
యో	-8.2097
టా	-8.20991
▁va	-8.21065
ాల్లో	-8.21177
▁sorry	-8.21197
ాన	-8.21448
కం	-8.21518
▁పని	-8.21548
▁relationship	-8.21686
ram	-8.22482
▁వినియోగం	-8.22483
os	-8.22696
▁మహా	-8.22759
▁మొబైల్	-8.22896
▁p	-8.23035
▁ఇవ్వ	-8.23143
▁అన్ని	-8.23268
ుకో	-8.23472
▁గురించి	-8.23631
▁సరఫరా	-8.23665
బడింది	-8.23736
▁ga	-8.23917
▁లేని	-8.24399
టర్	-8.24956
▁మీరు	-8.25013
be	-8.25148
▁అయిన	-8.25819
చ్	-8.26102
▁జ్	-8.26218
▁ve	-8.26221
pe	-8.26226
వాడు	-8.26237
▁కొత్త	-8.26393
▁లైన్	-8.2648
un	-8.26508
తీ	-8.26592
న్నా	-8.26677
▁who	-8.2686
▁ఎలా	-8.2701
▁గో	-8.27146
▁మూడు	-8.2748
▁ఐ	-8.27549
▁god	-8.27563
ic	-8.27932
ko	-8.28124
▁బాలబడి	-8.28137
▁power	-8.28179
▁భ	-8.28213
▁పాలీటెక్నిక్	-8.28318
▁గుడ్	-8.28347
▁pra	-8.28567
▁ల	-8.2872
▁లే	-8.28909
▁mu	-8.29074
ట్ట	-8.29136
▁భార్య	-8.29148
▁సబ్	-8.29199
ంగ్	-8.29211
dhi	-8.29394
▁ఉంటాయి	-8.29524
షన్	-8.29621
ఫ్	-8.29654
ుతుంది	-8.29785
▁చూడ	-8.29872
id	-8.29993
ిత	-8.30307
▁un	-8.30396
▁cha	-8.30422
as	-8.30582
కొ	-8.30617
▁వస్తువులు	-8.30888
సం	-8.31296
మీ	-8.31399
▁జనగణన	-8.31533
పల్లి	-8.31538
▁మేనేజిమెంటు	-8.31577
▁ఉంటే	-8.31689
స్తుంది	-8.3179
▁బి	-8.3185
▁రైల్వే	-8.3203
dhu	-8.32168
▁ఆఫ్	-8.32201
థ	-8.32238
▁li	-8.3233
రె	-8.32388
▁వైద్యశాల	-8.32448
um	-8.32682
▁వనరుల	-8.32684
esh	-8.32778
▁అనేది	-8.33148
ంతో	-8.33347
త్త	-8.33548
▁వద్ద	-8.33581
ee	-8.33711
▁songs	-8.33802
▁దివ్యాంగుల	-8.33886
▁అభివృద్ధి	-8.3405
▁what	-8.34082
▁షెడ్యూల్డ	-8.34163
▁ఉండే	-8.34236
▁he	-8.3428
▁వల్ల	-8.34296
▁అనియత	-8.34391
▁మో	-8.34435
pu	-8.34487
▁సామాన్య	-8.34702
▁జనాభా	-8.34713
▁only	-8.34728
▁చి	-8.34843
▁చేర	-8.34943
ala	-8.35424
▁అతని	-8.3547
స్తా	-8.35954
▁అతి	-8.36246
ండ్	-8.36278
▁star	-8.36369
gu	-8.36408
▁పారామెడికల్	-8.36585
▁వై	-8.36644
▁never	-8.36794
▁మాట	-8.36977
యే	-8.37002
▁ar	-8.37034
od	-8.37132
ca	-8.37221
▁అన్న	-8.37398
▁f	-8.3741
▁ఇంటర్నెట్	-8.37412
▁ca	-8.37512
▁in	-8.37729
▁దగ్గర	-8.37811
▁అర్థం	-8.37859
mu	-8.38026
ాయ	-8.38091
▁రామ	-8.38164
▁mar	-8.38246
▁ప్రపంచ	-8.38378
▁సేవా	-8.38515
▁vivavideo	-8.38606
gi	-8.38775
▁రీపోసో	-8.38812
▁రి	-8.38946
▁friends	-8.39056
సే	-8.39423
▁fitness	-8.39515
▁తా	-8.39578
వీ	-8.39702
▁jo	-8.39735
ss	-8.39811
▁ఇక్కడ	-8.39824
ందు	-8.39838
బి	-8.39864
▁sha	-8.39876
▁yoyo	-8.3994
▁మీ	-8.3997
▁పాఠశాలలు	-8.39982
▁శుభరాత్రి	-8.39991
chi	-8.40114
ంగ	-8.40133
▁ఎందుకంటే	-8.40183
▁విలువ	-8.40428
▁ఇలా	-8.40702
ాలకు	-8.40812
▁new	-8.40847
▁జీవితంలో	-8.41185
▁జరుగుతోంది	-8.4137
nd	-8.41382
▁మొదలైన	-8.41433
▁మాట్లాడ	-8.41497
vo	-8.41617
▁ఒ	-8.41733
ంట	-8.41898
ak	-8.41994
డే	-8.42086
▁బంగారం	-8.42475
ంటి	-8.42479
ol	-8.42611
▁స్టేషన్	-8.42778
చ్చ	-8.42913
▁అవుతున్నాయి	-8.4297
▁కొరకు	-8.43024
▁reddy	-8.43119
▁j	-8.43191
▁వచ్చే	-8.43355
▁chat	-8.43477
▁కల	-8.43504
▁య	-8.43701
▁వ్యవసాయానికి	-8.43714
తం	-8.43788
▁తిరిగి	-8.44026
టానికి	-8.44142
▁వలన	-8.44591
ప్ర	-8.44771
ప్పుడు	-8.44774
భ	-8.44793
▁రాష్ట్రం	-8.44863
▁ఉండాలి	-8.44992
▁లాండ్	-8.4502
▁ఇంజనీరింగ్	-8.45061
▁దీని	-8.45068
ళ	-8.45773
▁మండల	-8.4584
బడిన	-8.45867
▁స్వ	-8.4601
▁career	-8.461
▁fun	-8.46173
వ్వ	-8.46198
▁మండలంలోని	-8.46215
▁వచ్చిన	-8.46566
▁see	-8.46568
అ	-8.46988
▁గ్రామము	-8.47201
▁మండలానికి	-8.47292
▁master	-8.47335
▁టెలిఫోన్	-8.47391
▁post	-8.4764
▁మొత్తం	-8.477
వారి	-8.4777
▁సామాజిక	-8.47928
▁true	-8.4806
▁పు	-8.48363
man	-8.48458
▁టెలిగ్రాఫ్	-8.48566
▁dad	-8.48674
ించిన	-8.48746
▁crazy	-8.4877
దీ	-8.4884
▁పాటు	-8.48969
ష్ట	-8.49033
▁బస్సు	-8.49062
▁di	-8.49308
▁పొ	-8.49667
▁కొరియర్	-8.49974
▁dreams	-8.50061
▁sam	-8.50138
▁కెఫె	-8.50583
ion	-8.50585
వర్	-8.50654
ంబ	-8.5067
▁సె	-8.51177
▁చే	-8.51398
▁girl	-8.51437
ుకుని	-8.51457
ిస్తుంది	-8.51593
▁ప్రాణం	-8.51767
▁జీవ	-8.51945
▁legaladvice	-8.52016
▁చూసి	-8.52102
▁every	-8.52211
మును	-8.5228
▁con	-8.52302
ిస్తూ	-8.52334
▁డాక్టర్లు	-8.52391
▁she	-8.52719
▁ye	-8.52725
▁san	-8.52805
నె	-8.53004
▁కోరుకుంటూ	-8.53193
▁కలిసి	-8.53371
▁శివ	-8.53436
బు	-8.53496
వో	-8.53535
▁గొప్ప	-8.53631
▁రాజ	-8.53661
▁గ్రామ	-8.53741
pi	-8.53929
▁రే	-8.54037
▁just	-8.54038
▁చిత్ర	-8.54107
ణి	-8.54113
▁పరి	-8.54276
▁రోడ్లు	-8.54459
▁వాళ్ళ	-8.54689
▁పాత్ర	-8.54712
▁bgm	-8.54728
ation	-8.5476
▁అతను	-8.54906
▁ఎస్	-8.55037
▁అంద	-8.55061
▁హా	-8.55064
ter	-8.55113
ించే	-8.55136
ళ్ళు	-8.5517
ers	-8.55239
మై	-8.55416
▁ri	-8.55736
▁boy	-8.55816
▁si	-8.55932
క్స్	-8.56042
▁కదా	-8.56063
▁online	-8.56142
గో	-8.56261
▁వ్యక్తి	-8.56369
bi	-8.5659
నూ	-8.56609
▁సమయంలో	-8.56689
▁చేశారు	-8.56912
ow	-8.56922
ితే	-8.56957
▁లేరు	-8.56979
▁ఎక్కువగా	-8.57163
bu	-8.57305
పడ	-8.57537
ైన	-8.57596
▁అంటారు	-8.57868
su	-8.57944
▁వినాయక	-8.58165
▁vo	-8.58264
ుకునే	-8.58391
ములో	-8.58399
▁తప్ప	-8.5847
చు	-8.58849
▁ఒక	-8.59239
▁ఇంకా	-8.59492
ie	-8.59594
nt	-8.59649
▁బో	-8.5968
▁పొంద	-8.59707
rs	-8.5976
▁our	-8.60011
ించారు	-8.60121
▁వాడ	-8.60127
▁always	-8.60209
ును	-8.60275
▁friend	-8.60358
sha	-8.60445
est	-8.6062
ఖ	-8.60707
▁tha	-8.60973
▁ఆడ	-8.61012
▁కే	-8.61048
▁భాష	-8.61225
శి	-8.61274
▁కోర	-8.61297
▁fa	-8.6136
▁dil	-8.61399
ధి	-8.61451
▁కాల	-8.61542
▁ఆంధ్ర	-8.61636
స్థ	-8.61668
▁బంధం	-8.61752
డీ	-8.61837
▁బాగా	-8.61922
▁ge	-8.61995
ల్ల	-8.62007
▁l	-8.62069
▁mi	-8.62115
▁ఉప	-8.62133
లేని	-8.62186
▁మరి	-8.62254
▁భర్త	-8.62323
▁అన	-8.62391
▁నె	-8.62538
పీ	-8.62637
▁జరిగిన	-8.6272
▁నీవు	-8.62889
▁ప్రభుత్వం	-8.62919
▁అవ	-8.62979
▁నువ్వే	-8.6307
▁అందుకే	-8.63099
▁సౌకర్యాలు	-8.63107
▁వారికి	-8.63215
స్తూ	-8.63695
▁health	-8.6375
▁పార్టీ	-8.63846
▁రె	-8.63897
▁తల	-8.63902
ara	-8.6451
న్నాయి	-8.64665
▁దక్షిణ	-8.64698
▁social	-8.64781
▁ఒకరు	-8.64792
▁మనిషి	-8.64875
che	-8.64892
▁పట్ట	-8.64934
ana	-8.6511
ment	-8.65194
▁పలు	-8.65228
▁రవాణా	-8.65337
▁సిబ్బంది	-8.65397
▁maa	-8.65528
▁bad	-8.65531
ul	-8.65591
▁కన్నా	-8.65608
ృ	-8.6587
▁వ్యవస్థ	-8.65946
వె	-8.66024
్యూ	-8.66134
▁du	-8.66143
the	-8.66261
ిస్తారు	-8.66274
ng	-8.66338
హా	-8.66391
▁జన్మ	-8.66405
▁we	-8.66497
▁lifehacks	-8.66511
▁యా	-8.66693
fi	-8.66961
▁hai	-8.67028
▁tho	-8.67112
▁fan	-8.6713
▁తండ్రి	-8.67271
షధ	-8.6729
ుకొని	-8.67299
▁కాలం	-8.67343
▁ఉత్తర	-8.67707
▁people	-8.6777
▁వాళ్ళు	-8.67795
▁చూప	-8.67807
▁పాల	-8.67995
▁వ్యవసాయ	-8.68254
▁ఖ	-8.68255
▁ఆటో	-8.68458
▁tu	-8.68531
▁అవి	-8.68579
▁tube	-8.68616
▁బె	-8.68881
▁తల్లి	-8.68884
బడి	-8.68943
▁bi	-8.68976
lli	-8.69012
▁ప్రపంచంలో	-8.69445
▁ప్రముఖ	-8.69456
▁smile	-8.69541
thu	-8.69558
▁బ్యాంకు	-8.69675
▁al	-8.69857
▁లోను	-8.69878
▁fo	-8.69926
కె	-8.69942
▁కార్	-8.69959
ేందుకు	-8.70133
మె	-8.70231
రాజు	-8.70233
పూర్	-8.70257
ుకున్న	-8.70381
▁make	-8.70395
▁తు	-8.70439
▁జీవిత	-8.70509
▁గా	-8.7057
▁single	-8.70589
▁read	-8.70608
so	-8.70906
రావు	-8.71207
▁fi	-8.71248
▁లి	-8.71424
▁chi	-8.71579
▁know	-8.71696
ముగా	-8.71707
స్తే	-8.71724
ేశ్వర	-8.71961
ndi	-8.71966
టో	-8.72023
▁పంచ	-8.7205
న్స్	-8.72067
kar	-8.72383
▁today	-8.72479
▁తొలి	-8.72606
▁ఎప్పుడు	-8.72622
కర	-8.72662
ాను	-8.72706
▁దేవ	-8.72762
▁en	-8.72791
▁gu	-8.72871
▁పద	-8.72891
కులు	-8.72954
q	-8.72979
▁downloads	-8.72998
షి	-8.73128
ుడి	-8.73138
లోకి	-8.73302
▁ప్రా	-8.73305
ంప	-8.7334
▁పశు	-8.7349
▁bu	-8.73502
▁first	-8.73654
ms	-8.73664
▁చా	-8.73794
ah	-8.74
త్ర	-8.74145
▁మార	-8.74219
▁న్యూస్	-8.74238
సె	-8.74257
ir	-8.74337
▁ఇద్దరు	-8.74432
▁ti	-8.74549
▁మొ	-8.7476
▁సంక్షేమ	-8.74889
ran	-8.74977
ine	-8.74979
tion	-8.75016
▁please	-8.75034
▁pi	-8.75058
ai	-8.75208
oo	-8.75213
▁లోనూ	-8.75461
▁సమ	-8.75473
ల్లి	-8.7548
▁సంరక్షణ	-8.75692
▁అమ్మాయి	-8.7576
tho	-8.75763
▁శిశు	-8.75786
ting	-8.75802
లె	-8.75809
▁తప్పు	-8.75847
▁చేసుకో	-8.75919
rt	-8.76082
▁కాగా	-8.76454
shi	-8.76457
త్వ	-8.76486
ుతూ	-8.76552
▁తక్కువ	-8.76556
▁ప్రత్యామ్నాయ	-8.76561
▁వారం	-8.76796
▁pre	-8.7682
▁గుండె	-8.76967
లం	-8.77135
్య	-8.77259
▁అలాగే	-8.77277
ji	-8.77392
▁గుర్తించ	-8.77443
ట్ల	-8.77531
ూరు	-8.77755
ci	-8.77981
హి	-8.78139
బో	-8.78345
▁నమ్మ	-8.78345
ava	-8.78355
▁పెంచ	-8.78462
▁తి	-8.78486
లోనే	-8.78641
▁అవసరం	-8.78679
▁డి	-8.78733
▁మూల	-8.78741
▁ad	-8.78805
▁విజయ	-8.789
▁లేకుండా	-8.79261
▁ఉండాలని	-8.79282
▁రాజు	-8.7971
▁creative	-8.79972
▁కట్ట	-8.80053
▁mana	-8.80108
టే	-8.80111
ఘ	-8.8016
▁they	-8.80202
ంజ	-8.80207
ేది	-8.80401
▁చేసింది	-8.80511
రియా	-8.80575
ye	-8.80599
▁how	-8.80676
▁దేవి	-8.80695
▁దు	-8.80727
ముల	-8.80737
▁అధిక	-8.80787
స్తు	-8.80947
▁విస్తరించి	-8.81054
ాలతో	-8.81252
▁ani	-8.81304
▁os	-8.81314
▁ఉంటా	-8.81515
▁voice	-8.81534
▁has	-8.81594
ట్టి	-8.81608
▁ya	-8.81643
▁సీ	-8.81848
▁ఎవరు	-8.8194
▁పాట	-8.81968
▁పే	-8.82099
ot	-8.82126
▁videoshow	-8.82144
▁ఒకే	-8.82149
▁amma	-8.82175
ంచి	-8.82201
▁మనకు	-8.82292
▁kar	-8.8232
▁లేక	-8.82347
▁musical	-8.8243
▁her	-8.82474
సిన	-8.82644
▁bangaram	-8.82886
▁mango	-8.82896
▁శక్తి	-8.82909
▁ఇష్టం	-8.83076
▁end	-8.83216
▁నెల	-8.8326
ent	-8.83406
▁పూర్తి	-8.83432
▁మండలం	-8.83572
▁similar	-8.83598
▁మాతా	-8.83662
త్తు	-8.8374
▁దీనిని	-8.83771
▁అలా	-8.83834
కర్	-8.83837
▁ఉంచ	-8.83856
▁సై	-8.8397
▁మానవ	-8.83989
▁బీ	-8.83995
▁live	-8.84002
dy	-8.84047
▁వచ్చి	-8.8409
om	-8.84141
▁కేంద్రంలో	-8.84231
▁మరో	-8.84253
ిస్తే	-8.84257
▁care	-8.84264
▁స్టేటస్	-8.84464
▁అయినా	-8.8456
రణ	-8.84572
▁తయారు	-8.84682
▁భూమి	-8.84781
▁సో	-8.84835
▁చెయ్య	-8.84877
▁యాప్	-8.84888
▁సంచార	-8.84937
తులు	-8.84953
▁రో	-8.85067
పే	-8.85144
▁ఇవి	-8.85186
ులకు	-8.85244
▁దేశ	-8.85252
▁pu	-8.85314
నని	-8.85365
▁ప్రాంతాల	-8.85417
ల్లా	-8.85455
▁ఇప్పుడు	-8.85459
▁ku	-8.85541
▁స్వామి	-8.85671
▁డ	-8.85683
ఠ	-8.85687
▁చవితి	-8.85745
తారు	-8.85761
▁విద్య	-8.85769
ైనా	-8.85784
▁any	-8.85831
ut	-8.85847
ంట్	-8.85934
్లో	-8.85961
▁ఎక్కడ	-8.85989
▁beautiful	-8.86162
ps	-8.86273
కాల	-8.8642
▁was	-8.86509
▁పూ	-8.86615
▁want	-8.86705
▁సంవత్సరాల	-8.86801
న్ని	-8.86815
న్నారు	-8.86896
▁చేయడం	-8.86901
▁నిర్	-8.86978
▁ఎందుకు	-8.87168
శా	-8.87183
కార	-8.87266
రూ	-8.87413
able	-8.87509
గానే	-8.87546
ity	-8.87584
▁జి	-8.87614
ist	-8.87707
▁బు	-8.87735
▁దేవుడు	-8.87797
▁వారిని	-8.87836
ల్స్	-8.8785
▁ఆశీస్సులతో	-8.87854
▁జన	-8.87892
▁ఆర్థిక	-8.8791
▁lover	-8.8794
▁collections	-8.87972
▁than	-8.87988
డో	-8.88161
▁బ్ర	-8.88198
▁నైట్	-8.88263
▁nice	-8.88642
▁y	-8.8898
▁bha	-8.89043
▁ఫ	-8.89348
దో	-8.89353
▁ఇన్	-8.89373
▁par	-8.89539
▁అల	-8.89734
▁girls	-8.89752
▁కలిగిన	-8.89773
ia	-8.89874
జు	-8.89957
▁full	-8.90002
▁mad	-8.90208
▁learn	-8.90208
lle	-8.90255
▁నీతో	-8.90261
ించింది	-8.9027
ant	-8.90417
▁నాలుగు	-8.90427
తూ	-8.90449
▁jokes	-8.9045
ండు	-8.9047
▁భాగ	-8.90788
▁ఎన్ని	-8.90807
▁nu	-8.90906
▁come	-8.90927
ుతున్న	-8.91089
ik	-8.91103
▁మార్చ	-8.91231
▁ce	-8.91286
▁viral	-8.91295
▁ఇదే	-8.91306
sta	-8.91402
▁కేంద్ర	-8.91486
we	-8.91487
▁వాటి	-8.91506
▁విడుదల	-8.91538
▁har	-8.91675
▁dream	-8.91768
▁వెళ్ళ	-8.91808
▁అర్ధం	-8.91816
▁ప్రేమించ	-8.91923
దేశ	-8.91953
లూ	-8.92157
▁sun	-8.92307
▁తన	-8.92309
▁రాజకీయ	-8.92396
ంటా	-8.92478
my	-8.92497
ted	-8.92522
▁ఆలోచన	-8.92624
త్వం	-8.92679
▁global	-8.92762
చా	-8.92779
▁పంప	-8.92852
▁because	-8.92934
▁అంతే	-8.93003
▁community	-8.93025
ందని	-8.93027
▁ప్రజల	-8.93034
▁కోట్స్	-8.9311
వర	-8.93146
ప్పు	-8.93213
కూడదు	-8.93234
▁king	-8.93252
స్తారు	-8.93381
▁ru	-8.93443
బ్బ	-8.93445
ju	-8.93499
▁కులాల	-8.93547
పె	-8.9356
▁గణాంకాల	-8.93649
▁wi	-8.93663
పుడు	-8.93679
▁వేడి	-8.9368
▁ఇంత	-8.93689
ాలంటే	-8.93726
▁ఏర్పాటు	-8.93792
▁ప్రాణ	-8.94002
nk	-8.94216
ani	-8.943
▁మై	-8.94325
▁inshot	-8.9437
▁కాలంలో	-8.94468
చ్చి	-8.94533
▁sup	-8.94587
▁భావ	-8.94694
▁చివరి	-8.9483
▁కోపం	-8.94837
▁గుర్తు	-8.94861
▁nenu	-8.94876
▁రెండవ	-8.94899
లేక	-8.94911
బడ	-8.94939
▁prema	-8.94969
జె	-8.95493
▁mom	-8.95573
ళ్లు	-8.95702
▁డిస్పెన్సరీ	-8.95847
▁పట్టణమైన	-8.96335
yo	-8.96351
▁వాడు	-8.9637
em	-8.964
▁lu	-8.96403
▁తెగల	-8.96414
▁అలోపతి	-8.96447
లై	-8.96553
▁person	-8.96741
▁work	-8.96777
ళి	-8.96822
▁సర్	-8.9685
▁save	-8.96888
▁ఆశ	-8.96919
▁ఉపయోగించ	-8.96993
▁ఇం	-8.97054
గ్ర	-8.97118
▁భారతదేశపు	-8.97196
▁షార్ట్	-8.97373
▁prasad	-8.97412
▁డె	-8.97513
▁సర్వ	-8.97707
పల్లిలో	-8.97707
▁free	-8.97835
▁తీర	-8.97836
▁super	-8.98189
▁పరీక్ష	-8.98193
▁pain	-8.98332
▁ఫెయిల్యూర్	-8.98353
▁ఉంటారు	-8.98379
▁నగర	-8.98543
స్త	-8.98642
▁రాత్రి	-8.98832
▁name	-8.98847
nna	-8.98955
▁అక్కడ	-8.99088
త్య	-8.99105
▁చేస్తే	-8.99125
▁వస్తుంది	-8.9918
aka	-8.99314
▁భారతీయ	-8.99346
nda	-8.99367
▁there	-8.99425
▁shayari	-8.99564
▁వివిధ	-8.99589
van	-8.99603
▁లొకేషన్	-8.99629
▁song	-8.99702
▁ఎవరి	-8.99731
▁ఉండి	-8.99765
▁ju	-8.9977
▁ఆడవారి	-8.99832
▁కొట్ట	-8.99888
▁call	-8.99971
ay	-8.99999
▁ఇంటి	-9.00086
▁హెక్టార్లలో	-9.0014
▁fe	-9.00199
▁నిద్ర	-9.00214
io	-9.00348
▁మగవారి	-9.00371
▁జో	-9.00441
▁ke	-9.00564
▁కేంద్రమైన	-9.00624
▁ప్రజలు	-9.00666
hriving	-9.0075
ari	-9.0085
▁his	-9.00913
▁వచ్చింది	-9.00994
▁చాలు	-9.01158
▁మర్చిపో	-9.0124
▁need	-9.01336
ap	-9.01352
▁per	-9.01393
▁ఫా	-9.01414
▁గాంధీ	-9.01453
love	-9.01488
▁lyrics	-9.01539
▁సంతోష	-9.01543
ద్ధ	-9.01623
mp	-9.01631
tti	-9.01661
▁ki	-9.01762
▁chinna	-9.01866
▁అత్యంత	-9.01887
వం	-9.01975
లుగా	-9.02006
▁about	-9.02045
cu	-9.02058
▁వేల	-9.02061
ందుకు	-9.02082
ావ	-9.02118
▁కారణంగా	-9.02276
ినా	-9.02278
▁చిత్రం	-9.02302
తుంది	-9.0254
▁కొండ	-9.02823
tic	-9.02913
యర్	-9.02989
▁సాధారణంగా	-9.03097
▁camera	-9.03348
▁హో	-9.03437
▁జరిగింది	-9.03487
▁topbuz	-9.03527
వై	-9.03543
ూర్	-9.03543
▁కిలోమీటర్ల	-9.03605
ణం	-9.03669
ff	-9.03682
▁సూర్య	-9.03686
గే	-9.03688
▁డబ్బు	-9.03733
▁నిర్వహించ	-9.03758
▁కృష్ణ	-9.03794
▁నాగ	-9.03797
im	-9.03878
ులను	-9.03887
హ్	-9.03999
yam	-9.04084
థి	-9.04088
har	-9.04094
కోసం	-9.04105
▁bar	-9.04115
▁రంగు	-9.04149
▁gossip	-9.04162
▁జరుగుతుంది	-9.04189
▁అంతర్జాతీయ	-9.04253
▁అయి	-9.04408
▁quality	-9.04449
కండి	-9.04463
ver	-9.04479
సారి	-9.04569
▁vid	-9.04645
▁తె	-9.04655
▁on	-9.04707
▁గాయ	-9.04725
ందా	-9.04842
▁ఇళ్లతో	-9.04963
▁పోటీ	-9.05009
దేవి	-9.05052
▁attitude	-9.05066
▁సంతోషంగా	-9.05233
▁గురు	-9.05242
▁media	-9.05243
ీయ	-9.0543
▁చేస్తుంది	-9.05433
ali	-9.055
▁గ్రామాల	-9.0553
▁ఎం	-9.05533
▁ప్రస్తుతం	-9.05605
▁సమస్య	-9.05624
▁forever	-9.05644
kumar	-9.05728
▁give	-9.0582
▁ఇందులో	-9.05927
▁గుండా	-9.06009
▁out	-9.06069
సో	-9.06102
▁శి	-9.06124
▁bro	-9.06221
fe	-9.0628
▁రైతు	-9.06286
▁sta	-9.06577
▁దేవుని	-9.0663
పురం	-9.06663
▁మనసులో	-9.06692
▁సంత	-9.06882
▁ads	-9.06936
▁ఏడు	-9.06999
und	-9.07044
▁కవితలు	-9.07111
▁మొదలైనవి	-9.07122
▁too	-9.07131
▁చరిత్ర	-9.07173
కంటే	-9.07184
▁కష్ట	-9.07246
క్రమ	-9.07262
▁తూర్పు	-9.0727
▁కంకర	-9.07284
hu	-9.07292
fa	-9.07294
▁ఎంతో	-9.07359
▁గారు	-9.07388
ద్ర	-9.0741
ful	-9.07434
తుల	-9.07491
▁సాధించ	-9.07621
మన	-9.0772
▁real	-9.07721
▁ఆత్మ	-9.07789
▁పౌర	-9.0785
dam	-9.07904
▁రెడ్డి	-9.07975
▁క్రియేషన్స్	-9.08048
▁అందరి	-9.08069
ీకరణ	-9.08122
వాడ	-9.08149
మీద	-9.0824
▁రాయ	-9.08243
పోయింది	-9.08252
▁yo	-9.08269
▁చంద్ర	-9.08293
▁బస్సులు	-9.08341
▁కష్టం	-9.0838
▁edit	-9.08398
▁ధర్మ	-9.08427
▁శాల	-9.08434
ంక	-9.08493
న్నీ	-9.08521
▁సంగీత	-9.08531
▁అవకాశం	-9.0854
▁thousand	-9.08552
▁cute	-9.08616
గిరి	-9.08661
▁రూప	-9.08727
▁వార	-9.08751
▁ap	-9.08818
▁ప్రారంభ	-9.08939
▁its	-9.08953
ార్	-9.08999
ాన్	-9.0902
▁channel	-9.09045
▁ిన్	-9.09184
ld	-9.092
▁down	-9.092
han	-9.09214
ిస్తా	-9.09259
▁contains	-9.09401
ns	-9.09419
▁హె	-9.0944
ud	-9.09516
▁sh	-9.09554
▁సాగ	-9.09557
▁తెలియ	-9.09682
▁కూ	-9.09815
ంటు	-9.0991
dhe	-9.10012
ham	-9.10139
tt	-9.10163
▁నాన్న	-9.10183
▁way	-9.10226
▁st	-9.10254
▁ది	-9.10353
▁dis	-9.10414
▁తగ్గ	-9.10426
▁స్ప	-9.10555
▁మర	-9.10627
▁జె	-9.10654
▁నీరు	-9.10661
llo	-9.10914
▁సభ్యులకు	-9.10981
▁అందరూ	-9.11045
▁సంపాదించ	-9.1107
ks	-9.11194
నుండి	-9.11301
మూ	-9.11319
▁ఫి	-9.11587
▁సమయం	-9.11608
▁or	-9.11612
▁art	-9.11614
▁రంగ	-9.11622
▁మహ	-9.11646
▁బ్రహ్మ	-9.11701
రికి	-9.11774
▁నిల	-9.11788
▁పుట్ట	-9.1187
ించడం	-9.11905
▁స్నేహం	-9.12045
్యం	-9.12087
▁పది	-9.12106
▁మార్నింగ్	-9.12107
▁తెలియదు	-9.12142
▁సరి	-9.12182
▁చేస్తా	-9.12193
▁జయంతి	-9.1221
▁వీడియో	-9.1223
ish	-9.12246
▁ఓయ్	-9.12251
▁వీరి	-9.12307
గం	-9.12366
▁విన	-9.1246
der	-9.12575
రోజు	-9.12665
kka	-9.12671
▁ఎన్నో	-9.12718
వాద	-9.12828
gg	-9.12855
సన్	-9.12861
మున	-9.12984
ada	-9.13036
▁cho	-9.13083
ton	-9.13119
▁విజయం	-9.13169
▁తెలుసు	-9.13192
ుటకు	-9.13218
▁పీ	-9.13274
బడుతుంది	-9.13352
కారం	-9.13402
▁maker	-9.1345
▁ఆదివారం	-9.13466
▁car	-9.13477
స్వామి	-9.13542
▁చంప	-9.13588
▁pan	-9.13686
▁కారణం	-9.13759
▁mah	-9.13835
▁దూరంలోనూ	-9.13877
ds	-9.13974
▁indian	-9.14046
కొండ	-9.14143
▁వాణిజ్య	-9.14209
ight	-9.14229
▁mbit	-9.14338
▁కవి	-9.1441
▁సెప్టెంబర్	-9.14423
తన	-9.14439
ట్స్	-9.14465
జన	-9.14471
చేస	-9.14728
ny	-9.14765
tes	-9.14832
▁పేరుతో	-9.14977
తాయి	-9.15004
▁ఉండదు	-9.15041
age	-9.15193
▁arts	-9.1524
▁ప్రతీ	-9.15249
ేవారు	-9.15302
▁చెంద	-9.1539
▁వెళ్ల	-9.15456
నియా	-9.15592
▁volga	-9.15625
▁కేవలం	-9.15655
▁స్త్రీ	-9.15695
▁some	-9.15702
పరచ	-9.15726
▁back	-9.15752
▁sar	-9.15773
▁వీరు	-9.15828
▁నచ్చ	-9.15884
▁కొంత	-9.15976
▁వున్న	-9.16088
కుల	-9.16093
కూ	-9.16142
ుకోవడం	-9.16154
ించాడు	-9.16185
▁సంఘం	-9.16309
tta	-9.16378
one	-9.16394
▁hari	-9.16395
▁ప్రాంతంలో	-9.16415
ok	-9.16509
aa	-9.16512
▁బ్యా	-9.16593
▁photo	-9.16638
దని	-9.16768
▁అందులో	-9.16804
▁పై	-9.16815
▁team	-9.1685
ంటూ	-9.16875
▁shi	-9.1692
▁పశ్చిమ	-9.16952
▁యూ	-9.17043
▁అబ్బాయి	-9.17045
▁darling	-9.17063
ంపు	-9.17217
పెట్ట	-9.17263
dh	-9.17292
day	-9.17295
▁కె	-9.17313
ate	-9.17417
yi	-9.17429
▁ఎప్పుడూ	-9.17619
▁much	-9.17736
▁శా	-9.17789
ini	-9.18032
చె	-9.18051
ావు	-9.18073
ధ్య	-9.18089
▁smart	-9.18106
▁నిజం	-9.18109
▁సంబంధించిన	-9.18114
▁అప	-9.18151
▁tra	-9.18179
జర్	-9.18308
▁వెంకట	-9.18316
▁నిర్మించ	-9.18581
త్రి	-9.18616
▁edits	-9.18684
▁వ్యవసాయం	-9.18703
▁చేత	-9.18718
▁design	-9.18813
▁కాల్	-9.18815
▁నమ్మకం	-9.18818
ిని	-9.18832
కుడు	-9.18856
je	-9.18931
▁షా	-9.18948
▁je	-9.19052
op	-9.19101
▁తీ	-9.19162
టింగ్	-9.19164
▁ఎన్	-9.19328
▁బల	-9.19374
▁కావాలి	-9.19378
▁es	-9.19386
▁నామ	-9.19573
▁దివ్య	-9.19617
▁ప్రేమించిన	-9.19717
▁శాఖ	-9.1979
gh	-9.19814
క్కు	-9.19829
▁నది	-9.19853
మం	-9.19867
▁టె	-9.19898
▁అమెరికా	-9.19915
▁ధ	-9.19965
▁part	-9.19971
▁బంధ	-9.20004
▁jesus	-9.20005
aga	-9.20078
ab	-9.20093
▁movies	-9.2012
▁డా	-9.20269
వరం	-9.20323
▁కాకుండా	-9.20323
▁పెళ్లి	-9.20326
tra	-9.20352
jo	-9.20424
▁vfly	-9.20446
tal	-9.20499
ానం	-9.20508
▁స్థాయి	-9.20546
res	-9.20547
▁editz	-9.20569
▁నిర్మాణ	-9.2058
▁pri	-9.20736
▁గి	-9.20752
షా	-9.20765
uku	-9.20769
▁ముఖ్య	-9.20774
డె	-9.20783
bb	-9.20832
చూ	-9.20868
▁ట	-9.20946
▁వేయ	-9.20997
▁మరొక	-9.21016
▁des	-9.21079
వ్య	-9.21133
are	-9.21241
▁సంవత్సరం	-9.21294
▁అంతా	-9.21325
ెంట్	-9.21402
వాలి	-9.21423
▁ఎదురు	-9.21452
▁nan	-9.21472
▁విశాఖపట్నం	-9.21508
▁ష	-9.21584
▁సుమారు	-9.21661
▁పరిశోధన	-9.21741
ధా	-9.21838
▁నమోదు	-9.21841
▁ఆలోచించ	-9.21843
▁great	-9.21903
▁రకాల	-9.21903
▁దారి	-9.21984
▁కనిపించ	-9.22005
▁వ్యాపార	-9.22005
పం	-9.22036
తాడు	-9.22053
▁దేశం	-9.22056
గ్గ	-9.22071
▁sal	-9.22072
ైతే	-9.22096
పోయిన	-9.22096
▁ci	-9.22124
▁sep	-9.22163
▁మంత్రి	-9.22239
వరకు	-9.22277
▁chu	-9.22281
▁భూ	-9.22284
▁మార్	-9.22297
దేవ	-9.22308
▁director	-9.22326
మంది	-9.22339
▁ab	-9.22393
▁రచయిత	-9.22423
▁పర్	-9.22451
▁దీనికి	-9.22469
tor	-9.22494
▁cre	-9.22614
ree	-9.22758
▁ala	-9.22764
les	-9.22787
▁టా	-9.22801
▁ఆనంద	-9.22815
▁hero	-9.22835
▁ప్రదేశ్	-9.22843
▁dear	-9.22944
ంగి	-9.22952
▁edutok	-9.22957
▁potti	-9.22978
vu	-9.23076
▁film	-9.23089
▁oo	-9.2309
▁ఏమి	-9.23095
▁say	-9.23102
▁sad	-9.23131
▁bujji	-9.23173
▁special	-9.23248
▁teacher	-9.23318
ంచు	-9.23362
▁న్యాయ	-9.23378
▁నేనే	-9.23421
చేయ	-9.23431
▁హి	-9.23433
▁దాదాపు	-9.2344
ిస్తున్న	-9.23474
▁son	-9.23601
నప్పుడు	-9.23737
▁off	-9.23761
▁సహకార	-9.23773
▁వాటిని	-9.23865
కాలం	-9.24037
చిన	-9.24053
▁die	-9.24227
▁నిజమైన	-9.24283
min	-9.24441
▁most	-9.24512
▁నగర్	-9.24556
ey	-9.24694
మర్	-9.2474
▁యు	-9.2489
▁feelings	-9.24999
▁set	-9.2505
ుడిగా	-9.25085
▁వాళ్ల	-9.25117
▁formerly	-9.25139
▁feeling	-9.25253
up	-9.25262
పాడు	-9.25421
వడం	-9.25483
▁నిజ	-9.25503
▁bas	-9.25551
▁ఏది	-9.25591
యిన	-9.25647
▁kan	-9.25736
lan	-9.25745
▁క్షణం	-9.25773
▁లె	-9.25897
▁mobile	-9.25915
ెను	-9.2593
▁పరిచయం	-9.26045
▁చేస్తారు	-9.26119
ాం	-9.26275
▁allu	-9.26278
▁యుద్ధ	-9.26307
▁ప్రాంతం	-9.26521
హం	-9.26525
పాల	-9.26553
కపోతే	-9.26562
▁అస	-9.26613
ుడైన	-9.26794
▁వైపు	-9.26862
▁days	-9.26901
▁hu	-9.26955
▁lord	-9.26958
▁వ్య	-9.27096
▁మారి	-9.27118
▁someone	-9.27124
▁show	-9.27132
ide	-9.2719
▁న్యూ	-9.27279
ard	-9.27357
cy	-9.2737
▁prabhas	-9.27386
▁పొందిన	-9.27421
▁change	-9.2744
music	-9.27476
▁ఉన్నత	-9.27488
▁దేశంలో	-9.27513
▁movie	-9.27519
▁after	-9.27652
▁సేవ	-9.27729
▁swa	-9.27741
దం	-9.27747
▁family	-9.27759
▁సాధారణ	-9.27798
▁రోజులు	-9.27802
▁లేకపోతే	-9.27862
▁అవుతుంది	-9.27863
ుకుంటే	-9.27873
▁బతుకమ్మ	-9.28033
చ్చే	-9.28058
జం	-9.28063
డమే	-9.28136
▁బొ	-9.28149
wo	-9.28168
▁సూ	-9.28197
▁without	-9.28335
▁సమస్యలు	-9.28396
కల్	-9.28452
▁క్రీ	-9.28481
▁gra	-9.28575
వారం	-9.2863
▁ధన	-9.28692
▁లాంటి	-9.2872
raj	-9.28747
యన్	-9.28833
▁నాటక	-9.28875
ఎ	-9.28891
▁కలిపి	-9.28964
▁keep	-9.29016
పేట	-9.29025
ుట	-9.29107
▁కోట	-9.29109
▁vin	-9.29129
▁సోమవారం	-9.29189
▁think	-9.29239
zz	-9.29257
▁మూ	-9.29383
బడ్డాయి	-9.29437
మైనది	-9.29521
▁mon	-9.29651
▁hot	-9.29769
ika	-9.29831
▁యెహోవా	-9.29917
▁రోపోసో	-9.29932
వని	-9.29942
▁sr	-9.2995
ేయ	-9.30049
▁win	-9.30256
ర్డ్	-9.30263
▁అనుకున్న	-9.3028
▁మార్చి	-9.30353
▁oka	-9.30401
▁కం	-9.30418
ఆ	-9.3042
ల్లు	-9.30497
రై	-9.30499
▁broken	-9.30499
▁biugo	-9.30508
డంతో	-9.30514
ంధ	-9.30524
za	-9.30553
▁anna	-9.30629
▁కంపెనీ	-9.30642
కల	-9.30647
ాత్మక	-9.30776
▁var	-9.30849
▁rowdy	-9.3085
▁ఉండేది	-9.30862
▁తెలుసా	-9.30901
▁అప్పుడు	-9.31001
తర	-9.31062
▁ఈరోజు	-9.31078
భా	-9.31239
▁యువ	-9.31241
▁ఉపాధ్యాయ	-9.31247
gle	-9.31255
▁very	-9.31296
▁త్వరగా	-9.31306
రవ	-9.31308
ning	-9.31334
▁కన్న	-9.3136
ుతారు	-9.31365
nam	-9.31429
ండే	-9.31453
సర్	-9.31454
▁మనల్ని	-9.31461
▁chinni	-9.31461
▁x	-9.31499
▁popular	-9.31701
era	-9.31812
టిక్	-9.31901
▁bank	-9.31931
gan	-9.32056
ారా	-9.32116
తల	-9.32294
ించు	-9.32303
▁ఇచ్చే	-9.32303
▁పర	-9.32336
▁వెంటనే	-9.3236
ఫి	-9.32374
▁ఏదో	-9.32382
▁నేర్ప	-9.32426
dd	-9.32455
▁దూరంగా	-9.32479
▁hand	-9.32589
▁తాను	-9.32676
▁గురువు	-9.32686
ble	-9.32802
▁చూడు	-9.32987
ling	-9.3299
టె	-9.3301
ise	-9.33023
▁బాల	-9.33025
▁అనగా	-9.33034
ence	-9.33119
పతి	-9.33163
dar	-9.33197
ness	-9.33207
▁గోదావరి	-9.33213
పర్	-9.33327
▁హృదయ	-9.3335
ుకు	-9.33356
▁shar	-9.33404
▁take	-9.33413
▁పత్రిక	-9.33426
▁అభి	-9.3347
▁దసరా	-9.33473
▁big	-9.33528
▁అల్ల	-9.33529
▁పూజ	-9.33638
ంతా	-9.33684
nch	-9.33739
▁pat	-9.3381
ical	-9.33811
▁యె	-9.33824
▁కాపాడ	-9.33847
▁ఉండటం	-9.33899
▁మరింత	-9.33908
▁పాప	-9.33934
స్తాయి	-9.33998
తలు	-9.34
▁వీర	-9.34012
▁భాగంగా	-9.34085
చన	-9.34104
ండా	-9.34175
ulu	-9.34185
reddy	-9.3419
శ్	-9.3424
ంటారు	-9.34256
కాయ	-9.34283
కై	-9.3429
నర్	-9.34319
▁తెలిసిన	-9.34455
ations	-9.34586
▁ఆది	-9.3462
బీ	-9.34755
▁comp	-9.34764
▁పెట్టి	-9.34771
▁raa	-9.34831
లపై	-9.34917
ణా	-9.34972
▁దానికి	-9.34989
▁మత	-9.35009
ుకోవాలి	-9.35159
▁భావించ	-9.35165
▁కాబట్టి	-9.35201
్యా	-9.35204
▁ever	-9.3523
▁sub	-9.35266
alu	-9.35266
తె	-9.35267
▁జయ	-9.35347
వార	-9.35408
▁కాక	-9.35409
▁వెనుక	-9.35489
▁wo	-9.35509
cc	-9.35523
▁హైదరాబాద్	-9.35525
▁min	-9.35594
▁dha	-9.35658
▁fake	-9.35717
mma	-9.35756
ies	-9.35774
▁క్ర	-9.35833
▁sm	-9.35833
▁అమ్మవారి	-9.35835
mm	-9.35857
▁దానిని	-9.35871
▁అక్టోబర్	-9.35915
▁ఆలయ	-9.35923
▁స్థాపించ	-9.36043
▁jan	-9.36077
▁sat	-9.36095
▁ch	-9.36155
au	-9.36158
▁రక్త	-9.36182
▁high	-9.36194
com	-9.36211
tham	-9.36212
▁విశ్వ	-9.36263
▁మనస్సు	-9.36301
▁చేశాడు	-9.36393
▁gold	-9.36395
▁కాం	-9.36396
▁oro	-9.36476
▁సౌ	-9.36708
▁స్వయం	-9.37092
ర్స్	-9.37101
▁ప్రదర్శన	-9.37129
▁నవ్వ	-9.3718
og	-9.37219
▁ఎత్తు	-9.37247
లేరు	-9.37266
ాడ	-9.37276
▁నవ్వు	-9.37308
వాస	-9.3732
▁సముద్ర	-9.3736
▁over	-9.3747
▁సాయి	-9.37505
▁ji	-9.37533
▁ok	-9.37555
స్తున్నా	-9.37557
మంత	-9.37571
ున్న	-9.37587
▁పెళ్ళి	-9.37629
▁raj	-9.3767
▁తర	-9.377
యన	-9.37723
ఠా	-9.37754
▁మెసేజ్	-9.37764
ave	-9.37807
ఫ	-9.37817
llu	-9.37818
▁వుండ	-9.37858
▁పథకం	-9.37891
▁శనివారం	-9.37971
shu	-9.38028
లర్	-9.3803
ct	-9.38034
▁ఇంట్లో	-9.38075
▁చిరునవ్వు	-9.38083
▁గ్	-9.38176
▁చదువు	-9.38194
దె	-9.38222
▁redmi	-9.38266
ven	-9.38308
▁qu	-9.38315
ార	-9.38344
▁ప్రేమించే	-9.38352
టన్	-9.38362
ింప	-9.38375
▁trends	-9.38388
▁బృందం	-9.38418
▁sy	-9.38455
▁up	-9.3846
▁ఈయన	-9.38509
ub	-9.38536
▁ఆప	-9.38547
ze	-9.38581
పోతుంది	-9.38593
▁గుంటూరు	-9.38645
▁మార్కెట్	-9.38666
▁రాజ్య	-9.38689
▁ver	-9.38869
▁look	-9.38874
భావ	-9.38932
▁వదిలి	-9.38941
ద్ది	-9.38973
వద్దు	-9.39
▁ఫ్రెండ్	-9.39044
య్యా	-9.39048
▁తారు	-9.39105
▁జిల్లాలో	-9.39193
▁స్థానిక	-9.39198
శ్రీ	-9.39218
▁boys	-9.39379
▁మార్గ	-9.39502
▁కార్యాలయం	-9.39516
▁ac	-9.39523
▁ముఖ్యమైన	-9.39528
▁రోజుల	-9.39808
▁ex	-9.39819
▁గుర్తింపు	-9.39845
▁ఐదు	-9.39885
▁చూస	-9.39917
▁manga	-9.39937
ance	-9.39972
▁premium	-9.40011
▁phone	-9.40022
మన్	-9.40068
పద	-9.40246
▁బ్రతక	-9.403
▁men	-9.40312
bha	-9.40313
▁ఆట	-9.40319
ker	-9.40329
▁er	-9.40364
▁ఈమె	-9.40513
▁పాత	-9.40518
▁అల్	-9.40521
రిక	-9.4054
▁ఉత్తమ	-9.40585
▁face	-9.4059
▁ప్రజా	-9.40696
ary	-9.40767
ూరి	-9.40772
ls	-9.40788
▁evening	-9.40825
▁పిల్లల	-9.40851
▁కీర్తనలు	-9.40905
▁bra	-9.40911
▁note	-9.40944
▁కార్యకర్త	-9.41009
▁wor	-9.41081
రామ	-9.41102
ఎస్	-9.41122
▁vu	-9.41126
▁ban	-9.41142
▁కుల	-9.4117
▁geetha	-9.41178
ాని	-9.41262
▁ఆరు	-9.41277
బర్	-9.41333
నై	-9.41356
ster	-9.41376
ipo	-9.41398
tam	-9.41414
rk	-9.41423
▁లలో	-9.41498
ాక	-9.41506
▁enjoy	-9.41532
▁mas	-9.41533
▁failure	-9.41576
▁lyrical	-9.41591
▁ముగ్గురు	-9.41625
▁జై	-9.41628
▁వెళ్ళి	-9.4165
▁hard	-9.41699
▁ol	-9.41725
వాళ్ళు	-9.41756
▁సంతోషం	-9.4176
▁ఇండియా	-9.41855
స్థాన	-9.41902
art	-9.41911
▁ఫై	-9.41915
ach	-9.41925
mar	-9.4197
ాది	-9.42031
వల	-9.42044
▁cinema	-9.42072
▁z	-9.42163
▁వంద	-9.42219
▁యుద్ధం	-9.42221
▁ఏదైనా	-9.42247
▁నర	-9.42247
▁చూసిన	-9.42263
▁gi	-9.42267
రంగ	-9.42306
▁తెలుస్తుంది	-9.42348
▁విషయం	-9.42383
▁siva	-9.42397
▁సుఖ	-9.42437
▁my	-9.425
▁గాలి	-9.42518
▁హై	-9.42553
▁హరి	-9.42571
ంటుంది	-9.42589
▁last	-9.42663
▁కొందరు	-9.42782
▁ser	-9.42785
▁సే	-9.42873
▁sir	-9.42895
▁ఏక	-9.42904
▁మాటలు	-9.42905
▁రై	-9.42948
▁tri	-9.4295
▁tag	-9.42987
▁గుడి	-9.42992
ph	-9.43017
ction	-9.43037
▁సత్య	-9.43047
▁alone	-9.43113
ou	-9.43118
▁సంప్రదాయ	-9.43269
▁మళ్ళీ	-9.43286
▁తిరుగుతున్నాయి	-9.43303
రక	-9.43322
▁వెళ్లి	-9.43361
chu	-9.43378
▁వెళ	-9.43562
▁భాగం	-9.43598
డూ	-9.43647
రియ	-9.43648
▁their	-9.43696
▁us	-9.438
▁ven	-9.43836
▁message	-9.4386
▁కౌ	-9.43892
▁చెప్పిన	-9.43902
▁cu	-9.43915
▁తీసుకో	-9.43919
▁av	-9.43954
క్షణ	-9.44137
▁let	-9.44187
▁పిల్ల	-9.44277
▁sur	-9.44287
▁రైలు	-9.44334
▁శాస్త్ర	-9.44362
ికి	-9.44384
▁తొ	-9.44424
pp	-9.44424
▁అసలు	-9.44448
▁భోజనం	-9.44499
▁విధ	-9.44545
▁వెంట	-9.44569
pati	-9.44589
▁year	-9.4461
▁రోడ్డు	-9.44617
వులు	-9.44639
స్తున్న	-9.44748
▁పూర్వ	-9.4491
▁కళ్ళ	-9.44947
▁లైఫ్	-9.44987
▁ఏర్పడ	-9.45001
▁సిబ్బంద	-9.45057
యూ	-9.45061
▁pic	-9.45068
▁లోక	-9.45131
▁శాతం	-9.45143
rea	-9.45151
cho	-9.45185
చార	-9.45192
▁చేయడానికి	-9.45245
▁tel	-9.45248
▁నెల్లూరు	-9.4526
▁బయట	-9.45304
star	-9.45351
▁నాటి	-9.45358
లిక	-9.45362
్యు	-9.45431
▁venkat	-9.45565
gar	-9.45641
▁లను	-9.45668
▁సంఘ	-9.45672
▁help	-9.45674
▁సైనిక	-9.45758
▁జాబితా	-9.45759
▁వాడి	-9.45777
uko	-9.45784
ండ్ల	-9.458
▁ఫె	-9.45856
ttu	-9.45874
ice	-9.45886
mb	-9.45887
ఖ్య	-9.45915
▁అందమైన	-9.46022
ందే	-9.46036
anu	-9.46049
▁త్రి	-9.46055
▁అవసర	-9.46086
▁gan	-9.4609
ఉ	-9.46098
▁everything	-9.46105
పూ	-9.4614
▁ముందుగా	-9.46164
▁ఆహార	-9.46177
ాలుగా	-9.46261
జన్	-9.46276
▁exam	-9.46298
▁అప్పటి	-9.46326
▁motivation	-9.46399
tv	-9.464
ందో	-9.46407
▁నవ	-9.46449
పోయి	-9.46499
▁హిందూ	-9.46522
ale	-9.46544
శీ	-9.46545
▁red	-9.4662
▁నారాయణ	-9.46713
▁కొనసాగ	-9.46779
దర	-9.46781
▁గ్రా	-9.46788
nta	-9.46805
▁cor	-9.46872
▁పాడ	-9.46878
▁beat	-9.46884
▁మిత్రమా	-9.46918
సర	-9.46952
▁వర	-9.46956
ంగు	-9.46961
ula	-9.47007
nan	-9.47019
▁వ్యా	-9.47042
ఫీ	-9.47099
ag	-9.47124
▁నూతన	-9.47126
hari	-9.47218
▁పోషకాహార	-9.4722
▁ప్రయత్న	-9.47326
▁పండుగ	-9.4733
▁daily	-9.47344
ర్య	-9.47409
sk	-9.47464
ాంత	-9.47539
▁talk	-9.47607
▁బే	-9.47662
▁home	-9.47696
▁ఒకరి	-9.47708
ారని	-9.47748
end	-9.47866
మునకు	-9.4792
yan	-9.47958
▁రేపు	-9.4801
▁అడుగు	-9.48028
▁పైన	-9.48039
▁సృష్టించ	-9.48079
▁తిన	-9.48108
▁నచ్చిన	-9.48113
వచ్చ	-9.48225
▁వర్	-9.4823
av	-9.48356
రెడ్డి	-9.48377
వృ	-9.48433
▁కలి	-9.48479
▁నో	-9.48482
పోయే	-9.48523
▁శుక్రవారం	-9.48547
▁అర	-9.48585
lam	-9.48639
ుకుంటూ	-9.48642
ిల్లీ	-9.48675
▁భక్తి	-9.48719
▁వేద	-9.48817
▁ఉదయం	-9.48857
▁surya	-9.48863
▁పూర్తిగా	-9.4888
▁rago	-9.48882
ట్రో	-9.48913
▁జీ	-9.48949
▁vol	-9.48983
kh	-9.49043
▁use	-9.49071
లేను	-9.49084
▁ఉన్నప్పుడు	-9.49112
▁ఇచ్చిన	-9.49127
▁main	-9.49183
▁వేరు	-9.4921
▁సిద్ధ	-9.49352
ద్దు	-9.4936
▁war	-9.49394
▁తాగ	-9.4955
▁చేస్తూ	-9.49556
▁sk	-9.49586
బుల్	-9.4972
load	-9.49724
▁boss	-9.49787
▁రూపొందించ	-9.49803
బె	-9.49859
▁బాధపడ	-9.49879
telugu	-9.49912
▁శాంతి	-9.49974
sri	-9.49983
ుకున్నారు	-9.50007
▁dow	-9.5001
▁ఉపయోగ	-9.5005
▁విధానం	-9.50058
▁సెల్	-9.50064
▁కళా	-9.5012
▁పాద	-9.5013
ama	-9.50264
▁జల	-9.50266
దర్	-9.50266
▁గొ	-9.50332
చ్చు	-9.50551
ఇ	-9.50564
▁kine	-9.50591
▁నవ్వుతూ	-9.50609
▁im	-9.5066
▁జీవించ	-9.50673
పాలెం	-9.5078
▁page	-9.50808
▁జూలై	-9.50816
san	-9.50854
▁చింత	-9.50874
▁start	-9.50941
▁ఆధార	-9.5095
▁సార్లు	-9.50985
▁సహాయం	-9.51089
▁beatz	-9.51095
aya	-9.51144
▁డాక్టరు	-9.51152
చో	-9.51161
▁బుధవారం	-9.51227
▁లెక్క	-9.51244
▁సహ	-9.51286
▁వెలుగు	-9.51295
ig	-9.51318
▁నాతో	-9.51354
▁గారి	-9.51368
డుగు	-9.51394
▁fu	-9.51404
▁poo	-9.51465
▁కను	-9.51481
▁నగరం	-9.51505
పల్లె	-9.51522
ppy	-9.51531
▁tan	-9.51594
వారికి	-9.51602
▁వేస	-9.51623
ఫె	-9.51628
▁దూర	-9.51629
▁ఆటల	-9.51705
▁విజయవాడ	-9.51711
మెంట్	-9.51735
▁ins	-9.51818
▁mind	-9.51823
▁కీ	-9.51825
▁studio	-9.51844
▁క్షణ	-9.51893
▁స్థానం	-9.51896
▁hon	-9.51991
▁మంగళవారం	-9.51999
ాస	-9.52011
▁పంపిణీ	-9.52031
▁నేడు	-9.52043
ాలో	-9.52054
krishna	-9.52057
ppa	-9.52119
▁works	-9.5215
▁ur	-9.52168
▁చికిత్స	-9.52196
జ్జ	-9.52202
న్నది	-9.5222
కాలు	-9.52247
▁గాని	-9.52305
▁కింద	-9.52311
▁కళ	-9.52325
▁వస్తే	-9.52453
▁కథ	-9.52492
son	-9.5251
ంచే	-9.52535
▁చాల	-9.52547
▁తిన్నావా	-9.5255
▁ముఖ్యంగా	-9.52553
▁మార్పు	-9.52632
▁భారీ	-9.52679
▁here	-9.52695
ిస్తాడు	-9.52762
cr	-9.52795
మ్య	-9.52834
▁sto	-9.52928
ser	-9.52937
▁ప్రపంచం	-9.52959
నికి	-9.52962
▁ai	-9.52968
▁van	-9.52971
తను	-9.53077
▁doo	-9.53097
▁om	-9.53137
తున్న	-9.53153
▁tech	-9.53165
రుగు	-9.53199
దర్శ	-9.53227
nc	-9.5323
పించ	-9.53243
తున్నా	-9.53275
▁ఉద్యోగ	-9.53321
▁చు	-9.53366
▁release	-9.53382
▁oh	-9.5339
లింగ్	-9.53392
ఫా	-9.53414
▁రూ	-9.53433
▁సంవత్సరాలు	-9.53449
▁vel	-9.53516
▁శరీర	-9.53609
ుడ	-9.5365
▁జనవరి	-9.53765
▁బట్టి	-9.53883
▁క్యా	-9.53886
▁ఇష్ట	-9.54004
▁updates	-9.54117
▁vas	-9.54156
ath	-9.54166
▁పంట	-9.54211
▁stop	-9.54306
▁dan	-9.54312
▁రీ	-9.54426
qu	-9.54616
▁కొద్ది	-9.54707
భ్య	-9.5471
▁ప్రేమను	-9.54801
rr	-9.54807
▁సొసైటీ	-9.54884
▁జగన్	-9.54933
▁ఎటువంటి	-9.5496
▁యమున	-9.54995
▁తెల్ల	-9.55004
▁అందించ	-9.55055
▁hurt	-9.55066
▁తీసుకు	-9.55127
ayya	-9.55194
మ్ము	-9.55197
▁jio	-9.55228
▁పరిస్థితి	-9.55232
▁పున	-9.55241
కరణ	-9.55271
▁mat	-9.55344
▁కూడ	-9.55488
▁స్థానంలో	-9.55504
▁నాటికి	-9.55568
▁maha	-9.55763
వలసిన	-9.55775
▁చెప్పే	-9.55809
▁ట్రాక్టర్లు	-9.55854
▁sp	-9.5587
▁చేస్తున్న	-9.55887
▁ran	-9.55893
aru	-9.55893
జే	-9.55899
status	-9.55946
nti	-9.55993
▁సహాయక	-9.56017
▁వీటి	-9.56124
uu	-9.56178
శు	-9.56216
లైన	-9.56254
▁mee	-9.56364
▁క్రి	-9.56417
▁చుట్టూ	-9.56423
▁ఖమ్మం	-9.56451
▁పరిశ్రమ	-9.56473
▁స్క	-9.5648
gam	-9.56514
▁baa	-9.5652
▁ten	-9.56674
▁them	-9.56786
▁కనుక	-9.56815
▁ammu	-9.56818
▁hello	-9.56846
less	-9.56884
▁adityamusic	-9.56949
ati	-9.57009
▁దిగ	-9.57058
▁leave	-9.57079
▁దైవ	-9.571
▁చెప్పి	-9.57116
రని	-9.5713
ుకుంది	-9.57154
▁పక్ష	-9.573
▁ప్రశ్న	-9.57306
ili	-9.57334
▁తొలగించ	-9.57361
లక	-9.57365
▁did	-9.57365
త్తి	-9.57387
▁మాట్లాడే	-9.57403
సూ	-9.57417
▁చైనా	-9.57466
▁స్థిర	-9.57468
▁milk	-9.57605
▁చిత్తూరు	-9.57649
▁ఒక్కసారి	-9.57661
tte	-9.57681
▁నై	-9.57699
per	-9.5772
▁మోసం	-9.57737
▁గురువారం	-9.5774
పొ	-9.5776
▁తే	-9.57781
▁చూపించ	-9.57798
▁పర్వత	-9.57836
ాల్సిన	-9.57871
వడానికి	-9.579
▁నూనె	-9.57914
▁సభ్య	-9.57929
ian	-9.58002
▁anu	-9.58009
రాజ	-9.58041
▁స్వా	-9.58062
మూర్తి	-9.58082
▁adda	-9.58094
రువు	-9.58102
▁నటించ	-9.58135
▁kill	-9.58236
్ర	-9.58239
▁జనన	-9.58245
▁unna	-9.58246
▁కాంగ్రెస్	-9.58251
▁top	-9.58359
▁yadav	-9.58423
▁finish	-9.58428
ద్య	-9.58451
▁హాయ్	-9.58454
కలు	-9.58459
tions	-9.58475
▁ధర	-9.58507
▁అవ్వ	-9.58511
▁watch	-9.58517
▁ఆగ	-9.5853
వ్వు	-9.58543
▁pilla	-9.58543
▁వరకూ	-9.58556
▁భవన	-9.5857
▁dr	-9.58578
▁తెర	-9.5858
▁ter	-9.58588
యె	-9.58613
▁ముద్దు	-9.58644
nal	-9.5866
▁ఆంధ్రప్రదేశ్	-9.58663
▁మట్టి	-9.5869
boy	-9.58737
కన్నా	-9.58747
laa	-9.58754
▁దాన్ని	-9.58775
▁చేశా	-9.58789
▁ఉన్నది	-9.58811
nde	-9.58816
రాల	-9.58819
ల్ని	-9.58838
▁డై	-9.58883
mala	-9.58888
▁పట్టణ	-9.589
గారు	-9.58967
▁లక్ష్మీ	-9.59046
▁నేటి	-9.59049
మాన	-9.59053
భవ	-9.59118
▁పుట్టిన	-9.59167
▁waiting	-9.59204
▁సాహిత్య	-9.59333
▁shiva	-9.59343
▁hate	-9.59347
▁ఇప్పటి	-9.59362
▁right	-9.59405
టికి	-9.59511
▁గణ	-9.59521
వైపు	-9.59522
▁అసెంబ్లీ	-9.59571
పత్ర	-9.59657
▁ఎన్న	-9.5967
▁రక్షణ	-9.59701
▁చెప్పు	-9.59736
tty	-9.59957
▁మైదానం	-9.6002
▁class	-9.60069
▁old	-9.60074
▁han	-9.60075
నది	-9.6018
▁మరణ	-9.60227
▁వలె	-9.60235
ములను	-9.60254
వాడి	-9.60261
ుచున్న	-9.60274
▁మొక్క	-9.6029
▁శ్రీకాకుళం	-9.60307
హార	-9.60358
▁ఆలయం	-9.60376
ade	-9.60435
▁ప్రియ	-9.60438
ksha	-9.60452
పరి	-9.60472
రూప	-9.60501
ల్డ్	-9.6059
▁sree	-9.60604
of	-9.60604
▁విశ్వవిద్యాలయం	-9.60609
▁ఆధారంగా	-9.60673
▁టైం	-9.6068
▁guru	-9.60692
▁నియమ	-9.60697
▁బాధ్యత	-9.607
ast	-9.60746
▁ప్యా	-9.6082
▁mor	-9.6082
▁ప్రక్రియ	-9.60829
▁dual	-9.60892
▁అర్	-9.60899
▁లభించ	-9.60929
సై	-9.60973
▁టై	-9.60997
▁years	-9.61062
▁తెలి	-9.61086
మైంది	-9.61177
▁food	-9.61213
▁yes	-9.61378
▁కార్య	-9.6151
గర్	-9.61534
▁ఫ్ర	-9.61576
▁అందరికీ	-9.61612
జో	-9.61637
టై	-9.61655
▁వు	-9.61665
▁పోస్టు	-9.61679
▁నల్ల	-9.61691
▁ఫ్రెండ్స్	-9.61691
▁brother	-9.61707
▁హైదరాబాదు	-9.61713
ర్తి	-9.61725
పిరి	-9.61869
▁దిన	-9.61893
▁కొడుకు	-9.61906
▁భారతదేశంలో	-9.6192
iz	-9.62067
▁బాగు	-9.62091
▁better	-9.62156
▁sound	-9.62229
▁పడి	-9.62245
▁other	-9.62245
▁క్ష	-9.6225
▁ప్రవేశ	-9.6227
raju	-9.6233
పోయా	-9.62339
val	-9.6236
▁సంస్కృత	-9.6239
ure	-9.62412
▁ind	-9.62466
ట్రా	-9.62478
red	-9.62527
▁కావ	-9.62572
▁స్నేహ	-9.62596
▁లక్షల	-9.62641
▁ph	-9.62657
ue	-9.62746
▁ముఖ	-9.6278
nte	-9.62809
▁crush	-9.62816
ere	-9.62874
▁తను	-9.62939
▁వ్యాధి	-9.63034
ఐ	-9.63086
▁మిగిలిన	-9.63104
▁many	-9.63107
tri	-9.6314
▁ఆనందం	-9.63147
▁గ్రంథాలయం	-9.63167
▁ఎంపిక	-9.63176
▁చీ	-9.6321
ర్ల	-9.63228
▁స్టా	-9.63254
▁ఎల్	-9.63269
▁అంచనా	-9.63281
థా	-9.63297
▁చరిత్రలో	-9.63311
▁దూ	-9.63315
వంతు	-9.63332
ite	-9.63384
తనం	-9.63421
▁ఆశా	-9.63423
▁చట్ట	-9.63436
రాయ	-9.63493
▁mother	-9.63529
▁రెండో	-9.63544
▁ninnu	-9.63641
కుంటా	-9.63642
▁trust	-9.63683
▁తగ్గించ	-9.63687
▁గుర	-9.63695
ంపై	-9.63741
ప్పటికీ	-9.638
▁రావ	-9.63809
▁సహజ	-9.63821
▁ప్రభావ	-9.6383
time	-9.63832
ft	-9.63881
▁నివాస	-9.63882
ste	-9.63899
▁జూన్	-9.63941
▁మరణాల	-9.63964
ys	-9.64064
kan	-9.64074
▁మౌ	-9.64197
pt	-9.64209
మర	-9.64263
▁వార్తాపత్రిక	-9.6428
line	-9.64326
ney	-9.64356
▁పదం	-9.64361
▁ముక్క	-9.64454
▁em	-9.64463
కున్న	-9.64525
▁సరే	-9.64572
▁hit	-9.64641
▁గీత	-9.64648
న్నె	-9.64662
▁సూచించ	-9.64674
▁bang	-9.64726
▁దినోత్సవ	-9.64755
ugu	-9.64777
▁sin	-9.64823
▁చెట్టు	-9.64858
ుకుంటారు	-9.64908
నున్న	-9.64922
ర్చ	-9.64934
▁కుమార	-9.64955
▁choo	-9.64988
▁insta	-9.6505
▁కృష్ణా	-9.65085
ంటో	-9.6509
▁పెద	-9.65123
▁అతిపెద్ద	-9.65178
▁కేంద్రాలు	-9.65181
ధీ	-9.65222
▁శతాబ్ద	-9.65224
▁ram	-9.65264
▁ప్రయోగ	-9.65272
▁mall	-9.65277
▁wish	-9.65278
▁బాలల	-9.65288
▁ఆధునిక	-9.65325
రము	-9.65351
▁entertainment	-9.65407
ూరులో	-9.65413
వుల	-9.65424
▁స్పెషల్	-9.65451
▁book	-9.65475
▁సందర్భంగా	-9.65493
▁జరగ	-9.6552
yy	-9.65547
▁nag	-9.65565
ుతోంది	-9.65627
▁నడు	-9.65635
▁million	-9.6564
ధు	-9.65648
గడ	-9.65658
ొక	-9.6567
▁సాంప్రదాయ	-9.65703
▁కోరిక	-9.65716
mal	-9.65808
▁ఆల్	-9.65848
▁రోజుల్లో	-9.65849
▁ఎక్స్	-9.6587
ner	-9.65873
▁మనుషుల	-9.65874
wnload	-9.65915
▁long	-9.6592
▁తీర్చ	-9.65926
▁నిర్మాణం	-9.66034
తక	-9.66059
▁అక్క	-9.66077
స్టి	-9.66095
▁tej	-9.66112
▁thu	-9.66124
▁తిరుపతి	-9.66133
▁మంచిది	-9.66337
స్టర్	-9.66352
▁అన్నీ	-9.66354
ila	-9.66434
▁mun	-9.66479
కర్త	-9.66479
ane	-9.66484
▁అర్థ	-9.6649
▁కల్	-9.66506
▁నిత్య	-9.6652
▁sleep	-9.66529
▁ఉదయ	-9.66543
▁dairy	-9.66572
uri	-9.66722
▁అర్ధ	-9.66739
▁ntr	-9.66742
ii	-9.6677
వాహ	-9.66802
▁school	-9.66827
▁సోమ	-9.66856
▁ఉండు	-9.66865
ార్థ	-9.66907
▁ట్రాక్టరు	-9.66912
ుకున్నాడు	-9.66926
▁గృహ	-9.66951
▁act	-9.66966
ఫల	-9.67007
creations	-9.67013
ంలోని	-9.67129
▁goud	-9.67146
▁మార్గం	-9.67153
వాళ్ళ	-9.67156
▁స్థితి	-9.67242
ేంద్ర	-9.6725
▁happiness	-9.67276
శాల	-9.67294
▁ఘ	-9.67297
▁చూడండి	-9.67299
లాండ్	-9.67316
ten	-9.6732
▁bhavani	-9.67351
▁sharecha	-9.67363
gal	-9.67459
కైనా	-9.67536
ture	-9.67599
▁again	-9.67607
▁నవల	-9.67628
▁అమలు	-9.67674
▁shalimar	-9.67684
chin	-9.67688
ునిగా	-9.6774
▁రాజా	-9.6777
మాట	-9.67789
▁sister	-9.67827
▁ఉషోదయ	-9.67841
ug	-9.67903
త్రం	-9.67914
▁రావు	-9.67993
▁బాబు	-9.68
▁మోస	-9.68056
avi	-9.68061
▁చూపు	-9.68093
var	-9.68136
లెక్	-9.68145
▁ఉచిత	-9.68283
▁చోట	-9.68299
▁జాతి	-9.68311
▁కోట్ల	-9.68398
▁కారు	-9.68442
▁అవు	-9.68468
sp	-9.68564
rat	-9.68603
చర	-9.68612
గీ	-9.68619
ర్ధ	-9.6869
▁అలాంటి	-9.68806
wi	-9.68833
▁ఇస్తా	-9.68864
ులుగా	-9.68901
▁reply	-9.68955
▁med	-9.68969
▁విశేష	-9.69007
▁nav	-9.69033
▁mood	-9.69099
నాటి	-9.69104
▁చేతి	-9.6914
▁పాటలు	-9.69141
నాథ	-9.69207
▁జీవితాంతం	-9.69222
▁bless	-9.69278
▁telu	-9.69297
▁వంట	-9.69317
▁చేసారు	-9.69341
▁హీరో	-9.69355
▁పువ్వు	-9.69428
చ్చిన	-9.6949
దానం	-9.69505
▁రాజధాని	-9.6953
నైనా	-9.69534
▁బహు	-9.69583
▁hol	-9.69604
our	-9.69611
▁mallemala	-9.69616
▁మారు	-9.69624
లేము	-9.69628
▁ఏంటో	-9.6968
వైన	-9.69723
▁tell	-9.69748
▁అధికంగా	-9.69784
▁tea	-9.6979
▁nuvvu	-9.69829
▁మార్కెటింగ్	-9.69857
మార్	-9.69858
sion	-9.69915
కుండ	-9.69916
▁share	-9.69957
▁కొల	-9.70017
▁మొదల	-9.70024
▁teachers	-9.7003
ారి	-9.70045
▁shot	-9.70114
బద్ద	-9.70147
▁bat	-9.7015
ీకరించ	-9.70248
▁చేప	-9.70317
▁cro	-9.70329
▁kala	-9.70359
▁జట్టు	-9.70367
ండీ	-9.70399
▁యునైటెడ్	-9.7043
▁tal	-9.70442
▁ప్రే	-9.70469
▁number	-9.70482
▁mus	-9.70495
▁th	-9.70496
▁comm	-9.70555
ళ్	-9.70577
క్షన్	-9.70632
▁queen	-9.70636
▁telangana	-9.70652
▁మొదట	-9.70653
జీవ	-9.7067
▁pay	-9.70711
▁అవార్డు	-9.70718
ష్ఠ	-9.7072
lic	-9.70724
▁production	-9.70776
▁టీ	-9.70824
▁fashion	-9.70918
పూడి	-9.70933
▁కర్	-9.70987
▁pal	-9.70998
ses	-9.71095
tan	-9.71107
▁ప్రస్తుత	-9.71109
▁app	-9.71111
ర్ర	-9.71172
▁చర్చ	-9.71213
nn	-9.71242
ther	-9.71263
dal	-9.71314
ుకున్నా	-9.7137
una	-9.71377
▁pla	-9.7142
నంద	-9.71468
▁అమెరికన్	-9.71497
▁soo	-9.71526
▁పరమ	-9.71548
▁op	-9.71582
▁నిర్వహించారు	-9.71622
▁which	-9.71685
▁za	-9.71709
▁లీ	-9.71722
lt	-9.71725
▁తమ	-9.71763
and	-9.71781
▁thank	-9.71789
ward	-9.71919
చేసి	-9.71931
▁res	-9.71941
▁లై	-9.71978
ber	-9.71999
యందు	-9.7201
▁కోప	-9.72029
lar	-9.72048
oc	-9.72096
▁samsung	-9.72102
లుగు	-9.72109
▁స్టేషను	-9.72124
▁sho	-9.72126
asa	-9.72129
▁q	-9.72155
▁ఏప్రిల్	-9.72169
▁చేర్చ	-9.722
▁నేల	-9.72203
ger	-9.72208
కాలంలో	-9.72253
హు	-9.72276
naa	-9.72383
నీయ	-9.72397
▁ove	-9.72399
▁hel	-9.72405
▁జరుప	-9.72407
▁అధ్యక్ష	-9.7242
▁అత్యధిక	-9.72422
య్యారు	-9.72473
▁him	-9.72485
త్స	-9.72491
▁రాదు	-9.72492
▁రూం	-9.72505
▁naku	-9.72532
▁పార్	-9.72537
▁ఎప్పటికీ	-9.7257
▁పైగా	-9.72574
▁గుణ	-9.72672
ire	-9.72709
▁దశ	-9.72731
ore	-9.72741
nni	-9.72756
▁ఇలాంటి	-9.72765
▁inc	-9.72766
▁mari	-9.72804
ip	-9.72808
▁ప్రకటన	-9.72915
యోగ	-9.72938
▁water	-9.72946
దర్శక	-9.72957
▁kaa	-9.72991
▁ఒకసారి	-9.73019
▁టి	-9.73048
▁ఫీ	-9.73055
thy	-9.73085
▁అందు	-9.7309
తోనే	-9.73092
▁బరువు	-9.73106
ింగ్	-9.73145
▁cal	-9.73179
▁స్వాతంత్ర్య	-9.73186
ణు	-9.73276
▁others	-9.73382
ుగా	-9.73409
స్సు	-9.73424
con	-9.73434
▁అంగన్	-9.7346
ువ	-9.73606
▁ఉన్నంత	-9.73614
▁జరగాలని	-9.73631
▁trend	-9.73636
బంధ	-9.7374
ral	-9.73847
ిస్తున్నారు	-9.7385
▁వలస	-9.73851
▁విడి	-9.73874
▁వర్ణ	-9.73875
▁శాసనసభ	-9.73877
▁ఇతడు	-9.73964
▁శ్రీరామ	-9.73981
ర్లు	-9.74058
▁లకు	-9.74061
▁విమాన	-9.74125
▁సహా	-9.74188
▁పక్క	-9.74196
▁ragalahari	-9.74214
▁fans	-9.74222
▁మనకి	-9.74223
ek	-9.74264
▁dar	-9.74269
ura	-9.74465
▁ప్రసిద్ధి	-9.74471
▁ప్రేమతో	-9.74572
▁royal	-9.74607
ొచ్చు	-9.74645
▁వీటిని	-9.74695
▁బాల్	-9.7471
హో	-9.74741
▁ఇచ్చి	-9.74825
▁దెబ్బ	-9.74859
▁ప్రమాద	-9.74879
▁contact	-9.74897
▁పిచ్చి	-9.74945
▁ఖర్చు	-9.74952
▁ప్రమాణ	-9.74955
▁money	-9.74964
rn	-9.74975
▁సింగ్	-9.74997
స్కో	-9.75009
ినట్లు	-9.75042
aj	-9.75064
డ్డ	-9.75079
▁డాక్టర్	-9.75089
▁try	-9.75141
▁అక్టోబరు	-9.75183
▁ట్ర	-9.7519
లూరు	-9.75193
usa	-9.75195
kam	-9.75215
▁వీటిలో	-9.7526
▁తమిళ	-9.75275
▁friendship	-9.75292
▁వర్ష	-9.75378
ec	-9.75397
▁int	-9.7541
dhar	-9.75428
▁వాడీ	-9.75482
tur	-9.75534
▁rock	-9.75582
▁ana	-9.75587
gin	-9.75594
▁రసాయన	-9.75616
▁val	-9.75686
▁వాహన	-9.75754
▁job	-9.75758
▁రు	-9.75788
ాల్సి	-9.7581
▁bigg	-9.75823
▁భయం	-9.75857
▁natural	-9.75857
▁త్ర	-9.7588
మ్మా	-9.75898
ుకోవడానికి	-9.75929
▁date	-9.75938
ring	-9.75951
▁స్ట	-9.75951
▁తెచ్చ	-9.7597
pur	-9.75971
▁సమస్యల	-9.75985
గూడెం	-9.76001
use	-9.76008
యిల్	-9.76043
▁లోప	-9.7606
డికి	-9.76063
▁నార్	-9.76082
▁వచ్చా	-9.76082
ేలా	-9.76099
▁విజ్	-9.76101
▁సాంకేతిక	-9.76138
▁రీడింగ్	-9.76143
ిస్తాయి	-9.76152
క్ర	-9.76169
▁మల్ల	-9.76181
▁still	-9.76255
▁pad	-9.76256
▁పక్కన	-9.76293
▁నెంబర్	-9.7634
▁కణ	-9.76342
▁state	-9.76359
dhan	-9.7643
▁చేసుకున్న	-9.76474
పరిచ	-9.76503
ush	-9.76508
itha	-9.76516
▁అధికార	-9.76602
▁మళ్లీ	-9.76607
▁సొ	-9.76631
క్కి	-9.7666
స్తాడు	-9.76706
▁ఇతరుల	-9.7671
jan	-9.76736
ries	-9.76765
ఠి	-9.76768
▁మధ్యలో	-9.76807
▁క్రమ	-9.76929
een	-9.76975
▁భారత్	-9.76978
▁ఇంటికి	-9.76984
▁ఓడిపో	-9.77008
▁ప్రొ	-9.77045
▁cut	-9.77048
▁నష్ట	-9.77054
▁సిద్ధాంత	-9.77065
మయ్య	-9.77071
▁మందికి	-9.77105
ssion	-9.7712
ith	-9.77136
టరీ	-9.7718
▁తనకు	-9.77183
▁అన్నం	-9.77233
▁స్మ	-9.7724
ాపురం	-9.77243
▁tar	-9.77288
▁చేసుకునే	-9.77297
వన	-9.77497
▁పురాతన	-9.77552
▁సారి	-9.77564
▁గంటల	-9.77587
లని	-9.77642
▁ste	-9.77676
దన	-9.7768
▁రచన	-9.77706
tar	-9.77707
▁థ	-9.77724
▁ఆనందంగా	-9.77762
▁నీకోసం	-9.77775
▁success	-9.77778
▁past	-9.77804
▁tee	-9.77806
rm	-9.77826
గ్రహ	-9.77846
▁విషయ	-9.77849
▁ఇతని	-9.77869
▁మనతో	-9.77921
tr	-9.77922
▁తీవ్ర	-9.77945
▁bal	-9.77948
▁సమయ	-9.77949
by	-9.77984
▁దృష్టి	-9.77997
▁things	-9.78059
▁why	-9.78151
వల్ల	-9.78204
▁అక్షరం	-9.78214
▁ob	-9.78293
▁భయపడ	-9.78331
▁వాస్తవ	-9.78368
▁అప్	-9.78418
▁contacts	-9.78421
ులతో	-9.78424
▁రోగ	-9.78462
పాటు	-9.78474
▁విభాగ	-9.78496
▁సార	-9.78539
▁తేదీ	-9.7854
▁apoorvaarora	-9.78553
▁ప్రభావం	-9.78555
ప్త	-9.78564
▁బంగారు	-9.78588
▁కర్నూలు	-9.78625
డర్	-9.78698
▁rec	-9.78717
▁సాధ్య	-9.78717
▁చేతిలో	-9.78745
▁మరణం	-9.78748
▁siri	-9.78781
reations	-9.78796
▁downlo	-9.78834
▁pen	-9.78857
▁వేరే	-9.78864
▁అతడు	-9.78871
ans	-9.7895
lly	-9.78957
▁ఏమ	-9.78974
వేయ	-9.78976
హర	-9.78996
ిగా	-9.7902
ూర	-9.79024
▁సాయం	-9.79042
▁జీవితాన్ని	-9.79048
▁college	-9.79058
ర్ట్	-9.79231
wan	-9.79295
kk	-9.79333
▁ago	-9.79356
rd	-9.79362
anam	-9.79383
cial	-9.79443
▁nar	-9.79534
▁మంత్ర	-9.79535
▁చెడు	-9.7956
▁జరిగే	-9.79566
▁పుస్తకం	-9.79584
▁ఫిబ్రవరి	-9.7959
▁పవన్	-9.79596
▁బ్రిటిష్	-9.79686
▁సుందర	-9.79738
▁ప్లే	-9.79767
▁ప్రసార	-9.79792
నాడు	-9.79805
lin	-9.79805
▁తెలుస	-9.79817
sai	-9.79819
▁శ్ర	-9.79835
▁word	-9.7985
ron	-9.79869
▁వాడేందుక	-9.79877
▁విష	-9.79894
▁whats	-9.79948
కాదు	-9.79962
▁దొరక	-9.79966
▁moment	-9.80003
రించి	-9.8001
ినప్పుడు	-9.80015
తిని	-9.80023
▁సంబంధ	-9.8005
▁వరంగల్	-9.80107
▁గర్భ	-9.80124
డితే	-9.80154
▁prashanth	-9.80173
▁కృషి	-9.80179
రాం	-9.8019
ile	-9.80247
▁మహబూబ్	-9.80343
▁వున్నవి	-9.80355
దులు	-9.80367
▁ఫోటో	-9.80428
▁గౌరవ	-9.80446
▁సరఫరాల	-9.80455
▁ఉపయోగిస్తారు	-9.80464
ler	-9.80491
▁చల్ల	-9.805
▁అన్నాడు	-9.80517
▁స్నేహితుల	-9.80528
▁words	-9.80607
dan	-9.80692
▁ఒంటరిగా	-9.80697
den	-9.80706
▁ప్లా	-9.80771
స్తున్నారు	-9.80771
▁సమూహ	-9.80785
▁వర్గ	-9.80827
▁తెలిసి	-9.8083
uth	-9.80877
▁pass	-9.80888
▁వంశ	-9.80917
▁యోగ	-9.80951
▁thanks	-9.80968
భు	-9.8098
▁fast	-9.81038
dio	-9.81078
▁తేడా	-9.81081
దూ	-9.81099
ొద్దు	-9.811
▁నమో	-9.81115
▁perfect	-9.81177
మైనా	-9.81202
▁arora	-9.81231
vali	-9.81251
▁thi	-9.81262
▁వ్యతిరేక	-9.81316
దారు	-9.81318
ions	-9.81324
▁భారతదేశ	-9.81328
▁సెప్టెంబరు	-9.81374
సార	-9.81401
▁kon	-9.81479
▁మూడవ	-9.81524
▁సభ్యులు	-9.81563
play	-9.81584
▁పద్మ	-9.81714
▁john	-9.81832
▁varnika	-9.81843
స్టు	-9.81871
▁బొమ్మ	-9.82058
▁వేసి	-9.82062
mer	-9.82075
మత	-9.82131
▁mai	-9.8217
ప్రసాద	-9.82171
ాత	-9.82172
ిస్తున్నా	-9.82178
యింది	-9.82183
ndhi	-9.82194
▁ప్రకటించ	-9.82211
ుతాయి	-9.82212
▁future	-9.82224
▁దాడి	-9.8224
▁గంగ	-9.82319
anth	-9.82326
▁venu	-9.82326
తాను	-9.82366
డంలో	-9.82376
official	-9.82385
▁silk	-9.8242
▁చనిపో	-9.82421
▁saa	-9.82445
ppu	-9.82467
▁వయసు	-9.82498
▁క్రింద	-9.82504
స్య	-9.82509
▁mil	-9.82536
sam	-9.82552
బే	-9.82566
▁lab	-9.82609
ky	-9.82612
ంటాయి	-9.82633
▁పడే	-9.82724
▁అనుకో	-9.82794
▁ఆకలి	-9.82826
▁నిర్ణయించ	-9.82854
▁హు	-9.82879
క్త	-9.82894
▁లింగ	-9.82902
like	-9.82919
▁పోతోంది	-9.82965
▁digital	-9.83014
▁vmate	-9.83015
▁అంటూ	-9.83033
▁కుటుంబం	-9.83054
cent	-9.83058
పాద	-9.83089
▁everyone	-9.83155
▁ప్రకృతి	-9.83203
▁నిర్వహణ	-9.83244
▁విద్యుత్	-9.83274
▁శాసన	-9.83294
▁అన్నది	-9.833
▁కర	-9.83316
పడి	-9.8332
▁సమాన	-9.83346
▁చేయు	-9.83361
▁నట	-9.83394
▁test	-9.83429
▁వస్తా	-9.83444
▁respect	-9.83517
ర్వ	-9.83528
▁od	-9.83536
▁ఉద్యోగం	-9.83651
మంటే	-9.83677
▁pos	-9.83679
ొక్క	-9.83696
▁అందం	-9.83733
▁ఏంటి	-9.83745
▁ఇష్టపడ	-9.83764
▁ఫలిత	-9.83872
లాంటి	-9.83886
కపోయినా	-9.83905
▁సమీపంలో	-9.83936
ren	-9.83986
మొ	-9.84
▁అయింది	-9.84132
▁తోడు	-9.84147
▁నేర	-9.84156
iki	-9.84218
▁pr	-9.84222
తికి	-9.84222
unte	-9.84263
షు	-9.84268
▁ఉద్దేశ	-9.84312
▁two	-9.84312
abad	-9.84331
▁తెలుసుకో	-9.84334
▁సంవత్సరంలో	-9.84339
▁ఇంక	-9.84342
▁viva	-9.84354
▁sol	-9.84386
ep	-9.84417
▁boo	-9.84429
కరమైన	-9.84521
▁నగరంలో	-9.84578
▁kal	-9.84579
▁పచ్చ	-9.84585
▁ఎలాంటి	-9.84616
▁ఆంగ్ల	-9.84619
kha	-9.84641
▁పిల్లలు	-9.84657
▁పొగ	-9.84663
▁నిన్నే	-9.84673
▁kada	-9.84684
▁దో	-9.84751
▁tum	-9.84758
భి	-9.84796
dda	-9.84802
▁హిందీ	-9.8481
▁జు	-9.84811
▁strong	-9.84862
▁mal	-9.84886
▁kanna	-9.84886
ash	-9.84911
▁అర్హత	-9.84913
▁ముస్లిం	-9.85014
▁peace	-9.85015
▁net	-9.85025
▁ఆడపిల్ల	-9.8505
▁అభిప్రాయ	-9.85054
▁వివాహ	-9.85066
▁సంబంధం	-9.85104
▁వార్త	-9.85213
bra	-9.85222
▁exp	-9.85233
▁till	-9.85256
ట్టే	-9.85297
▁పేద	-9.85304
వంత	-9.8533
▁తరగతి	-9.85399
▁stu	-9.85402
▁చక్ర	-9.85441
▁won	-9.85474
▁తీయ	-9.85478
mon	-9.85503
▁memories	-9.85527
vin	-9.8561
▁మొట్టమొదటి	-9.85654
క్షణం	-9.85684
▁type	-9.85685
app	-9.85705
ata	-9.85732
yu	-9.85776
పోవ	-9.85779
▁అందంగా	-9.85796
len	-9.85805
▁ప్రదర్శించ	-9.85843
రించ	-9.85846
కార్	-9.85853
▁కథలు	-9.85916
్ని	-9.85976
▁పద్ధతి	-9.85986
▁ఆశీస్సులు	-9.85991
యోజన	-9.86041
▁పాఠ	-9.86057
▁same	-9.86078
rish	-9.86103
డ్స్	-9.86135
పాటి	-9.86152
nani	-9.86227
▁ట్రా	-9.86256
్రా	-9.86284
ేవాడు	-9.86313
sto	-9.86367
▁తీసి	-9.86372
▁open	-9.86373
దల	-9.86407
▁లైక్	-9.86434
▁సంగీతం	-9.86451
▁ze	-9.86511
మాన్	-9.8657
ita	-9.86611
తంగా	-9.86733
ఠం	-9.86769
ులైన	-9.86794
▁మద్దతు	-9.86795
▁గుండెల్లో	-9.86801
▁chan	-9.86831
▁వాల్	-9.86836
▁msg	-9.86873
▁సమాచారం	-9.86936
▁కనిపిస్తుంది	-9.86954
ding	-9.86954
pan	-9.86971
▁కొన	-9.86978
బద్ధ	-9.86994
▁andhra	-9.87011
beats	-9.87039
▁చూ	-9.87082
కంగా	-9.87129
ేశ	-9.87143
▁పెరుగు	-9.87144
▁బావ	-9.87151
▁nen	-9.87152
▁సహాయ	-9.87178
▁ash	-9.87242
▁yu	-9.87321
▁story	-9.87329
mani	-9.87341
వార్	-9.87379
▁ఎన్నిక	-9.87391
▁line	-9.87393
she	-9.87396
ple	-9.87403
▁హాలు	-9.87419
ena	-9.87474
▁own	-9.87479
తిక	-9.87489
▁ఎదుర	-9.87526
స్ట	-9.87542
▁luv	-9.87552
▁find	-9.87579
▁నిలిచి	-9.87584
దిగా	-9.87595
▁ఆన్	-9.8763
news	-9.87633
▁బర్	-9.87671
ous	-9.8768
▁వదల	-9.87682
ుతున్నారు	-9.87692
సింది	-9.8776
▁written	-9.87763
వాళ్లు	-9.8779
▁మేలు	-9.87849
▁కావడం	-9.87851
ాయని	-9.87864
▁ప్రయాణ	-9.87867
▁ante	-9.87932
▁అమ	-9.87941
▁jyothi	-9.87947
▁breaking	-9.87975
▁కేసు	-9.87998
మయ	-9.88036
▁మహిళ	-9.88104
▁గె	-9.88116
▁క్షేత్ర	-9.88128
▁vee	-9.88135
▁లేవు	-9.88141
ాబాద్	-9.88157
▁ఆరంభ	-9.88164
▁చేయాలి	-9.88182
adu	-9.88183
▁స్కూల్	-9.88185
వలసి	-9.88219
▁స్టార్	-9.88234
▁tamil	-9.88251
కోట	-9.88256
▁el	-9.88317
▁కన్నీరు	-9.88476
▁den	-9.88486
▁భా	-9.88561
జయ	-9.88566
ముఖ	-9.88568
▁ఎవరైనా	-9.88591
nes	-9.88605
యాన్	-9.88621
ంటె	-9.88636
▁before	-9.88714
ృత	-9.88731
▁బ్రతుకు	-9.8874
▁మాజీ	-9.88758
▁even	-9.88786
unt	-9.88786
▁soul	-9.88789
ధాన	-9.88814
▁స్వతంత్ర	-9.8886
gala	-9.88872
న్ను	-9.88884
టరు	-9.88906
▁chin	-9.88942
▁mag	-9.88948
▁angel	-9.8899
▁sc	-9.89
గాడు	-9.89013
పోతున్న	-9.89019
pl	-9.89102
▁సామ	-9.89133
యము	-9.8914
▁ప్రచురించ	-9.89192
nga	-9.89195
▁దండ	-9.89228
▁మారింది	-9.89236
▁పైకి	-9.89265
వారిని	-9.89275
▁దక్క	-9.893
▁ss	-9.89301
▁ఎన్నికలలో	-9.89312
▁goo	-9.89324
ship	-9.89351
▁fall	-9.89352
▁fla	-9.8941
▁కుమార్	-9.89424
ారం	-9.89457
adi	-9.89463
చీ	-9.89505
▁matte	-9.89508
▁వయస్సు	-9.89566
▁కృప	-9.89626
▁రూపం	-9.89653
▁ఇక్కడి	-9.89664
▁second	-9.89675
▁తీసుకున్న	-9.89748
▁మండ	-9.89768
▁సీత	-9.89798
▁కోల్పో	-9.89809
▁బిడ్డ	-9.89861
▁సృష్టి	-9.89861
▁అందుబాటులో	-9.89888
▁నిన్న	-9.89895
▁watching	-9.89898
▁కూడిన	-9.89901
tro	-9.89901
tin	-9.89941
ves	-9.89961
లవ	-9.90028
▁కరీంనగర్	-9.90076
aram	-9.90095
▁ప్రార్థన	-9.9011
ుకుంటుంది	-9.90159
గొ	-9.90181
కూడ	-9.90204
▁ముందుకు	-9.90221
నంత	-9.9023
▁ప్రయత్నించ	-9.90296
▁లేదని	-9.90326
▁దీ	-9.9035
▁మందు	-9.90354
▁శు	-9.90381
▁కంటి	-9.9045
▁ఉష్ణోగ్రత	-9.90453
▁పాలు	-9.90465
▁ఫర్	-9.90488
az	-9.90495
▁tam	-9.90496
ేష్	-9.90502
▁non	-9.90534
▁iam	-9.90609
▁missing	-9.90676
పోతా	-9.90727
ర్థ	-9.90772
iva	-9.90779
▁డే	-9.90806
ctor	-9.90826
▁పొందింది	-9.90943
రత్న	-9.90987
▁యుగ	-9.91036
▁nuv	-9.91048
▁dec	-9.91118
▁బానిస	-9.91173
▁కల్ప	-9.91183
పురంలో	-9.91183
▁plz	-9.91186
▁నేన	-9.9123
▁మల	-9.91238
▁జాబ్	-9.91263
▁ut	-9.91265
▁inter	-9.91287
vani	-9.91322
▁లక్ష	-9.91327
▁పాలన	-9.9134
gs	-9.91381
నింగ్	-9.9139
▁మరచిపో	-9.91397
ఆర్	-9.91409
▁మనసుకి	-9.91485
▁adi	-9.91491
▁లాభ	-9.91507
పరమైన	-9.91508
▁hal	-9.91543
▁అభిమాన	-9.91545
▁క్రీస్తు	-9.91548
▁శుభవార్త	-9.91567
▁తయారీ	-9.91568
▁వివాహం	-9.91589
గొట్ట	-9.91609
▁bhi	-9.91623
▁రక్ష	-9.91652
ాళ	-9.91657
▁సమీకృత	-9.91658
▁ప్రో	-9.91712
nder	-9.91716
▁light	-9.91729
▁దేశాల	-9.91755
▁నేత	-9.91765
▁పరపతి	-9.91775
▁bh	-9.91781
▁bag	-9.91789
ందరి	-9.91846
▁జీవన	-9.91858
ved	-9.91884
▁stay	-9.91908
▁నృత్య	-9.91923
రగ	-9.9202
▁ఉన్నాడు	-9.92024
▁నాడు	-9.92055
▁అద్భుత	-9.92064
ley	-9.92075
▁had	-9.92127
▁ఖండ	-9.92128
ుడిని	-9.92137
ici	-9.92257
సులు	-9.92263
▁కుమారుడు	-9.92311
▁అనంతపురం	-9.92313
లకి	-9.92349
ండర్	-9.92402
▁పొడి	-9.92407
▁station	-9.9246
pal	-9.92466
ధార	-9.92541
ings	-9.9258
▁యంత్ర	-9.92593
▁ఎర్ర	-9.92665
▁reg	-9.92666
▁ass	-9.92733
ంక్	-9.9276
కృత	-9.92793
▁అంశాల	-9.92803
▁ఎయిర్	-9.92915
తమైన	-9.92917
కూరు	-9.92935
పల్లెలో	-9.93002
wn	-9.93014
ics	-9.93025
▁age	-9.93032
▁చివరికి	-9.93069
▁నీడ	-9.93087
ute	-9.93087
vas	-9.93103
▁అందరికి	-9.93108
▁eyes	-9.93141
పరు	-9.93151
ంద్	-9.93152
▁భీమ	-9.9316
కింగ్	-9.93166
▁vis	-9.93198
▁oct	-9.93227
▁del	-9.93227
ive	-9.93229
▁చూసే	-9.93229
▁తెలియని	-9.93242
▁పద్య	-9.93278
▁por	-9.93372
కొని	-9.935
▁అనంత	-9.93581
kku	-9.93603
▁ఉందని	-9.93604
▁month	-9.93635
war	-9.93652
ef	-9.93689
▁south	-9.93694
▁పురాణ	-9.93723
▁lovers	-9.93756
న్య	-9.93775
antha	-9.93793
▁fr	-9.93813
▁శిక్ష	-9.93826
▁జగ	-9.93832
▁పట్టు	-9.93834
▁cra	-9.93838
▁sl	-9.93858
వేత్త	-9.93869
▁గుర్త	-9.93872
ండ్ర	-9.93898
పల్లిలోను	-9.93899
▁bri	-9.93906
భాష	-9.93921
▁where	-9.93925
▁వెల్ల	-9.94005
▁సాయంత్రం	-9.94006
ving	-9.94026
▁ప్రి	-9.94062
▁స్వీకరించ	-9.94081
▁అతడి	-9.94086
▁then	-9.94113
anta	-9.94115
▁run	-9.94134
ధన	-9.94139
బ్ర	-9.94184
▁పరిధిలో	-9.94208
ల్లె	-9.94238
వలన	-9.94249
▁నేస్తమా	-9.94307
bs	-9.94317
▁తోట	-9.94367
▁పురుష	-9.94384
▁ఎమోషనల్	-9.94419
▁ag	-9.94448
▁ఉద్	-9.94457
స్త్ర	-9.94473
▁అడ్డ	-9.9448
ుకుంటున్న	-9.94483
▁వస్తువు	-9.94491
▁కల్పించ	-9.94519
▁laugh	-9.94529
▁చట్టం	-9.94623
▁స్థాయిలో	-9.94647
▁పొట్టి	-9.94702
▁విష్ణు	-9.94705
ఫర్	-9.94709
▁కన్ను	-9.94715
▁తిరుగు	-9.94725
బడే	-9.94743
▁లోకి	-9.9479
stha	-9.94829
▁హే	-9.94849
▁ఫల	-9.94903
▁కుం	-9.94903
ెన్	-9.94955
▁జీసస్	-9.94955
▁ప్రవేశించ	-9.9497
ాలనే	-9.94994
▁మనిషికి	-9.95006
▁gnapika	-9.95011
▁సరిహద్దు	-9.95035
▁పారి	-9.9504
▁కామ	-9.95122
లెస్	-9.95124
వరి	-9.95144
▁cri	-9.95145
▁తిరు	-9.95201
కుంటే	-9.95222
ill	-9.95247
▁చెక్క	-9.9526
▁తెలియజే	-9.95261
rc	-9.95295
▁డిస్	-9.95297
ea	-9.9532
▁అంది	-9.95331
కుంట	-9.95345
▁రూపంలో	-9.95362
▁అగ్ని	-9.95365
క్తి	-9.95394
▁ఒక్కరి	-9.95414
▁kha	-9.95441
గురు	-9.9545
▁ele	-9.95475
ైంది	-9.95509
▁frnd	-9.95531
▁పోరాడ	-9.95555
▁మాస	-9.95557
▁దయచేసి	-9.95589
▁టాలీవుడ్	-9.95606
స్స	-9.95612
▁అయినప్పటికీ	-9.95642
▁ఘన	-9.95644
▁ben	-9.95687
▁నేషనల్	-9.95692
▁మ్యా	-9.95703
త్యా	-9.95716
తోపాటు	-9.95735
phone	-9.9574
▁degree	-9.95791
▁వివరించ	-9.95795
▁kani	-9.95808
▁hacks	-9.95866
▁ఒక్కటే	-9.95877
▁char	-9.95914
▁పోషించ	-9.95917
▁ఏటీఎ	-9.95919
▁పిన్	-9.95935
gr	-9.96059
▁bab	-9.96062
▁చెప్పబడును	-9.9607
▁send	-9.96074
▁ఏళ్ల	-9.96192
▁సంస్కృతి	-9.962
pk	-9.96239
యస్	-9.96263
▁gar	-9.96278
▁దీన్ని	-9.9628
▁పనులు	-9.9634
▁చేసాడు	-9.96356
▁నిను	-9.96397
tle	-9.96399
▁పరిమిత	-9.96468
▁వద్దు	-9.96469
▁forget	-9.96486
▁apoorva	-9.96491
▁christ	-9.9652
▁ఇంద్ర	-9.96553
endra	-9.96567
కారి	-9.96572
▁గ్రహ	-9.96574
మల	-9.96595
▁cry	-9.96622
▁మర్	-9.96629
▁కనబడ	-9.96634
▁కలసి	-9.96653
als	-9.96706
ించడానికి	-9.96706
▁భయ	-9.96709
▁కన్	-9.96716
▁ఉత్సవ	-9.96722
రాన్	-9.96764
▁విడ	-9.96775
▁dont	-9.96784
▁శతాబ్దం	-9.96784
▁ఆహారం	-9.96784
పరంగా	-9.96785
▁place	-9.9683
▁ravi	-9.96972
▁నిలబడ	-9.96972
▁దేవత	-9.96978
స్థానం	-9.96984
ాంతర	-9.97
▁ఆగస్టు	-9.97017
▁చెరువు	-9.9713
▁దీప	-9.97184
కూడా	-9.97186
ఏ	-9.972
ev	-9.97202
▁క్రైస్తవ	-9.9724
you	-9.97248
రాలు	-9.9726
vers	-9.97274
▁జే	-9.97282
▁kh	-9.97354
▁స్టీ	-9.97372
వత	-9.97377
▁screen	-9.97473
శారు	-9.97479
▁సిద్ద	-9.97482
▁తెల	-9.97483
▁గణపతి	-9.97485
ుకొ	-9.97526
▁house	-9.9753
శాస్త్ర	-9.97541
▁ఎక్క	-9.97546
▁ఫ్ల	-9.97547
శం	-9.9755
▁bell	-9.97553
లియ	-9.97568
▁చేస్తున్నా	-9.97572
ష్య	-9.97574
▁అనుభవ	-9.9761
▁రోజువారీ	-9.97617
▁డీ	-9.97638
▁కొంచెం	-9.97645
▁పిలుస్తారు	-9.97653
▁ఎవరూ	-9.97658
▁tit	-9.97676
▁శుద్ధ	-9.97684
▁మీటర్ల	-9.97703
▁రావడం	-9.97747
హీ	-9.97751
▁మాత్ర	-9.97754
కరం	-9.9778
▁బై	-9.9778
▁ఉదాహరణ	-9.97781
▁ela	-9.97819
ంభ	-9.9783
▁ఉద్యమ	-9.97845
▁presents	-9.97849
▁geethaarts	-9.97878
▁mine	-9.97882
▁వ్యతిరేకంగా	-9.97887
▁చేపట్ట	-9.97891
▁sus	-9.97902
సరి	-9.97922
▁దుర్	-9.97934
వ్యా	-9.97964
▁oppo	-9.97994
▁గే	-9.98028
video	-9.9805
▁kuda	-9.98076
గ్రామ	-9.98122
▁ask	-9.98142
సిస్	-9.98182
నిక్	-9.98193
par	-9.98198
▁nannu	-9.98234
▁ea	-9.98238
▁మనసుకు	-9.98269
▁కనీసం	-9.98279
▁important	-9.98285
శక్తి	-9.98392
▁rao	-9.98425
▁సూపర్	-9.9845
▁ప్రణాళిక	-9.98549
▁గంట	-9.98568
▁ప్రజలకు	-9.98578
▁హలో	-9.98585
▁కలుప	-9.98633
▁సంపద	-9.98654
▁నమ్మక	-9.98722
ppudu	-9.98769
▁విద్యార్థుల	-9.98773
▁తగ్గి	-9.98781
▁available	-9.98842
రాయి	-9.98847
పోవడం	-9.98891
▁పవిత్ర	-9.98902
▁వార్	-9.98964
▁పుణ్య	-9.98983
▁వాళ్లు	-9.98991
▁చర్య	-9.99063
▁తెలిపారు	-9.99077
గత	-9.99096
iya	-9.99118
▁sid	-9.99133
▁zone	-9.99135
చర్	-9.99171
▁జాన్	-9.9918
▁వాటిలో	-9.99182
▁ఆసక్తి	-9.99195
▁nam	-9.99196
ever	-9.99196
జాల	-9.99238
max	-9.99274
లిన్	-9.99279
▁కాంతి	-9.99289
▁also	-9.99303
ఖా	-9.99317
bgm	-9.99357
wal	-9.9938
▁jee	-9.99388
▁వ్యాస	-9.99394
▁filmnagar	-9.99439
▁మొదలు	-9.99449
▁సంస్థలు	-9.99456
▁బయటకు	-9.99456
▁కనిపించే	-9.99479
▁తగిన	-9.99487
▁భారతదేశం	-9.99489
▁clo	-9.99503
▁ప్రదేశం	-9.99506
▁self	-9.99539
▁వర్క్	-9.99543
నాలు	-9.99545
▁బాబా	-9.99548
▁చేసా	-9.99553
శాడు	-9.99564
▁గౌ	-9.99588
ుచు	-9.99605
▁చిత్రాల	-9.99607
ded	-9.99615
▁నవరాత్రుల	-9.99651
▁రాసిన	-9.99679
ముందు	-9.99692
▁into	-9.99713
▁రికార్డు	-9.99727
▁కడుపు	-9.99729
▁ఇప్పటికీ	-9.99753
▁శాస్త్రవేత్త	-9.99765
ములలో	-9.99766
▁అనుకుంటే	-9.99766
oy	-9.99802
▁పట్టణం	-9.99825
hy	-9.99893
▁నాలో	-9.999
▁సముద్రం	-9.99922
ew	-9.99943
▁nuvve	-9.99974
▁దేవాలయ	-10
sted	-10.0004
▁స్పష్ట	-10.0004
ాలపై	-10.0006
▁plan	-10.0007
శాఖ	-10.0016
▁ఎవరికి	-10.0016
▁అయ్య	-10.002
డవ	-10.0024
స్టో	-10.0025
▁ఆయుధ	-10.0031
▁యేసు	-10.0035
▁size	-10.0036
▁mam	-10.0041
▁fight	-10.0044
పెట్టి	-10.0044
▁చోటు	-10.0045
కము	-10.0046
vr	-10.0048
▁అందుకు	-10.0052
▁విగ్రహ	-10.0056
▁నువ్వ	-10.0057
▁ఇష్టమైన	-10.006
des	-10.0062
ima	-10.0066
king	-10.0067
▁పోలి	-10.0071
▁bir	-10.0071
▁వైద్యశాలలో	-10.0075
▁యో	-10.0075
▁రేడియో	-10.0078
నూరు	-10.0078
▁praise	-10.008
ార్థం	-10.0081
▁బ్యాంక్	-10.0081
టూ	-10.0082
టివ్	-10.0083
gra	-10.0085
▁అర్జున	-10.0087
▁ada	-10.0089
ాలే	-10.009
ious	-10.0091
mes	-10.0095
▁nanna	-10.0096
▁cool	-10.0097
▁టో	-10.0098
bl	-10.0099
కాని	-10.0101
కెట్	-10.0103
▁pspk	-10.0103
tus	-10.0107
▁ఆలోచ	-10.0108
మ్స్	-10.011
▁saree	-10.0112
▁romantic	-10.0113
vara	-10.0115
▁కుక్క	-10.0117
న్నాడు	-10.0117
▁నింప	-10.0127
షణ	-10.0138
▁గోల్	-10.0139
▁వహించ	-10.0146
దయం	-10.0147
▁కోర్టు	-10.0148
▁manasu	-10.0151
▁కంప్యూటర్	-10.0152
రన్	-10.0155
▁అయ్యా	-10.0155
zi	-10.0158
సార్లు	-10.0165
▁short	-10.0167
డెన్	-10.0167
కట్ట	-10.0168
hat	-10.0169
▁సింగ	-10.017
iti	-10.017
▁problems	-10.0171
▁శిల్ప	-10.0172
▁ramakrishna	-10.0174
గె	-10.0181
▁hope	-10.0183
▁రచించ	-10.0185
భాగం	-10.0186
నివ్వ	-10.0188
▁లోనే	-10.0188
▁దిశ	-10.019
▁cli	-10.0194
▁రోడ్	-10.0197
డియా	-10.0197
▁కావు	-10.0199
▁విదేశీ	-10.0201
దాన	-10.0203
దురు	-10.0203
▁కలు	-10.0206
▁కోసమే	-10.0207
▁పోయే	-10.0214
konda	-10.0217
▁తిన్నా	-10.0219
bar	-10.022
మవుతుంది	-10.022
▁birth	-10.0224
▁పలక	-10.0225
సియా	-10.0226
ht	-10.0226
▁గొడవ	-10.0226
▁మంద	-10.023
▁ఏడాది	-10.0231
శ్య	-10.0233
ches	-10.0238
▁వెన్నెల	-10.0238
▁lov	-10.0239
▁present	-10.024
▁kiss	-10.024
▁ఉదాహరణకు	-10.0247
▁గ్రామములో	-10.0248
▁original	-10.0249
▁crea	-10.0251
tre	-10.0253
▁అడగ	-10.0255
యినా	-10.0255
▁week	-10.0256
▁chest	-10.0256
గిన	-10.0258
ాపకాలు	-10.026
▁డిసెంబరు	-10.0264
▁sometimes	-10.0264
yal	-10.0265
▁మిత్ర	-10.0272
▁ప్రయత్నం	-10.0273
▁ప్రసిద్ధ	-10.0275
varu	-10.0275
▁పడుతుంది	-10.0278
cer	-10.0279
▁మాకు	-10.0284
echat	-10.0286
▁photography	-10.0289
▁మేము	-10.0297
▁yourself	-10.0298
▁మను	-10.0299
ణ్	-10.0301
▁reason	-10.0304
రిక్	-10.0305
fu	-10.0307
▁నీవే	-10.0308
sti	-10.0308
▁కడ	-10.0312
▁పూర్	-10.0313
ణ్య	-10.0317
▁నిర్మ	-10.0319
▁పార	-10.032
▁శాశ్వతం	-10.032
▁wait	-10.0326
▁usb	-10.0327
ాడని	-10.0331
▁భక్తుల	-10.0338
oso	-10.0345
రస	-10.0346
▁కలిగించ	-10.035
స్థాయి	-10.0351
▁ఆక్	-10.0354
▁మ్యాచ్	-10.0359
▁ham	-10.0359
▁chep	-10.0361
▁cap	-10.0362
▁ఆరోగ్యం	-10.0364
▁మంగళ	-10.0371
▁జనరల్	-10.0375
▁ప్రమాదం	-10.0376
ింపు	-10.0379
వతి	-10.0379
ela	-10.038
పోయారు	-10.0381
▁sim	-10.0381
ban	-10.0382
▁wal	-10.0382
ుతు	-10.0384
osa	-10.0387
▁hamsi	-10.0395
▁cou	-10.0395
▁tas	-10.0397
▁వెల	-10.0397
▁క్లా	-10.0398
▁ముఖ్యం	-10.0401
▁అటు	-10.0403
cle	-10.0406
dham	-10.0409
▁అన్	-10.0412
▁create	-10.0416
▁వాతావరణం	-10.0417
డుతూ	-10.0417
▁ఉందా	-10.0419
▁సన్	-10.0422
▁ఉపగ్రహ	-10.0423
▁picmix	-10.0427
వాలని	-10.043
▁mr	-10.0431
చుకో	-10.0434
▁tejasri	-10.0434
▁నొప్పి	-10.0436
▁దొంగ	-10.0438
▁నవంబరు	-10.044
ాప	-10.044
▁టెక్	-10.0443
▁press	-10.0444
▁bava	-10.0445
▁మగ	-10.0446
లింగ	-10.0447
ial	-10.0449
లెట్	-10.045
▁బిల్	-10.0451
▁అమృత	-10.0453
▁పరిష్కారం	-10.0454
▁నూ	-10.0454
▁zo	-10.0455
▁పులి	-10.0455
▁దీంతో	-10.0456
▁kur	-10.0456
▁విమర్శ	-10.0458
▁నంది	-10.0459
వచ్చును	-10.0462
వలెను	-10.0464
▁సొంత	-10.0464
▁పొడవు	-10.0468
▁కొంతమంది	-10.047
▁ధైర్యం	-10.0475
ంతి	-10.0479
▁పాల్గొన	-10.0482
పాయ	-10.0483
▁ఇటీవల	-10.0493
▁hoo	-10.0496
▁దుర్గా	-10.0497
▁చేతుల	-10.05
▁పెట్టిన	-10.05
▁rama	-10.0501
▁దినోత్సవం	-10.0507
anga	-10.0509
తృ	-10.051
▁అతనికి	-10.051
▁సినీ	-10.051
కపోవచ్చు	-10.051
▁action	-10.0511
▁lavanya	-10.0511
▁అదృష్టం	-10.0513
▁office	-10.0514
dom	-10.0516
ప్రాంత	-10.0519
బడును	-10.0523
▁మనుషులు	-10.0524
▁ఆరోగ్యానికి	-10.0528
▁దరఖాస్తు	-10.053
▁ప్రాంతాలలో	-10.053
way	-10.0537
▁record	-10.0537
graph	-10.0539
▁వంటివి	-10.0539
lugu	-10.0539
▁శబ్ద	-10.0543
▁enter	-10.0545
కట	-10.0547
▁ఒడి	-10.0553
▁వెబ్	-10.0553
pra	-10.056
పిస్తుంది	-10.0561
▁fail	-10.0564
ింపబడ	-10.0575
jay	-10.058
▁auto	-10.0582
▁కూర్చ	-10.0585
ారెడ్డి	-10.0586
▁సూత్ర	-10.0587
తువు	-10.0595
ndo	-10.0595
apa	-10.0596
▁pet	-10.0598
▁ఒంటరి	-10.06
ేసి	-10.0601
▁తిరుమల	-10.0604
భాగ	-10.0609
▁పుస్తక	-10.061
▁దృ	-10.0611
డని	-10.0611
▁అంటు	-10.0616
▁ప్రత్యక్ష	-10.0618
ord	-10.062
▁black	-10.0621
▁being	-10.0623
▁ఆంజనేయ	-10.0624
వాత	-10.0626
▁వింటారు	-10.0626
▁bingo	-10.0628
▁క్రీడ	-10.0628
▁సంయుక్త	-10.063
▁చేరి	-10.0634
హించ	-10.0638
cl	-10.0638
▁పరిచయ	-10.0651
వుతుంది	-10.0651
ళా	-10.0652
ోత్సవ	-10.0653
ాత్మ	-10.0654
▁stylish	-10.0656
▁suji	-10.0661
▁flo	-10.0663
ov	-10.0663
▁ఐరోపా	-10.0666
ప్పటి	-10.0677
tain	-10.0684
ాంగ	-10.0686
శాస్త్రి	-10.0686
▁వదులుకో	-10.0687
▁చేయబడింది	-10.0688
▁సభ	-10.0693
▁రోజున	-10.0694
▁పరా	-10.0694
▁dev	-10.0696
▁sum	-10.0699
▁band	-10.0701
టికీ	-10.0702
రేషన్	-10.0702
▁ఎల్లప్పుడూ	-10.0707
లేదని	-10.0707
▁నిర్ణయ	-10.0708
▁jaan	-10.0713
giri	-10.0715
▁ప్రదేశ	-10.0717
▁ఫలితంగా	-10.072
▁జాగ్రత్త	-10.072
thunna	-10.0721
పర	-10.0721
▁విజయనగరం	-10.0722
▁ఆస్ట్రేలియా	-10.0723
ాలయ	-10.0724
సభ	-10.0724
▁sn	-10.0725
▁నీతి	-10.0729
▁అప్ప	-10.0729
▁కమిటీ	-10.0729
hal	-10.0732
▁కలవ	-10.0734
▁వరల్డ్	-10.0734
▁spo	-10.0735
స్టా	-10.0736
▁డ్ర	-10.0738
ons	-10.0738
ect	-10.0738
▁చేయాలని	-10.074
▁ఆల	-10.0742
▁విన్న	-10.0743
▁పట్టించుకో	-10.0743
▁ఉప్పు	-10.0744
▁తరచుగా	-10.0752
▁cam	-10.0754
రియన్	-10.0756
▁చివర	-10.0757
▁sara	-10.0757
ండె	-10.0757
▁ఆధారపడి	-10.0765
ual	-10.0766
నగర్	-10.077
babu	-10.0771
▁group	-10.0775
▁understand	-10.0777
▁స్కా	-10.0778
▁దాచ	-10.0779
ారావు	-10.0781
▁వాక్య	-10.0787
▁నియంత్రణ	-10.0791
▁wat	-10.0799
▁bur	-10.0806
▁plus	-10.081
▁సింహ	-10.0817
▁మద్య	-10.082
▁ear	-10.0826
యున్న	-10.0828
ముతో	-10.0829
▁ముద్ర	-10.083
ాచార్య	-10.0831
sing	-10.0833
భం	-10.0834
▁loo	-10.0835
▁వస్త్ర	-10.0842
▁అక్కడి	-10.0842
ుతున్నా	-10.0843
cket	-10.0848
▁ps	-10.0849
▁మిస్	-10.0854
▁ee	-10.0855
▁కలగ	-10.0856
▁once	-10.086
▁cotton	-10.0861
వుగా	-10.0864
▁ఉండగా	-10.0867
▁ఏర్పడిన	-10.0868
▁చదవ	-10.0876
▁tere	-10.0878
▁రాష్ట్రాల	-10.0879
▁చెల్లించ	-10.0881
▁గోడ	-10.0881
ong	-10.0882
ాలయం	-10.0884
▁క్రికెట్	-10.0885
▁చేస్తున్నారు	-10.0885
లేఖ	-10.0886
▁చార్	-10.0888
ంచిన	-10.089
▁డబ్	-10.0891
▁వివర	-10.0893
▁srinivas	-10.0894
▁ప్రాచీన	-10.0897
▁కనపడ	-10.0898
▁dre	-10.09
ంబు	-10.09
▁ప్రారంభించ	-10.0901
మంతా	-10.0904
ang	-10.0909
▁ready	-10.0909
▁రాష్ట్రంలో	-10.091
▁అప్పుడే	-10.0911
eri	-10.0911
▁టే	-10.0914
▁vaa	-10.0914
▁battery	-10.092
▁రోజూ	-10.0921
▁పల్లె	-10.0926
▁రస	-10.0926
▁వ్యక్త	-10.0927
▁అనుగ్రహ	-10.0927
ున	-10.0928
▁అమ్మా	-10.0929
▁చుట్ట	-10.0939
య్యే	-10.094
ణీ	-10.0941
▁శతాబ్దంలో	-10.0941
కళ	-10.0944
▁క్యూ	-10.0946
▁సగటు	-10.0946
▁చెప్పింది	-10.0947
▁imp	-10.0947
▁పద్ధతుల	-10.095
▁gunde	-10.0951
రియల్	-10.0953
▁విషయాల	-10.0954
anna	-10.0954
▁చంద	-10.0957
▁విస్తృత	-10.0959
▁వ్యాసాలు	-10.0961
▁పట్ల	-10.0962
▁సాధన	-10.0962
ught	-10.0962
చేత	-10.097
▁సెంటర్	-10.0971
▁vad	-10.0971
▁hyderabad	-10.0975
mba	-10.0978
్యత	-10.0982
కాంత	-10.0982
▁ఏమీ	-10.0984
టమే	-10.0986
▁side	-10.0987
▁ప్రయాణం	-10.0991
▁అనంతరం	-10.0993
ెయిన్	-10.0996
ఫో	-10.0997
▁పర్యావరణ	-10.0998
వాళ్ల	-10.1002
▁క్ల	-10.1003
▁దేవుళ్ళు	-10.1005
లికి	-10.1005
▁విడిచి	-10.1006
▁క్రింది	-10.1011
వర్తి	-10.1012
▁భద్ర	-10.1013
▁comedy	-10.1016
▁ఖాళీ	-10.1021
▁రాస	-10.1023
▁మన్	-10.1025
▁కుమార్తె	-10.1026
శ్వ	-10.1029
త్యం	-10.1029
▁దీనిలో	-10.103
▁జరిగి	-10.1031
nee	-10.1036
▁head	-10.1036
incha	-10.1039
▁అలంకారం	-10.1044
▁pun	-10.1049
వంతమైన	-10.1051
▁భామలు	-10.1054
▁కష్టాలు	-10.1056
మాత	-10.1057
ంటాడు	-10.1057
ుకొనే	-10.1065
ఘా	-10.1066
▁నువు	-10.1067
▁lite	-10.1067
▁believe	-10.1068
ులలో	-10.107
జ్యోతి	-10.1073
ema	-10.1077
రాత్రి	-10.108
▁చేసినవాడు	-10.108
ోప	-10.1081
ష్ణ	-10.1085
▁ఉత్	-10.1086
▁thing	-10.1088
పడే	-10.109
▁నటుడు	-10.1092
▁కన	-10.1095
▁ఆకాశ	-10.1096
పాడులో	-10.1097
హే	-10.1101
సెస్	-10.1104
▁కనిపిస్త	-10.1105
ult	-10.1106
▁zee	-10.1106
▁haa	-10.1107
tunna	-10.1113
నాయక	-10.1115
samosa	-10.1117
▁gre	-10.1119
ైన్	-10.112
▁ప్రధానంగా	-10.112
గిలి	-10.1123
▁తీసుకుని	-10.1125
▁నటి	-10.1127
▁మిత్రుల	-10.1127
▁సూచి	-10.1128
▁mer	-10.1132
▁కోట్లు	-10.1134
men	-10.1136
▁company	-10.114
▁audio	-10.1141
▁జిల్లాకు	-10.1142
▁టైమ్	-10.1148
ార్ధ	-10.115
గల్	-10.1151
▁hela	-10.1154
▁రవి	-10.1155
▁బలహీన	-10.1157
▁telug	-10.1158
▁far	-10.1158
చేసిన	-10.1159
▁lot	-10.1162
ac	-10.1162
▁remember	-10.1164
▁సత్	-10.1165
bal	-10.1165
తాం	-10.1166
▁మిమ్మల్ని	-10.1167
▁ఆసియా	-10.1167
▁వీలు	-10.1168
▁క్షమించ	-10.1168
మనే	-10.117
▁అష్ట	-10.1175
టల్	-10.1179
kin	-10.1182
వాన్	-10.1182
▁మనిషిని	-10.1186
పాలెంలో	-10.119
▁వదిలే	-10.1192
▁math	-10.1193
▁chai	-10.1195
▁రొ	-10.1197
▁meri	-10.12
nic	-10.1204
▁cell	-10.1205
▁త్వర	-10.1207
▁ఎండ	-10.1211
ign	-10.1212
bh	-10.1212
▁మానసిక	-10.1214
▁ప్రెస్	-10.1215
▁wan	-10.122
▁వెలి	-10.1237
que	-10.1243
▁దొరిక	-10.1248
రస్	-10.1253
▁చూస్తూ	-10.1253
▁సాంస్కృతిక	-10.1254
▁సంబంధిత	-10.1254
zo	-10.1255
▁creati	-10.1258
▁అవుతా	-10.126
త్రా	-10.1261
▁దూరములో	-10.1262
unna	-10.1266
పడిన	-10.1267
ens	-10.1267
పోతాయి	-10.1269
▁జనసేన	-10.1269
దారులు	-10.1274
పత్తి	-10.1274
▁ఒప్పందం	-10.128
శివ	-10.1283
▁ప్రారంభం	-10.1284
▁అనిపిస్తుంది	-10.1287
▁ఉండడం	-10.1296
hil	-10.1297
▁అడిగి	-10.1301
▁నియమించ	-10.1301
▁nothing	-10.1302
▁శత్రువు	-10.1302
▁ఉంటాడు	-10.1303
▁women	-10.1304
▁యెషయా	-10.1305
▁నడిప	-10.1309
▁ఖాన్	-10.1314
ట్యూ	-10.1314
▁చెప్పవచ్చు	-10.1318
eb	-10.1321
▁sec	-10.1324
శాస్త్రం	-10.1326
క్షలు	-10.1327
lip	-10.1333
▁colour	-10.1341
▁వాళ్ళని	-10.1347
పేటలో	-10.1347
▁editing	-10.1348
▁శ్రమ	-10.1348
mate	-10.1353
▁విషయంలో	-10.1353
▁వాడే	-10.1354
▁అంబ	-10.1355
దైన	-10.1356
▁touch	-10.1357
▁శాస్త్రం	-10.136
▁కాఫీ	-10.1361
▁లేవ	-10.1362
fo	-10.1363
▁ఆఫ్రికా	-10.1366
rning	-10.137
▁వస్తు	-10.1374
ందరికీ	-10.1378
▁sms	-10.1379
▁అంటా	-10.138
▁బ్రతికి	-10.1381
▁నమూనా	-10.1382
▁sv	-10.1382
raa	-10.1382
▁chus	-10.1384
▁చెప్పాడు	-10.1386
▁పండిత	-10.1387
క్టర్	-10.1388
మాత్ర	-10.1391
ప్పుడే	-10.1399
▁అనుమతి	-10.1405
rao	-10.1405
▁పనిచేయ	-10.1406
▁హృదయం	-10.1407
▁anyone	-10.1407
▁సండే	-10.1408
▁విడుదలైన	-10.141
▁హెచ్	-10.1413
deep	-10.1414
▁వేళ	-10.1414
▁నిర్మించిన	-10.1415
▁వుంటా	-10.1416
▁స్థల	-10.1417
యోధ	-10.142
▁బట్ట	-10.142
▁జాతకం	-10.1428
ోదర	-10.143
గారి	-10.143
ెన్స్	-10.1432
▁గ్రామీణ	-10.1434
▁చలన	-10.1435
▁సమాధానం	-10.1437
▁teja	-10.1438
▁కళ్ళు	-10.1439
khan	-10.1441
▁కాలి	-10.1443
సేపు	-10.1444
కారుడు	-10.1445
▁zi	-10.1446
▁పోతున్నాయి	-10.1446
▁సరైన	-10.1449
▁films	-10.145
▁సలహా	-10.1452
మిష	-10.1453
iv	-10.1453
లక్ష్మి	-10.1454
eg	-10.1455
▁each	-10.1455
▁prem	-10.1457
▁సంపూర్ణ	-10.1458
▁సంఘటన	-10.146
▁problem	-10.1461
నియన్	-10.1461
▁break	-10.1462
▁held	-10.1463
▁వేగ	-10.1463
▁ప్రకాశం	-10.1466
▁ilove	-10.1466
▁ఆయనకు	-10.1468
▁కార్డు	-10.147
▁సాధించిన	-10.1473
▁hat	-10.1473
▁cont	-10.1473
▁మాటల	-10.1474
▁shu	-10.1474
దారుల	-10.1474
py	-10.1475
▁కార్యక్రమ	-10.1477
shmi	-10.148
▁exc	-10.148
▁dho	-10.1481
uk	-10.1482
వటం	-10.1482
▁ముందే	-10.149
▁వినియోగదారు	-10.149
▁హక్కు	-10.1491
▁ఇంకో	-10.1491
▁ప్రవేశపెట్ట	-10.1492
శ్చ	-10.1493
▁పురస్కార	-10.1495
▁engineer	-10.1496
▁click	-10.15
china	-10.1508
ునికి	-10.1509
▁micro	-10.1513
hoo	-10.1514
ration	-10.1514
▁pranam	-10.1515
ప్పి	-10.1524
▁close	-10.1527
▁భాషా	-10.1527
▁really	-10.1533
ws	-10.1533
▁tr	-10.1534
సింగ్	-10.1534
ated	-10.1536
ఫే	-10.1542
udu	-10.1543
ica	-10.1543
▁వేడుక	-10.1545
ద్రా	-10.1545
▁loving	-10.1547
▁ద్వీప	-10.1552
▁పాల్	-10.1554
డము	-10.1554
ాధికార	-10.1555
hd	-10.1555
▁tre	-10.156
▁మంచే	-10.1564
ism	-10.1565
▁కాస్త	-10.1565
▁times	-10.1567
▁నెట్	-10.1568
పోయాడు	-10.1569
నాధ	-10.1571
▁నలుగురు	-10.1572
▁భక్తులు	-10.1574
▁troll	-10.1578
▁edi	-10.1582
▁వెనక	-10.1582
▁makes	-10.1583
వల్	-10.1583
▁priya	-10.1584
కృష్ణ	-10.1585
పక్ష	-10.1591
▁ఉపయోగించి	-10.1593
▁ప్రభ	-10.1596
ాపూర్	-10.1599
▁sil	-10.1602
▁బార్	-10.1603
▁write	-10.1605
nger	-10.1608
▁ద్రవ	-10.1609
▁naga	-10.1609
దాం	-10.1609
▁okka	-10.1609
▁bor	-10.161
ష్టి	-10.1613
▁ప్రారంభించారు	-10.1615
than	-10.1616
ox	-10.1618
▁నాయక	-10.1619
▁సెలవు	-10.1625
▁తక్కువగా	-10.1628
▁నివసించ	-10.1628
rate	-10.1629
రాజ్	-10.1629
▁ప్రేమలో	-10.1631
▁సైన్యం	-10.1635
▁కావలసిన	-10.164
▁well	-10.1642
▁ill	-10.1645
▁card	-10.1646
ాపకాల	-10.1648
uda	-10.1649
ెల	-10.165
▁అధికారులు	-10.165
▁కాన్	-10.1653
ుకోవచ్చు	-10.1656
యల్	-10.1657
▁మొహ	-10.166
▁ఎవరో	-10.1667
fer	-10.1669
ురాలు	-10.1678
వేశ	-10.1679
▁వారితో	-10.1686
▁దేవీ	-10.1688
lon	-10.1689
▁magic	-10.1692
▁నమ	-10.1698
▁body	-10.17
▁యేసయ్య	-10.17
ళం	-10.1705
▁ministries	-10.1705
▁stand	-10.1711
▁ఇచ్చారు	-10.1712
▁అప్పు	-10.1712
▁data	-10.1714
▁దర్శన	-10.1716
మాల	-10.1719
▁భాద	-10.1719
▁నీకే	-10.1722
kat	-10.1724
▁ఇబ్బంది	-10.1727
▁dhe	-10.1727
ges	-10.1727
వాని	-10.1728
నుంచి	-10.1736
▁dance	-10.1737
▁మిగిలి	-10.1737
vid	-10.1738
yana	-10.1741
▁balu	-10.1744
ించాలి	-10.1746
▁cat	-10.1749
బడతాయి	-10.1749
▁అయ్యే	-10.175
▁డో	-10.1753
▁truth	-10.1755
▁అవసరమైన	-10.1756
▁అంగీకరించ	-10.1766
▁ఎప్పటికి	-10.1771
▁వస్తున్న	-10.1771
▁పుట్టినరోజు	-10.1771
▁చర్చి	-10.1771
▁cheya	-10.1773
ద్దాం	-10.1777
amma	-10.1785
బొ	-10.1786
▁trivikram	-10.1787
cal	-10.179
▁heaven	-10.179
▁బుక్	-10.1796
▁రహస్య	-10.1797
▁ముఖ్యమంత్రి	-10.1797
▁rep	-10.1798
లొ	-10.1801
▁నడి	-10.1802
▁యి	-10.1803
▁మనో	-10.1804
▁silent	-10.1806
▁నిజంగా	-10.1807
▁fri	-10.181
▁cyberlink	-10.1815
▁వరి	-10.1817
▁శరణ	-10.1817
▁ber	-10.1821
▁మాన్	-10.1822
▁ఇండియన్	-10.1823
▁ఆర	-10.1824
▁put	-10.1824
▁image	-10.1825
▁నల్గొండ	-10.1826
▁ఆంగ్లం	-10.183
▁సిటీ	-10.1832
▁local	-10.1833
hin	-10.1834
▁గ్రంథ	-10.1839
▁ప్రేమించడం	-10.184
▁పదే	-10.1856
▁పేజీ	-10.1857
▁హాస్య	-10.1864
ken	-10.1866
ments	-10.1869
▁చూస్తా	-10.187
▁away	-10.187
బల	-10.1873
▁cable	-10.1874
▁uni	-10.1875
▁color	-10.1878
▁అమ్మాయిలు	-10.1878
lee	-10.1878
▁led	-10.188
సేన	-10.1888
▁din	-10.1893
▁పసుపు	-10.1898
▁లోహ	-10.1904
▁ద్వేష	-10.1905
▁support	-10.1909
▁దేవాలయం	-10.1912
▁లోపల	-10.1916
▁product	-10.1917
▁ent	-10.1917
▁చెప్పారు	-10.1919
రక్ష	-10.1923
▁uvideo	-10.1924
▁అయ్యింది	-10.1926
▁కావాల	-10.1932
హిత	-10.1933
▁spa	-10.1942
▁malli	-10.1943
▁జూ	-10.1946
▁చూస్తే	-10.1954
▁series	-10.1955
ొచ్చ	-10.1956
▁తినే	-10.1958
▁road	-10.1959
▁promise	-10.1962
రాదు	-10.1964
▁అన్నా	-10.1964
▁ఎవర	-10.1965
▁లేచి	-10.1966
▁pur	-10.1969
▁reserve	-10.197
టిల్	-10.1972
▁బహుమతి	-10.1973
▁ఒక్కో	-10.1979
▁vara	-10.1981
శేష	-10.1982
▁brand	-10.1985
▁మిలియన్	-10.1986
▁చిత్రంలో	-10.1987
▁dep	-10.1989
nagar	-10.199
cher	-10.1993
▁జాతుల	-10.1994
▁పంచాయతీ	-10.1995
▁mou	-10.1995
▁appload	-10.1996
▁వ్యక్తిగత	-10.2001
▁సైన్య	-10.2002
పుర	-10.2004
▁ఉచితంగా	-10.2006
avu	-10.2011
hara	-10.2015
▁charan	-10.2019
▁ఉన్నట్లు	-10.202
▁ఇంటర్	-10.2026
▁def	-10.2027
▁కడప	-10.2028
▁శ్వాస	-10.2035
zy	-10.2038
▁rest	-10.2038
▁జన్మించాడు	-10.204
▁woo	-10.2044
గూడ	-10.2045
లేడు	-10.2046
ుకోండి	-10.2046
▁అంగ	-10.2046
▁wide	-10.2048
రాని	-10.2048
▁గానీ	-10.2049
▁of	-10.205
▁ఫో	-10.205
zar	-10.2058
ంటీ	-10.2059
▁ఆమెకు	-10.206
▁advance	-10.2061
▁అందరు	-10.2062
▁ప్రతిష్ఠ	-10.2064
▁పద్మజ	-10.2064
▁ava	-10.2067
▁కలుగ	-10.2067
▁ఎదుటి	-10.207
▁సామెతలు	-10.2072
ntu	-10.2077
దై	-10.2077
▁poli	-10.2081
▁తయార	-10.2082
▁బ్లాక్	-10.2082
▁సభ్యుల	-10.2093
▁born	-10.2094
▁పడుకో	-10.2096
▁gift	-10.2096
▁hor	-10.2097
లేం	-10.2101
ఫై	-10.2102
▁మించిన	-10.2104
గుంట	-10.2104
▁పట్టి	-10.2105
▁vai	-10.2106
tional	-10.2106
▁కావ్య	-10.2108
▁style	-10.2108
ame	-10.211
rom	-10.2112
శ్ర	-10.2113
for	-10.2115
lor	-10.2115
▁icon	-10.2116
ంపేట	-10.2117
▁sab	-10.2119
▁gang	-10.2124
▁gen	-10.2131
▁పండ	-10.2131
ాన్నే	-10.2132
agalaha	-10.2134
▁das	-10.2134
▁వృక్ష	-10.2137
కథ	-10.2139
▁chala	-10.214
▁ప్రాంతాల్లో	-10.214
▁పోతే	-10.2143
▁నిర్వహించిన	-10.2144
▁mani	-10.2146
▁స్వచ్	-10.2153
▁naidu	-10.2155
live	-10.2156
gaa	-10.2157
bro	-10.2158
త్వాన్ని	-10.2158
▁ఓడ	-10.216
కరించ	-10.2166
ాపూర్లో	-10.2169
ాపక	-10.2169
pre	-10.2173
▁students	-10.2174
▁muzic	-10.2174
▁చదివి	-10.2175
ుడికి	-10.2175
▁adv	-10.218
నామ	-10.2182
▁మీడియా	-10.2184
▁స్ట్ర	-10.2187
▁వ్ర	-10.2187
▁సేవలు	-10.2191
▁వాయు	-10.2194
షియ	-10.2196
▁భౌతిక	-10.2196
▁ఆకు	-10.22
eo	-10.2202
▁army	-10.2202
▁ak	-10.2206
▁బౌ	-10.2208
▁శ్రీనివాస	-10.221
రిగి	-10.2213
▁అమ్మాయిల	-10.2218
▁mini	-10.222
rin	-10.2221
gen	-10.2221
▁kid	-10.2221
▁షె	-10.2222
▁answer	-10.2222
▁raja	-10.2223
▁జంతువుల	-10.2223
▁log	-10.2227
వణ	-10.2229
▁low	-10.223
▁కళ్యాణ్	-10.2231
థ్	-10.2233
▁చిరు	-10.2233
▁est	-10.2236
▁అధికారం	-10.2236
ంటున్నా	-10.2236
▁karthik	-10.2241
▁నేర్చుకో	-10.2242
▁rai	-10.2245
▁అట్ల	-10.2248
▁ఆదేశ	-10.2261
▁నీటిని	-10.2262
▁తోడుగా	-10.2262
న్యాస	-10.2269
▁థి	-10.227
▁మతం	-10.227
▁యూనియన్	-10.2272
▁కుడి	-10.2273
▁వన	-10.2274
▁గార్	-10.2277
వాదం	-10.2282
▁idreammedia	-10.2282
▁క్రియ	-10.2285
▁wed	-10.2286
▁tap	-10.2288
▁వస్తువుల	-10.229
▁gun	-10.2303
udi	-10.2303
▁మహిళల	-10.2304
▁గడ్డ	-10.2306
▁మరువ	-10.2308
▁పుష్ప	-10.2309
▁రాయి	-10.2311
▁మాన	-10.2312
shna	-10.2312
▁ang	-10.2315
▁ఎవడ	-10.2317
▁సమాజ	-10.2319
▁శంకర్	-10.232
వుతాయి	-10.2326
▁should	-10.2327
▁విప్లవ	-10.233
▁ఫోర్	-10.2331
▁చీకటి	-10.2338
▁కీర్తన	-10.2345
▁chinnu	-10.2348
▁వారిలో	-10.2349
▁లాంటిది	-10.2349
నైన	-10.235
▁భవిష్యత్తు	-10.2351
▁రాక	-10.2351
▁మధుర	-10.2354
▁ww	-10.2354
ust	-10.2359
▁కావాలని	-10.2361
▁ప్రచారం	-10.2364
పంచ	-10.2364
▁సామ్రాజ్యం	-10.2365
wer	-10.2366
గుణ	-10.2366
pat	-10.2368
▁ఆస్తి	-10.2368
▁ప్రాజెక్టు	-10.2368
▁hair	-10.237
▁nin	-10.237
▁దేశాలలో	-10.2372
▁chaturthi	-10.2376
chan	-10.2377
▁hum	-10.238
▁హార్	-10.2381
▁శైలి	-10.2381
act	-10.2389
aye	-10.2394
▁తాక	-10.2395
▁వర్షం	-10.24
▁sit	-10.2402
▁china	-10.2404
▁రక్షించ	-10.2405
▁విద్యార్థి	-10.2406
▁అధ్యయనం	-10.2406
ోదయ	-10.2408
కవి	-10.2408
రాజ్య	-10.2409
▁వాళ్ళకి	-10.2409
pro	-10.2411
▁ఉద్యమం	-10.2411
▁ves	-10.2413
▁something	-10.2413
▁యే	-10.2417
▁మనసారా	-10.2417
▁మద్యం	-10.2418
ట్రిక్	-10.2424
శేఖర	-10.2428
▁భావన	-10.243
▁cos	-10.243
▁చుక్క	-10.243
▁cons	-10.2433
▁విని	-10.2433
▁air	-10.2435
▁పుట్టి	-10.2448
▁జ్యోతిష్యం	-10.2448
ంద్ర	-10.2452
▁shaik	-10.2455
▁బ్రాహ్మణ	-10.2455
రింగ్	-10.2456
▁విశ్వవిద్యాలయ	-10.2458
▁meet	-10.2459
▁నటన	-10.246
▁మిశ్రమ	-10.2461
▁కింగ్	-10.2462
▁ara	-10.2463
▁jam	-10.2464
das	-10.2471
hra	-10.2473
▁exclusive	-10.2474
▁అఫ్	-10.2477
ుంది	-10.248
▁పన్ను	-10.2481
భూత	-10.2483
▁walk	-10.2487
▁been	-10.2489
▁tomorrow	-10.2489
tel	-10.2489
▁సంబంధించి	-10.249
nny	-10.2491
▁బలం	-10.2496
▁ఉదా	-10.2498
▁సులభ	-10.2505
▁సీఎం	-10.2506
▁hey	-10.2511
ందర్	-10.2511
▁హైదరాబాదులో	-10.2513
▁రోజుకి	-10.2514
▁వీడియోలు	-10.2517
▁తీసుకొ	-10.2522
▁ర్యా	-10.2524
▁temple	-10.2531
▁చేసుకుని	-10.2531
▁sand	-10.2532
▁gif	-10.2542
▁hoyna	-10.2543
▁అడ్	-10.2544
▁రాజ్యాంగ	-10.2548
▁లక్ష్యం	-10.2549
కపోవడం	-10.2549
fan	-10.2554
▁gur	-10.2555
ర్చి	-10.2555
▁కొందరి	-10.2558
▁chal	-10.2559
భద్ర	-10.256
మవ	-10.2561
ాంశ	-10.2561
▁parents	-10.2562
▁వరుస	-10.2565
దార్	-10.2567
▁sing	-10.2568
▁సర్వీసు	-10.257
▁creat	-10.257
land	-10.2577
▁అండ	-10.2579
uc	-10.2579
▁పోలింగ	-10.2583
హె	-10.2585
▁నాశనం	-10.2586
ుదురు	-10.2589
▁అజ్	-10.259
▁సినిమాలో	-10.2595
▁kosam	-10.2597
▁kali	-10.26
▁complete	-10.2601
rav	-10.2604
▁జర్మనీ	-10.2604
▁నిబంధన	-10.2604
▁ot	-10.2606
▁వెల్	-10.2608
▁స్వాగతం	-10.2608
గలరు	-10.2608
▁మాయ	-10.2612
▁control	-10.2612
▁నిజామాబాద్	-10.262
▁que	-10.2627
దాని	-10.2634
▁దర్శకత్వం	-10.2634
▁రాసి	-10.2636
ంచె	-10.264
▁ఇరు	-10.2645
lona	-10.2647
▁రాజ్యం	-10.2648
లేవు	-10.2649
▁స్వేచ్	-10.2659
▁పవర్	-10.2661
▁పదార్థాల	-10.2661
▁బాధలు	-10.2664
ెదను	-10.2672
▁అక్షర	-10.2673
కృతి	-10.2673
▁తొలగి	-10.2673
▁హత్య	-10.2674
▁doesn	-10.2676
▁unda	-10.2677
▁కార్యక్రమాల	-10.2678
▁మట్టిరోడ్ల	-10.2678
▁filmigo	-10.2678
▁enti	-10.2679
▁dra	-10.2681
▁ఆధ్వర్యంలో	-10.2682
▁పనుల	-10.2685
గానూ	-10.2685
▁valla	-10.2687
▁next	-10.2693
▁శరీరం	-10.2695
▁తెగ	-10.2695
▁త్రాగ	-10.2698
▁చేయి	-10.2704
▁దగ్గరగా	-10.2704
shan	-10.2705
▁నియోజకవర్గం	-10.2707
dra	-10.2708
శయ	-10.271
▁పరిస్థితుల	-10.2715
▁కర్మ	-10.2716
xo	-10.2721
ంధ్ర	-10.2721
▁going	-10.2723
లేనిది	-10.2725
▁భో	-10.2725
దనం	-10.2728
▁కై	-10.2731
▁మద్రాసు	-10.2732
▁వ్యాసాల	-10.2743
ట్లే	-10.2744
▁సంకేత	-10.2745
ందరూ	-10.2745
▁కాలువ	-10.2751
▁లక్ష్య	-10.2753
దగ్గ	-10.2762
▁బ్రి	-10.2762
▁rebel	-10.2766
oon	-10.2766
▁must	-10.2769
కోసమే	-10.2771
▁join	-10.2772
▁దేవుడి	-10.2772
▁bala	-10.2774
వెన్	-10.2775
▁under	-10.2775
జిల్	-10.2776
tive	-10.278
▁భరించ	-10.2781
▁సకల	-10.2782
▁జన్మించారు	-10.2784
▁ప్రత్యేకంగా	-10.2787
▁afternoon	-10.2787
బూ	-10.2791
▁english	-10.2791
▁విధాన	-10.2793
isa	-10.2798
ప్రేమ	-10.2802
▁బెల్	-10.2805
▁విశ్వాస	-10.2807
▁ఏపీ	-10.2811
▁కిలో	-10.2812
mit	-10.2813
▁రుణ	-10.2814
▁అనుకుంటా	-10.2815
▁బౌద్ధ	-10.2816
ally	-10.2816
▁trans	-10.2818
వలస	-10.282
▁extra	-10.2829
▁కీలక	-10.283
▁అడవి	-10.2831
▁ఒప్ప	-10.2832
బడ్డ	-10.2833
▁కార్మికుల	-10.2834
▁భాగంలో	-10.2836
హ్మ	-10.2837
డ్డు	-10.2838
▁పుర	-10.284
▁బ్రతికే	-10.2842
▁blue	-10.2843
▁వేణు	-10.2844
▁eat	-10.2847
డింగ్	-10.2847
▁అభ్య	-10.2848
పడింది	-10.2849
భోదయం	-10.2866
▁కావచ్చు	-10.2866
▁total	-10.2869
▁manchala	-10.287
ధ్వ	-10.2871
▁చదువ	-10.2872
▁రోజ	-10.2872
▁పొందారు	-10.2873
▁ప్రీ	-10.2876
▁కొడ	-10.2878
▁అధ్యక్షుడు	-10.2881
▁గురి	-10.2882
ung	-10.2882
▁గమనించ	-10.2884
arechat	-10.2884
▁ఆలయంలో	-10.2885
ంకా	-10.2886
tter	-10.2887
▁mis	-10.2887
▁sari	-10.2889
ఫ్ట్	-10.2892
▁code	-10.2894
▁ఉండవచ్చు	-10.2895
▁అన్నారు	-10.2896
▁దొ	-10.2899
▁హనుమ	-10.29
af	-10.2909
▁bull	-10.2912
రేట్	-10.2913
వర్తన	-10.2913
▁ఎవరిని	-10.2913
▁system	-10.2913
▁చేయబడిన	-10.2913
tun	-10.2918
▁అనుమాన	-10.2919
▁cheppa	-10.2921
▁కురు	-10.2921
▁వేదిక	-10.2921
గుండ	-10.2922
▁emotion	-10.2925
▁awesome	-10.2925
ఖండ	-10.2926
▁నౌక	-10.2927
▁lee	-10.2932
▁studios	-10.2935
▁abidkohili	-10.2937
▁పోతుంది	-10.2942
stan	-10.2946
రుగా	-10.2947
భారత	-10.2949
▁బ్రిటీష్	-10.2949
▁ale	-10.2956
ందరికి	-10.2961
భై	-10.2961
▁hours	-10.2962
▁పనిచేసి	-10.2973
▁పిలువబడ	-10.2974
్యాయ	-10.2975
log	-10.2976
port	-10.2976
మయిన	-10.2976
ుతా	-10.2976
▁నెలలో	-10.2977
▁pot	-10.2977
▁కొబ్బరి	-10.2977
▁ధరించ	-10.2979
▁box	-10.2982
▁తిరుగుబాటు	-10.2986
ాలా	-10.2986
▁భూభాగం	-10.2988
▁til	-10.2991
▁ప్రార్ధన	-10.2999
▁రఘు	-10.3
ome	-10.3004
▁fil	-10.3005
▁vella	-10.3006
▁చీర	-10.3008
▁col	-10.3011
▁um	-10.3013
▁vinayaka	-10.3013
ల్లే	-10.3014
▁దేవా	-10.3019
▁వ్రాయ	-10.3029
▁సూక్ష్మ	-10.3038
▁తేది	-10.304
▁అలి	-10.3041
▁nama	-10.3042
▁తిప్ప	-10.3042
▁అరి	-10.3044
▁శాశ్వత	-10.3044
▁లక్షలు	-10.3044
▁bre	-10.3045
ప్రైవేటు	-10.3045
▁ఒకరికి	-10.3046
dala	-10.3048
▁అధి	-10.3049
▁భాషలో	-10.3057
▁length	-10.3058
▁wife	-10.3059
media	-10.3059
▁charger	-10.306
▁mere	-10.3064
▁buji	-10.3066
lakshmi	-10.3066
▁బంధాలు	-10.3069
▁said	-10.3069
▁బాధను	-10.307
▁నిర్ణయం	-10.307
ధ్	-10.3073
▁fact	-10.3074
▁గాక	-10.3075
▁mix	-10.3078
టప్పుడు	-10.3078
▁alt	-10.3078
▁bunny	-10.3079
చ్చింది	-10.3083
▁గతంలో	-10.3083
▁ఇద్దరి	-10.3086
▁matter	-10.3087
▁తీస	-10.3088
ele	-10.309
లియా	-10.3092
▁పిలిచే	-10.3093
▁పూల	-10.3097
▁శుభా	-10.3097
▁పౌ	-10.3098
శీల	-10.3098
▁teli	-10.3101
▁producer	-10.3102
▁ప్రదేశాల	-10.3102
ఖి	-10.3103
▁వన్	-10.3104
▁రక్తం	-10.3104
▁విభజించ	-10.3106
వాల్	-10.3112
▁జపాన్	-10.3114
పైన	-10.3115
▁జిల్లాలోని	-10.3117
▁కన్నీటి	-10.3119
dia	-10.3124
▁పదవి	-10.3124
▁సామ్రాజ్య	-10.3125
▁కార్యక్రమం	-10.3127
▁క్రీడా	-10.3128
టూరు	-10.3129
▁gupta	-10.313
yani	-10.3131
▁calls	-10.3132
▁కూతురు	-10.3133
▁కవిత	-10.3136
▁laksh	-10.3139
పట్నం	-10.314
ార్ధం	-10.3142
▁kalam	-10.3142
▁wireless	-10.3147
షీ	-10.3147
▁పోయిన	-10.3147
మిక్	-10.3147
లన్నీ	-10.3148
▁balaji	-10.3148
▁dia	-10.3149
▁రాం	-10.3151
▁మహిళా	-10.3155
▁పాస్	-10.3155
▁పురుషుల	-10.3156
▁matt	-10.3156
▁port	-10.3158
▁easy	-10.3159
▁కురి	-10.3161
▁సంస్థల	-10.3164
▁fre	-10.3164
▁ఖా	-10.3165
▁ప్రేమంటే	-10.3165
▁చెన్నై	-10.3166
▁vamsi	-10.3167
jj	-10.3168
పట్ట	-10.3173
వడ	-10.3173
▁సిరి	-10.3175
▁చిహ్న	-10.3175
▁వార్షిక	-10.3179
▁సొంతం	-10.3179
palli	-10.3182
తంత్ర	-10.3183
▁ఆరో	-10.3183
▁అగ	-10.3184
mula	-10.3184
▁game	-10.319
▁అత్త	-10.319
ుకోవాలని	-10.319
▁పొర	-10.3191
క్యు	-10.3192
▁pon	-10.3193
isha	-10.3196
▁allah	-10.3196
▁నాది	-10.3197
జై	-10.3198
▁గ్రామాలు	-10.32
dho	-10.3201
▁పాకిస్తాన్	-10.3204
మౌ	-10.3206
▁safe	-10.321
▁పోలీస్	-10.3212
▁coming	-10.3213
▁చావు	-10.3213
▁తదితర	-10.322
▁mit	-10.3227
దళ	-10.3232
▁smiling	-10.3232
▁gud	-10.3233
▁ఓటమి	-10.3237
పాత్ర	-10.3237
విన్	-10.3237
ert	-10.3239
▁ఏడవ	-10.324
షియన్	-10.3243
▁అనుకునే	-10.3244
▁నను	-10.3245
▁ప్రాంత	-10.3248
▁soon	-10.3252
▁vigo	-10.3253
▁తెలుగులో	-10.3255
▁move	-10.3258
▁కర్ణాటక	-10.3261
ర్యం	-10.3261
ానికే	-10.3262
▁హాయిగా	-10.3262
▁గర్వ	-10.3262
▁వుంటుంది	-10.3263
▁eg	-10.3265
▁తెలీదు	-10.3265
మిడి	-10.3267
hana	-10.3268
▁kadha	-10.327
ndhe	-10.3272
▁దేహ	-10.3273
▁ప్రేమగా	-10.3282
▁బెల్లం	-10.3284
▁జననం	-10.3285
▁పర్యాటక	-10.3286
▁సేకరించ	-10.3288
ుకొను	-10.329
▁పేర	-10.3291
ుకొన్న	-10.3297
▁lan	-10.33
▁పరు	-10.3302
▁sti	-10.3304
kr	-10.3306
▁af	-10.3306
▁స్వర	-10.3306
యాత్ర	-10.3309
▁ఆమెను	-10.331
▁మరణించ	-10.331
య్యాయి	-10.3314
▁ఉపయోగించే	-10.3318
▁tak	-10.332
▁ఎదురుచూ	-10.332
▁point	-10.3321
త్రీ	-10.3322
▁మెరుగు	-10.3325
key	-10.3327
▁తిట్ట	-10.3336
▁ముద్ద	-10.3338
▁నెలల	-10.334
▁డబ్బులు	-10.3342
▁వచ్చాయి	-10.3345
▁నిర్మాత	-10.3348
▁మంట	-10.335
సిన్	-10.335
▁జారీ	-10.335
pis	-10.3351
▁చెప్తా	-10.3352
▁అలవాటు	-10.3356
▁రెండూ	-10.3356
▁telugusongss	-10.3365
▁రాజ్	-10.3365
▁los	-10.3367
pad	-10.3367
జీవిత	-10.3368
▁పెట్టే	-10.3369
థు	-10.3369
▁విడిపో	-10.3373
▁నిర్మించారు	-10.3374
▁టీచర్	-10.3376
స్తుందని	-10.3377
▁pradesh	-10.3377
▁teluguone	-10.3377
ppe	-10.3378
▁విద్యార్థులు	-10.3379
▁తాజా	-10.3379
▁blo	-10.3385
▁ఒకప్పుడు	-10.3385
▁కొన్నిసార్లు	-10.3387
▁protect	-10.3388
▁inn	-10.3391
నాథ్	-10.3393
▁రేపటి	-10.3394
▁సార్	-10.3397
▁సంగారెడ్డి	-10.3398
ante	-10.3399
▁mic	-10.3399
రోగ	-10.3401
▁చక్రవర్తి	-10.3403
▁తిని	-10.3404
▁hug	-10.3405
భక్త	-10.3407
▁సమాచార	-10.3411
▁రంగంలో	-10.3421
▁దిగువ	-10.3421
ిస్తు	-10.3427
స్తాను	-10.3428
▁క్లబ్	-10.3429
▁చై	-10.3431
▁lub	-10.3431
▁chesi	-10.3434
▁కోల్	-10.3435
ుతుందని	-10.3436
sari	-10.3438
▁శాలలో	-10.3439
▁రేఖ	-10.3439
▁tele	-10.3439
▁ఫ్రెంచ్	-10.344
▁పునర్	-10.3444
▁nene	-10.345
▁thaman	-10.345
▁వచ్చారు	-10.3451
ంగళ	-10.3453
▁కలుగు	-10.3455
▁అభ్యర్థి	-10.3457
▁express	-10.3461
▁dee	-10.3462
▁వస్తాయి	-10.3464
▁ఒత్తిడి	-10.3465
▁అంతర్	-10.3467
▁గడప	-10.3467
▁పడిన	-10.3472
▁పెరుగుతుంది	-10.3475
▁పేరులోని	-10.348
▁హ్యా	-10.348
▁pubg	-10.3483
▁చేసుకుంటా	-10.3486
వలె	-10.3487
మణ	-10.3489
▁రద్దు	-10.349
▁బంద	-10.349
▁రిపోసో	-10.349
ళీ	-10.3494
▁గజ	-10.3498
▁సాహిత్యం	-10.3499
▁తప్పించ	-10.3503
▁para	-10.3503
▁జీర్ణ	-10.3507
▁ఇష్టపడే	-10.3508
▁వెంకటేశ్వర	-10.3512
▁క్లి	-10.3515
▁ఉంటు	-10.3516
▁fac	-10.3517
▁caring	-10.3518
ములకు	-10.3518
మూల	-10.3519
▁nahi	-10.3519
▁వాయువు	-10.352
ొప్ప	-10.3524
▁కంప	-10.3525
▁ou	-10.3531
పాక	-10.3532
స్తి	-10.3532
గలదు	-10.3534
▁పెట్టుకో	-10.3537
▁bye	-10.3537
ప్రె	-10.3543
▁vic	-10.3544
▁నిధుల	-10.3545
▁ఆదిలాబాద్	-10.3549
▁madhav	-10.3551
▁అడుగుల	-10.3553
▁ore	-10.3554
▁గడి	-10.3555
స్తోంది	-10.3564
▁సైతం	-10.3565
cation	-10.3566
▁rom	-10.3567
mber	-10.3568
▁నన్న	-10.3569
▁చెప్పండి	-10.357
▁క్రితం	-10.3572
ండో	-10.3573
▁ఇల్లు	-10.3576
▁sco	-10.3577
▁khan	-10.3577
▁కొత్తగా	-10.3579
▁text	-10.3579
▁అడుగులు	-10.3581
▁సంవత్సరము	-10.3585
వాటి	-10.3588
▁ple	-10.3588
▁శక్తిని	-10.3593
▁సమాజం	-10.3593
▁cur	-10.36
▁situation	-10.36
▁మధ్యాహ్నం	-10.3605
▁happ	-10.3608
శర్మ	-10.3612
▁srinu	-10.3613
pet	-10.3614
▁పరిపాలన	-10.3614
▁mass	-10.3614
▁సీనియర్	-10.3617
▁multi	-10.3618
▁ఉష్ణ	-10.3622
▁lad	-10.3624
▁రోజుకు	-10.3626
▁కథా	-10.3626
▁నక్షత్ర	-10.3627
▁చేసినా	-10.3629
▁కాయ	-10.3629
▁model	-10.363
లిక్	-10.363
kada	-10.3631
▁పరిమాణం	-10.3634
▁సీజన్	-10.3634
▁కరిగి	-10.3634
▁నిమిషం	-10.3634
▁swe	-10.3637
▁నిమ	-10.3638
▁గుర్ర	-10.364
▁service	-10.3643
get	-10.3645
▁సన్న	-10.3646
▁వేట	-10.3646
▁mosa	-10.3646
▁fabric	-10.3647
▁fine	-10.365
▁usa	-10.365
maa	-10.3651
▁భద్రత	-10.3656
▁అగ్ర	-10.3657
▁బండి	-10.3658
nav	-10.366
▁ly	-10.366
మార్గ	-10.3664
▁వ్యాధుల	-10.3668
ానము	-10.367
▁పోరాటం	-10.3671
▁క్రమంలో	-10.3679
ుతున్నాయి	-10.3683
▁మాట్లాడు	-10.3684
▁little	-10.3686
▁search	-10.369
▁చేయబడును	-10.3698
పేరు	-10.3702
యులకు	-10.3704
▁వృద్ధి	-10.3705
cco	-10.3709
▁ఇతను	-10.371
సాయి	-10.3715
▁were	-10.3715
భేద	-10.3716
qui	-10.3718
▁అనుసంధాన	-10.3718
▁inf	-10.3726
▁సందర్భ	-10.3726
▁ద్వి	-10.3726
▁narasimha	-10.3729
▁లండన్	-10.3729
మందు	-10.3729
▁గంటలు	-10.373
▁చెప్పుకో	-10.3732
▁prayer	-10.3732
▁bytes	-10.3734
దేశం	-10.3738
▁annapurna	-10.3742
▁deep	-10.3742
▁madhura	-10.3742
▁తప్పకుండా	-10.3744
▁ఆద	-10.3744
▁కన్నీళ్లు	-10.3745
heart	-10.3747
▁చెడ్డ	-10.3747
▁నిర	-10.3748
▁వ్యాపారం	-10.3749
▁welcome	-10.375
▁రష్యా	-10.3751
▁జైలు	-10.3753
▁proud	-10.3754
pathi	-10.3755
▁హాజర	-10.3756
▁సంభవించ	-10.3758
▁గంగా	-10.376
▁మించి	-10.3761
భాకాంక్షలు	-10.3763
▁వరద	-10.3767
rang	-10.3768
▁ద్వార	-10.3769
▁వేంకట	-10.3771
▁తిన్న	-10.3772
▁ఉండవు	-10.3772
▁చలనచిత్ర	-10.3773
▁దర్శకుడు	-10.3777
ాద్రి	-10.3779
రెన్	-10.3779
▁కోటి	-10.378
▁నీటిలో	-10.3786
kunda	-10.379
వేద	-10.3791
▁బంధాల	-10.3792
▁చివరకు	-10.3794
▁realme	-10.3795
కాండ	-10.3795
▁గ్రంథాల	-10.3796
▁నిల్వ	-10.3797
▁దేని	-10.3797
▁చదివిన	-10.3797
న్నింటి	-10.3798
▁ప్రాంతాలు	-10.3798
▁వాతావరణ	-10.3799
▁puri	-10.3803
▁మణి	-10.3805
▁gal	-10.3806
▁ఇస్తుంది	-10.3806
▁ప్రఖ్యాత	-10.3807
గొండ	-10.3815
▁order	-10.3818
ఎం	-10.3818
▁jun	-10.382
▁హ్యాపీ	-10.3822
▁కళ్ల	-10.3824
▁husband	-10.3824
▁ఆగిపో	-10.3825
▁మొదటిసారి	-10.3828
▁మౌనం	-10.3829
చ్చా	-10.3833
▁stone	-10.3834
▁question	-10.3838
▁భుజ	-10.3842
▁మిగతా	-10.3842
▁lou	-10.3843
▁created	-10.3848
▁designer	-10.3851
▁అధికారిక	-10.3857
▁శరీరంలో	-10.3859
ట్లేదు	-10.3859
ోడు	-10.386
కరణం	-10.386
▁జ్యోతిష	-10.3861
వరంలో	-10.3862
▁ఎల్ల	-10.3863
దొ	-10.3865
▁gaa	-10.3866
▁రౌ	-10.3866
▁skills	-10.3868
dri	-10.3869
▁పెరగ	-10.387
▁వెన్న	-10.387
▁calvary	-10.3872
గ్న	-10.3874
▁గెలవ	-10.3876
▁విషయాలు	-10.3876
▁మరు	-10.3876
▁నీల	-10.3876
▁blouse	-10.3877
▁young	-10.3877
bin	-10.3878
▁భిన్న	-10.388
▁దృశ్య	-10.3882
▁pack	-10.3884
▁శంకర	-10.3888
▁నాయకుడు	-10.3889
ట్టా	-10.3889
▁would	-10.3894
patel	-10.3897
▁bvm	-10.3899
▁land	-10.3904
▁లభించింది	-10.3904
▁thinking	-10.3905
▁మెంట్	-10.3905
▁కలప	-10.3905
▁ఎవ్వరి	-10.3908
వడమే	-10.3909
▁గ్రే	-10.3911
▁సంతానం	-10.3911
▁travel	-10.3912
▁coco	-10.3912
▁coo	-10.3913
▁ఎలక్	-10.3914
▁వందల	-10.3914
kki	-10.3916
▁daughter	-10.3916
▁inst	-10.392
▁కొనుగోలు	-10.392
▁bon	-10.3929
ీకృత	-10.393
▁పెరిగి	-10.3932
▁మిలియన్ల	-10.3934
▁పెట్టుబడి	-10.3938
ప్రా	-10.3939
మండల	-10.3943
▁విషయాన్ని	-10.395
▁విజయదశమి	-10.3951
▁fra	-10.3952
▁అడవుల	-10.3953
▁రచించిన	-10.3954
▁late	-10.3956
▁ప్రశాంత	-10.3958
▁చిక్క	-10.3959
పోతారు	-10.3964
ధాన్య	-10.3964
▁కాకినాడ	-10.3965
▁మాట్లాడితే	-10.3965
బోధ	-10.3966
▁ఎముక	-10.3966
▁అవసరాల	-10.3969
▁sale	-10.3973
▁ood	-10.3974
▁పనిచేశారు	-10.398
▁దాటి	-10.3984
▁paa	-10.3984
▁amosa	-10.3984
▁సాధించింది	-10.3986
▁ప్రైవేట్	-10.3987
▁santhosh	-10.3987
▁janasena	-10.3987
▁మరిచిపో	-10.3988
▁అవతార	-10.3988
▁ఉత్పత్తుల	-10.3996
▁పురస్కారం	-10.3997
▁మరీ	-10.3999
▁కెమెరా	-10.4003
▁wel	-10.4004
▁సెలవులు	-10.4005
ధ్యాయ	-10.4006
▁యాత్ర	-10.4006
▁గణిత	-10.4008
▁dub	-10.4012
▁దేశానికి	-10.4014
▁చాలామంది	-10.4019
▁తమిళనాడు	-10.4019
్యాల	-10.4019
▁remo	-10.402
▁క్రా	-10.4022
▁అనుసరించి	-10.4023
▁బూ	-10.4026
తులను	-10.4036
▁those	-10.4036
ాధి	-10.4038
▁లేద	-10.4038
ప్తి	-10.4038
▁ann	-10.404
▁తదుపరి	-10.404
▁కార్యక్రమాలు	-10.4043
▁ఒకటే	-10.4044
▁sath	-10.4044
▁మార్పులు	-10.4052
▁wit	-10.4056
▁జంట	-10.4058
▁green	-10.4062
▁అలంకరణ	-10.4067
▁నివేదిక	-10.4071
▁ప్రాధాన్యత	-10.4071
పడ్డారు	-10.4074
▁నువ్వంటే	-10.4076
▁oil	-10.408
▁ఎప్పుడ	-10.409
న్నిటి	-10.4092
▁క్రో	-10.4092
▁inte	-10.4094
▁మొత్త	-10.4098
▁ఈనాడు	-10.41
▁తార	-10.4101
▁హానికరం	-10.4107
ుడే	-10.4107
▁వేసిన	-10.4108
oad	-10.4109
▁lal	-10.411
▁స్మార్ట్	-10.4111
▁సమస్త	-10.4112
▁ali	-10.4118
▁idea	-10.4118
▁కాదని	-10.412
భీ	-10.412
▁తీసిన	-10.4121
▁sahith	-10.4121
▁pure	-10.4122
▁యస్	-10.4123
▁నిద్రపో	-10.4123
▁వర్గం	-10.4125
ative	-10.4126
▁ప్రవర్తన	-10.4127
▁fee	-10.4127
థె	-10.4127
▁room	-10.4133
▁cel	-10.4135
▁బహుళ	-10.4136
▁sign	-10.4137
▁kind	-10.4142
els	-10.4144
▁సంగ	-10.4144
▁manam	-10.4146
lucky	-10.4147
▁ఇందు	-10.415
▁అనుబంధ	-10.4153
▁గణేశ	-10.4153
▁చేస్తు	-10.4155
▁పల్ల	-10.4156
▁నాట్య	-10.4157
lani	-10.4164
▁bla	-10.4168
tiktok	-10.4168
▁ప్రకటించింది	-10.4168
▁minutes	-10.4169
▁కచ్చితంగా	-10.417
hir	-10.4171
▁వ్యక్తుల	-10.4178
khi	-10.4179
prasad	-10.418
▁తట్ట	-10.4184
లక్ష్మీ	-10.4186
వెల్	-10.4191
▁తల్లిదండ్రులు	-10.4192
టికల్	-10.4195
▁manu	-10.4196
eshwar	-10.4197
ఖ్	-10.4197
▁మృత	-10.42
▁కుటుంబానికి	-10.4203
vva	-10.4204
▁speaker	-10.4205
▁guy	-10.4206
గణ	-10.421
hen	-10.421
▁kot	-10.4213
▁scoompa	-10.4215
▁వేర్	-10.4223
▁ఇవ్వడం	-10.4223
▁వరం	-10.4224
▁bud	-10.4226
▁సాగు	-10.4229
▁ఒకరిని	-10.4232
▁kr	-10.4232
▁government	-10.4233
▁ఒకవేళ	-10.4233
▁report	-10.4236
దుర్గ	-10.424
పోయాయి	-10.4241
ithe	-10.4242
▁నరసింహ	-10.4244
▁కష్టాల	-10.425
▁ఎమ్	-10.425
▁ఫ్రీ	-10.4251
raga	-10.4252
▁ఫేవరెట్	-10.4256
▁joy	-10.4262
▁అడ్డా	-10.4262
▁స్టేట్స్	-10.4264
▁party	-10.4265
▁వ్రాసిన	-10.4267
టంతో	-10.4269
▁వున్నా	-10.427
▁ఉంటుందో	-10.427
బడు	-10.4271
డియో	-10.4277
▁మీర	-10.4279
▁అనుభవించ	-10.4279
ition	-10.4282
▁పేర్లు	-10.4285
▁థా	-10.4285
వంతంగా	-10.4286
▁స్వర్ణ	-10.4288
మనసు	-10.429
▁కారణ	-10.4292
▁shiv	-10.4293
▁nallamala	-10.4301
▁చూడగానే	-10.4304
▁చేసేందుకు	-10.4305
▁hos	-10.4307
▁solo	-10.4309
▁గోవిందా	-10.4309
స్తున్నాయి	-10.4311
▁జరిపి	-10.4312
చిత్ర	-10.4323
▁tro	-10.4325
▁మహారాష్ట్ర	-10.4327
▁హౌస్	-10.4329
▁downl	-10.4329
▁ntv	-10.4332
పూజ	-10.4333
▁offer	-10.4333
▁పనిచేస్తున్న	-10.4334
సంబంధ	-10.4337
▁sharec	-10.4344
▁బంధువుల	-10.4344
▁మార్గము	-10.4345
▁cher	-10.4346
▁kit	-10.4347
ule	-10.4348
▁చిత్త	-10.4349
▁పరిసర	-10.4352
▁అక్ష	-10.4353
▁tes	-10.4355
sia	-10.4357
▁నోటి	-10.436
ుకొన	-10.4362
▁cla	-10.4364
▁స్వంత	-10.437
▁bus	-10.4376
▁పాలి	-10.4377
▁ప్రవాహ	-10.4379
▁ఏకైక	-10.4384
▁singh	-10.4384
▁ఎంచ	-10.4385
▁పండు	-10.4389
oda	-10.439
rama	-10.4392
▁found	-10.4396
▁indi	-10.4397
▁mara	-10.44
▁chesa	-10.4401
▁ఉద	-10.4402
▁గాజు	-10.4403
▁ఇంధన	-10.4406
▁పదార్థం	-10.4407
మణి	-10.441
▁మనస్పూర్తిగా	-10.4412
▁జరుగు	-10.4412
▁బాలా	-10.4419
బడ్డాడు	-10.4426
▁nik	-10.4426
▁పేర్కొన్నారు	-10.4427
▁white	-10.4429
▁జంతు	-10.443
▁entha	-10.4431
vari	-10.4431
▁రాతి	-10.4431
మయ్యే	-10.4433
▁ఉండేవి	-10.4434
▁అంతకు	-10.4437
▁పెడితే	-10.4441
▁international	-10.4449
నారాయణ	-10.4449
▁lar	-10.4452
▁మౌనంగా	-10.4453
▁గ్యా	-10.4453
▁సమా	-10.4453
▁tollywood	-10.4456
▁కలిగే	-10.4459
▁cine	-10.4459
▁సమావేశ	-10.4461
ంట్లో	-10.4462
▁నాయ	-10.4464
▁saaho	-10.4466
▁వుంది	-10.4468
▁వివరాలు	-10.447
▁శుభాకా	-10.447
▁అమర	-10.4471
▁anishasada	-10.4472
▁relation	-10.4473
▁విలువైన	-10.4476
▁door	-10.4477
రూపం	-10.4479
▁chand	-10.4483
▁విమానాశ్రయ	-10.4486
▁bru	-10.4491
▁కాద	-10.4495
▁నేరుగా	-10.4497
▁aur	-10.4498
▁విఘ్న	-10.45
▁cash	-10.4506
▁police	-10.4506
పార్	-10.4509
▁అన్నపూర్ణ	-10.4509
▁unta	-10.4511
yadav	-10.4519
▁హక్కుల	-10.4523
▁male	-10.4523
▁rose	-10.4524
▁స్త్రీల	-10.4528
▁గవర్నర్	-10.4531
కొన	-10.4532
▁shan	-10.4533
▁blood	-10.4535
▁అంట	-10.4536
▁విటమిన్	-10.4537
టెన్	-10.4538
▁బ్రా	-10.4542
▁voloa	-10.4543
▁prathi	-10.4543
life	-10.4543
ధారణ	-10.4545
▁గాను	-10.4548
▁వేలు	-10.4548
▁అమెరికాలో	-10.4549
lia	-10.4552
▁రుచి	-10.4555
uga	-10.4555
▁స్వర్గ	-10.4556
▁చేసుకుంటే	-10.4556
▁నందు	-10.456
▁ఇసుక	-10.4562
▁తత్వ	-10.4563
▁కాలేజీ	-10.457
▁సెం	-10.457
▁study	-10.4573
▁ఆదాయం	-10.4573
▁madhu	-10.4575
డై	-10.4577
▁మొగ	-10.4578
▁earphone	-10.458
టెక్	-10.4582
▁శివాయ	-10.4583
▁సంవత్సర	-10.4584
▁ద్రవ్య	-10.4588
▁apo	-10.4592
▁రకం	-10.4593
▁publicvibe	-10.4593
▁slo	-10.4594
kala	-10.4594
దశ	-10.4596
శో	-10.4597
▁ప్రభువు	-10.4598
▁సమితి	-10.4599
▁శ్రీకృష్ణ	-10.4601
▁నిలువ	-10.4603
▁ప్రథమ	-10.4605
▁చలి	-10.4608
▁శుభ్ర	-10.4612
▁లీగ్	-10.4615
▁వారే	-10.4618
ించును	-10.4619
▁కమల	-10.462
▁పొందు	-10.4624
ంతవరకు	-10.4628
▁leader	-10.4629
▁public	-10.4636
▁sis	-10.4641
▁center	-10.4641
▁రాక్షస	-10.4645
dent	-10.4645
▁నిజాం	-10.4646
▁రూపాయి	-10.4647
ఉండ	-10.4649
▁పోర్ట్	-10.4656
▁శర	-10.4656
▁హోదా	-10.4661
▁bom	-10.4661
▁భావిస్తున్నారు	-10.4662
▁సమర్పించ	-10.4664
▁rip	-10.4665
రణం	-10.4665
▁కోడ	-10.4668
▁ఆశ్వయుజ	-10.4669
▁హీ	-10.4669
uti	-10.4671
▁టెక్నాలజీ	-10.4674
ోత్సవం	-10.4674
▁దయ	-10.4678
▁editor	-10.4682
▁తీరు	-10.4684
▁పోరాట	-10.4686
▁శాస్త్రీయ	-10.4696
▁soulful	-10.4699
sive	-10.4701
ుతాడు	-10.4703
▁కోల్పోయిన	-10.4706
▁నంద	-10.4707
ctions	-10.4707
▁become	-10.4708
▁వెలువడ	-10.4714
▁కప్ప	-10.4715
▁అంకిత	-10.4717
▁venky	-10.4718
▁player	-10.4718
▁జరుగుతున్న	-10.4719
▁der	-10.4722
▁కిరణ	-10.4723
▁ons	-10.4727
హరి	-10.4729
▁సైట్	-10.4729
▁భార	-10.4734
▁ఎందుకో	-10.4747
▁తెచ్చి	-10.4749
▁konidela	-10.475
▁సాంఘిక	-10.475
▁అణు	-10.4751
▁happen	-10.4751
▁యుద్ధంలో	-10.4754
▁అనిపించ	-10.4754
▁బతక	-10.4757
win	-10.476
▁లేదో	-10.476
పడుతుంది	-10.4766
▁ero	-10.4767
▁అమ్మాయిని	-10.4767
▁అబ్దుల్	-10.4769
▁గోపాల	-10.4772
ెదరు	-10.4773
▁akhil	-10.4776
▁అసలైన	-10.4776
ndra	-10.4777
▁హింస	-10.4778
విధ	-10.478
▁చేసుకొని	-10.4784
▁కీర్తి	-10.4788
▁pul	-10.4793
వాక్యము	-10.4795
▁zenjoy	-10.4798
డాన్ని	-10.48
▁దుకాణ	-10.4805
xx	-10.4807
▁మది	-10.4808
▁రాణి	-10.481
రోజ	-10.4811
▁వ్రాస	-10.4812
kanth	-10.4815
▁ego	-10.4815
▁తేలిక	-10.4818
▁మిల్	-10.4819
▁mir	-10.4819
దగిన	-10.4819
తరం	-10.4822
▁ఎడమ	-10.4823
▁నీకోసమే	-10.4826
పథ	-10.4827
▁అందువలన	-10.4828
▁కిడ్స్	-10.4832
▁కనుగొన్న	-10.4832
▁కమ్మ	-10.4835
▁mata	-10.4837
ెత్త	-10.4838
▁ధైర్య	-10.4839
▁mein	-10.4839
▁తీసుకొని	-10.4841
▁key	-10.4845
మెన్	-10.4846
▁లక్షణాలు	-10.485
▁చెందింది	-10.4852
▁చేతులు	-10.4855
▁కెనడా	-10.4855
ానంద	-10.4858
▁eye	-10.4859
▁పంపిస్తున్నా	-10.4865
▁ఏర్పరచ	-10.4865
▁వేసవి	-10.4867
▁నమ్మిన	-10.4872
▁lea	-10.4872
▁కేరళ	-10.4875
▁భక్త	-10.4876
▁కన్నడ	-10.4878
▁ఏర్పడింది	-10.4879
▁నటించిన	-10.488
▁పనిచేశాడు	-10.4884
▁వేడిగా	-10.4885
▁రాగ	-10.4886
▁పిలుపు	-10.4888
▁మందుల	-10.4894
▁అదుపు	-10.4895
▁తిను	-10.4898
▁కప్	-10.4899
క్సైడ్	-10.4899
▁లేకపోవడం	-10.49
▁నాయకత్వం	-10.4901
▁గొప్పది	-10.4903
▁ఆత్మహత్య	-10.4909
▁నాక	-10.491
▁ముని	-10.4913
▁తల్లిదండ్రుల	-10.4914
▁tin	-10.4915
▁నేర్చ	-10.4916
▁మెదడు	-10.4923
▁volte	-10.4925
▁అద్భుతమైన	-10.4927
▁death	-10.4927
▁ముగింపు	-10.4928
▁oye	-10.4929
▁couple	-10.4929
uru	-10.4935
ww	-10.4935
▁గ్రూప్	-10.4938
▁రాష్ట్రంలోని	-10.4939
▁వ్యవహరించ	-10.4942
ాక్షి	-10.4943
▁anti	-10.4944
లియన్	-10.4945
▁priyachowdary	-10.4948
▁legend	-10.4948
▁mark	-10.4949
షే	-10.4951
▁కార్యకలాపాల	-10.4952
▁సాక్షి	-10.4956
▁సెయింట్	-10.4957
▁చౌ	-10.4958
▁చర్యలు	-10.496
▁చేస్తాయి	-10.496
▁బియ్యం	-10.4963
▁కొనసాగించ	-10.4964
▁ఫార్మ	-10.4966
▁రామకృష్ణ	-10.497
▁wow	-10.4972
▁హిమ	-10.4973
▁కాశీ	-10.4973
▁మానే	-10.4982
▁print	-10.4986
▁srikanth	-10.4987
▁ఇటువంటి	-10.4988
▁రామ్	-10.4993
▁బలమైన	-10.4997
యెడల	-10.4998
▁mala	-10.5001
▁తాత	-10.5001
▁సప్త	-10.5002
▁పరికరాల	-10.5004
sso	-10.5004
▁సాధ	-10.5004
▁సగం	-10.5006
▁బలవంత	-10.5008
▁చేరే	-10.5011
▁ikkada	-10.5016
▁అచ్చ	-10.5016
▁national	-10.502
▁కరుణ	-10.502
పిల్ల	-10.502
▁నిజానికి	-10.5021
▁ఇంగ్లీష్	-10.5021
▁దశాబ్ద	-10.5021
▁వ్యవహార	-10.5021
goud	-10.5021
▁ఏదీ	-10.5022
ద్వా	-10.5022
▁listen	-10.5022
▁బుద్ధి	-10.5025
▁గూ	-10.5026
▁దేశాలు	-10.5027
▁ఇచ్చింది	-10.5029
▁shri	-10.503
క్కువ	-10.503
▁eli	-10.5032
▁పాపం	-10.5032
▁bible	-10.5036
ెత్తి	-10.5039
▁జన్మదిన	-10.504
షియా	-10.504
ాల్సిందే	-10.5042
dhya	-10.5043
▁అయ్యప్ప	-10.5048
▁విరు	-10.505
▁నడవ	-10.5052
▁మంచితనం	-10.5053
▁గెలు	-10.5053
▁మంచు	-10.5057
▁చల్లని	-10.5059
▁అనుకున్నా	-10.506
▁లోకం	-10.5071
▁పోలీసులు	-10.5071
లేదా	-10.5074
▁లాగ	-10.5074
రొ	-10.5075
form	-10.5075
▁buy	-10.5076
lish	-10.508
▁dress	-10.5081
▁గుణం	-10.5083
▁లభిస్తుంది	-10.509
ల్యాండ్	-10.509
▁dur	-10.5092
▁inside	-10.5093
▁ora	-10.5093
హారం	-10.5094
ాపురంలో	-10.5096
▁బోధన	-10.5097
▁గెలుపు	-10.5099
▁కనక	-10.5099
▁haarika	-10.51
పోవటం	-10.5102
▁lam	-10.5104
▁ఆర్ధిక	-10.5105
▁గుర్తుంచుకో	-10.5109
▁ప్రేమిస్తే	-10.511
▁పొందాడు	-10.511
▁డొ	-10.5111
▁mode	-10.5112
▁ఉంటేనే	-10.5113
▁hear	-10.5114
▁దుస్తుల	-10.5117
kalyan	-10.5118
nds	-10.5119
▁తింటే	-10.5119
▁అంశం	-10.5122
▁అక్షరాల	-10.5122
▁bac	-10.5126
▁abba	-10.5127
▁human	-10.5127
యైన	-10.5129
వాణి	-10.513
బడ్డారు	-10.5134
▁పనిచేసే	-10.5135
▁కారణమ	-10.5139
▁since	-10.5142
▁కత్తి	-10.5142
▁దాట	-10.5143
ుతుంటే	-10.5145
▁హిట్	-10.5145
▁యోహాను	-10.5149
▁prime	-10.5153
▁మంగ	-10.5156
▁తేదీన	-10.5158
▁యువత	-10.5159
resh	-10.5159
▁తరచూ	-10.5163
▁quo	-10.5167
▁ఉంద	-10.517
▁ట్రై	-10.517
▁కనిపెట్ట	-10.5172
raja	-10.5174
▁తేజ	-10.5174
▁shreyas	-10.5174
▁నిర్వహ	-10.5176
▁ఎన్నికల	-10.5177
▁పడు	-10.5179
▁రూపాయల	-10.5182
▁ముఖం	-10.5183
▁anything	-10.5184
▁ఆయు	-10.5185
▁ఎందుక	-10.5193
రాష్ట్ర	-10.5197
కైన	-10.52
▁paper	-10.5202
▁చేసు	-10.5203
▁చేస్తాడు	-10.5206
ఒ	-10.5207
▁ఆకర్షణ	-10.5212
▁చారిత్రక	-10.5214
▁కార్యదర్శి	-10.5214
▁ref	-10.5216
▁swi	-10.5218
▁rich	-10.5224
▁experience	-10.5224
▁మనము	-10.5227
alaha	-10.5228
▁రూపాయలు	-10.5228
esha	-10.5229
▁తాళ	-10.523
▁వేగంగా	-10.5231
▁వశీకరణ	-10.5234
▁తరువాతి	-10.5235
రమ్మ	-10.5238
కార్య	-10.5239
▁వెండి	-10.524
▁పారిశ్రామిక	-10.5243
▁గ్రహించ	-10.5245
pudu	-10.5251
▁hassine	-10.5254
they	-10.5254
▁సీతా	-10.5255
can	-10.5268
ller	-10.5274
▁పేపర్	-10.5275
దాకా	-10.5275
loo	-10.5276
▁దుర్గ	-10.528
stagram	-10.5283
విద్య	-10.5287
▁గది	-10.5288
▁collection	-10.5288
▁వేగం	-10.5292
్యము	-10.5294
▁ఆశ్చర్య	-10.5295
▁ప్రశంస	-10.5295
బాబు	-10.5295
▁కళాకారుల	-10.5296
pala	-10.5302
త్తా	-10.5303
▁నైపుణ్య	-10.5305
ిరెడ్డి	-10.5306
ేటప్పుడు	-10.5306
▁ఇంకొక	-10.5306
▁ట్రాఫిక్	-10.531
▁ప్రశాంతంగా	-10.5314
▁బలి	-10.5316
▁దాకా	-10.5317
beat	-10.5319
▁బదులుగా	-10.5319
ధులు	-10.532
భ్ర	-10.5321
▁ఓడించ	-10.5323
▁భర్తీ	-10.5324
▁ఎవరికీ	-10.5328
▁paul	-10.5329
▁వదిలేసి	-10.5332
▁may	-10.5335
▁papa	-10.5339
▁బాల్యం	-10.5339
▁qa	-10.5341
▁bhar	-10.5345
▁స్థలం	-10.5347
▁ఒక్కరు	-10.5348
▁చెల్లి	-10.5348
▁అవకాశాలు	-10.5351
▁ఉన్నప్పటికీ	-10.5355
▁sept	-10.5357
fl	-10.5358
▁మనస్ఫూర్తిగా	-10.536
▁వృత్త	-10.5361
▁కలలు	-10.5363
▁మూడో	-10.5364
▁jobs	-10.5365
▁inka	-10.5366
▁kalla	-10.5368
దాయ	-10.5369
▁speed	-10.5369
బోయే	-10.5371
▁check	-10.5373
▁చెపు	-10.5374
kunta	-10.5375
▁బహిరంగ	-10.5376
kiran	-10.5381
జింగ్	-10.5382
భూ	-10.5383
ppi	-10.5385
▁కూర	-10.5385
▁విస్తరించ	-10.5391
▁lik	-10.5391
▁euayanews	-10.5396
▁బోర్డు	-10.5396
▁ప్రసాద్	-10.5397
పరిషత్	-10.5398
▁చేయగల	-10.5399
ారంలో	-10.5401
▁విజయవంతం	-10.5402
పించే	-10.5404
▁ఉంటాను	-10.5406
▁view	-10.5406
indi	-10.5408
ాభి	-10.5411
▁city	-10.5412
▁drink	-10.5417
▁తాము	-10.5418
భరణ	-10.542
▁hele	-10.5422
▁పరుగులు	-10.5423
▁ఆవు	-10.5427
▁చిత్రాలు	-10.5427
▁దోమ	-10.5428
▁త్రిపుర	-10.5429
▁వుండే	-10.5431
▁through	-10.5432
▁నాకే	-10.5435
▁లక్ష్మి	-10.5436
▁డ్రా	-10.5438
▁kurti	-10.5439
▁mamatha	-10.5443
ుకుందాం	-10.5449
▁విధానాల	-10.5449
▁పనికి	-10.545
▁mega	-10.5451
▁block	-10.5451
▁గ్రంథము	-10.5452
▁accept	-10.5457
▁రాఘవ	-10.5459
▁mouni	-10.5459
▁while	-10.5459
పోతే	-10.5461
▁శ్లో	-10.5462
బాటు	-10.5464
▁bol	-10.5464
▁ఏలూరు	-10.5467
▁శుక్ర	-10.5468
▁కొవ్వు	-10.5469
▁baba	-10.547
▁అధికారి	-10.5474
abba	-10.5476
▁sne	-10.5476
▁పిలవ	-10.5478
▁tears	-10.5482
▁ఉపరితల	-10.5483
▁custom	-10.5483
▁ప్రాంతాన్ని	-10.5484
▁ఆక్రమించ	-10.5487
▁sports	-10.5488
kshmi	-10.5488
క్షేప	-10.5491
పత్రిక	-10.5492
▁price	-10.5494
▁రాకుండా	-10.5494
▁పెన్	-10.5495
▁మంచ	-10.5497
▁garu	-10.5499
▁ట్రి	-10.5502
▁tat	-10.5504
▁ఆమ్ల	-10.551
ొద్ద	-10.5511
▁పుత్ర	-10.5513
▁kom	-10.5515
▁yoo	-10.5515
▁తలుపు	-10.5515
▁రచనలు	-10.5517
▁secret	-10.5519
▁sravan	-10.5523
ెల్ల	-10.5523
▁navin	-10.5529
▁మహిమ	-10.5531
విధంగా	-10.5531
oni	-10.5532
▁పోల్చ	-10.5532
▁దూరమై	-10.554
▁waste	-10.5543
గలిగే	-10.5543
▁విగ్రహం	-10.5544
▁మొదలగు	-10.5545
▁పరిశీలించ	-10.5545
▁small	-10.5547
ుతూనే	-10.5547
▁సీరియల్	-10.5547
▁స్నేహితులు	-10.5548
▁రజ	-10.5551
▁pov	-10.5553
చర్ల	-10.5558
▁expect	-10.5561
▁eng	-10.5563
▁direct	-10.5564
▁దర్శకత్వంలో	-10.5567
ging	-10.5569
▁roo	-10.5569
దాసు	-10.5574
▁fire	-10.5575
▁వినాయకచవితి	-10.5576
▁శ్రీమతి	-10.5576
▁ఆకాశం	-10.5579
vv	-10.5584
▁గాయం	-10.5584
▁ori	-10.5584
▁says	-10.5586
▁అంజ	-10.5591
▁mama	-10.5592
▁anji	-10.5594
▁match	-10.5596
▁క్వా	-10.5597
▁case	-10.5599
▁నటించారు	-10.56
▁చర్మ	-10.56
లైట్	-10.5602
▁బృంద	-10.5602
▁జీతం	-10.5603
▁చేసుకోవడం	-10.5603
▁teri	-10.5611
▁నిరూపించ	-10.5612
▁గట్టిగా	-10.5612
▁సీతారామ	-10.5619
▁wall	-10.562
▁photos	-10.5624
▁నర్స	-10.5626
aniki	-10.5627
▁ఐలవ్	-10.5629
▁మెడ	-10.5629
▁speak	-10.5631
▁views	-10.5631
▁వరుసగా	-10.564
▁సమాధాన	-10.564
▁mbil	-10.5649
uvu	-10.5652
▁సత్యం	-10.5654
▁సంబంధాలు	-10.5658
▁ఒక్కొక్క	-10.5661
inche	-10.5664
▁step	-10.5668
▁ఈశ్వర	-10.5675
▁ప్రాంతీయ	-10.5676
▁student	-10.5681
▁ఉంటూ	-10.5683
pic	-10.5683
▁ప్రస	-10.5687
▁peru	-10.5687
▁గూడ	-10.5688
master	-10.5688
▁పోలీసు	-10.569
▁విభాగం	-10.5691
▁క్యాన్సర్	-10.5691
ధర	-10.5695
▁నగరాల	-10.5695
▁sidhu	-10.5697
▁పూజలు	-10.5699
▁photogrid	-10.5701
▁ఉద్యోగుల	-10.5702
▁stories	-10.5703
▁అందుకున్న	-10.5706
తుండ	-10.5706
▁సర్పంచిగా	-10.5706
వరకూ	-10.5713
▁ఎడి	-10.5715
▁నిలిచింది	-10.5717
▁గ్రీకు	-10.5718
▁antha	-10.5718
యేషన్	-10.572
▁pil	-10.5722
▁award	-10.5724
▁స్టేట్	-10.5724
▁అనుకూల	-10.5725
▁ownload	-10.5728
▁ఫుట్	-10.5733
వారే	-10.5741
ప్రద	-10.5744
ృష్ట	-10.5746
▁కఠిన	-10.5747
▁chuda	-10.5751
▁బాద	-10.5754
▁హాస్పిటల్	-10.5754
▁విశ్వాసం	-10.5755
లపాడు	-10.5758
▁ఎవరితో	-10.5763
▁కొమ్మ	-10.5764
▁return	-10.5765
▁ఎఫ్	-10.5768
▁వయసులో	-10.5768
▁నిమిషాల	-10.5769
▁latest	-10.577
▁లోకంలో	-10.5772
gram	-10.5773
▁కమ్యూని	-10.5774
▁మనమే	-10.5777
▁నువ్	-10.5781
ప్రాథమిక	-10.5782
▁మేఘ	-10.5785
ిస్తున్నాయి	-10.5786
▁పీఠ	-10.5786
▁నాయుడు	-10.5791
▁yen	-10.5796
▁వర్ణించ	-10.5797
▁nation	-10.58
▁బెర్	-10.5804
▁ఇచ్చా	-10.5806
▁hold	-10.5807
▁రిపబ్లిక్	-10.5807
▁followers	-10.5807
▁వ్యక్తులు	-10.581
sure	-10.5813
▁భోజన	-10.5815
▁positive	-10.5817
▁prana	-10.5819
tube	-10.582
▁దగ్గరకు	-10.5823
▁reaction	-10.5823
▁busy	-10.5824
▁విత్తన	-10.5826
▁కళ్యాణ	-10.5826
▁వీధి	-10.5827
▁ఫలితం	-10.5828
▁నివసిస్తున్న	-10.583
▁అశ్వ	-10.5832
▁sure	-10.5832
▁హాల్	-10.5835
▁sea	-10.5837
▁నేస్తం	-10.5839
ugh	-10.584
కారులు	-10.584
▁ప్రారంభంలో	-10.5842
బడుతున్న	-10.5846
▁మూస	-10.5852
vvu	-10.5856
▁స్వరూప	-10.5858
ప్రతి	-10.5858
▁అధ్యయన	-10.5859
▁గౌరవం	-10.5863
▁selfie	-10.5865
▁ఒప్పంద	-10.5865
వర్ణ	-10.5865
ukunna	-10.5866
▁value	-10.5869
ించుట	-10.5872
▁సమయానికి	-10.5874
▁lost	-10.5875
▁మొక్కల	-10.5876
▁ninne	-10.5877
▁mach	-10.5878
▁partner	-10.5879
kula	-10.5881
ిస్తోంది	-10.5883
చేసే	-10.5886
▁లక్	-10.5886
▁bass	-10.5887
uthun	-10.589
▁అవమాన	-10.5891
▁టెలివిజన్	-10.5892
▁తాలూకా	-10.5897
▁gad	-10.5899
▁పూర్వం	-10.5905
ఉన్న	-10.5906
▁ninu	-10.5907
డుతున్న	-10.5907
▁వజ్ర	-10.5908
▁కుర్	-10.5914
▁chiru	-10.5923
▁తనను	-10.5931
▁బ్ల	-10.5931
▁ఇటు	-10.5931
▁తేనె	-10.5936
▁బుజ్జి	-10.5936
▁గనుక	-10.5938
▁వెళ్ళే	-10.5946
▁vidstatu	-10.5947
▁mate	-10.5951
▁సమాజంలో	-10.5951
doo	-10.5957
▁syed	-10.5962
▁పూర్త	-10.5965
▁thala	-10.5965
▁ముగిసి	-10.5966
బై	-10.5967
థో	-10.5969
▁pho	-10.5971
▁యూరోపియన్	-10.5973
▁శుద్ధి	-10.5979
▁cood	-10.5981
▁కోడి	-10.5983
▁త్యాగ	-10.5983
▁mistake	-10.5984
india	-10.5987
▁అడ్డు	-10.5988
పోతు	-10.599
▁గంటలకు	-10.5991
▁తూర్పున	-10.5991
▁కొద్దిగా	-10.5994
▁మెదక్	-10.5995
▁భగవంతుడ	-10.5996
nath	-10.5997
▁ఫ్రాం	-10.5997
▁వచ్చినప్పుడు	-10.6002
▁బాయ్	-10.6002
▁పరిశోధక	-10.6016
▁cup	-10.6019
▁చెయ్యి	-10.6019
గలవు	-10.602
▁కనుగొన	-10.6021
▁డాలర్ల	-10.6023
▁chitti	-10.6025
ినపుడు	-10.6026
▁స్త్రీలు	-10.6026
▁మాల్	-10.6027
▁స్థానాన్ని	-10.6028
▁పడితే	-10.6029
▁moon	-10.6029
▁సర్వే	-10.603
▁అంశ	-10.6032
out	-10.6034
▁మేరకు	-10.6039
▁కారక	-10.6039
▁రుద్ర	-10.6043
▁కాలనీ	-10.6045
▁షిప్	-10.6047
▁అద్దం	-10.6049
▁చూస్తున్నా	-10.605
▁necv	-10.6051
▁సెంట్రల్	-10.6059
జేయ	-10.6063
▁వచ్చినా	-10.6067
ాంపియన్	-10.607
▁వీరికి	-10.6071
▁charge	-10.6072
▁దోష	-10.6074
నిధి	-10.6075
▁పాల్గొన్న	-10.6077
▁రెండింటి	-10.6081
▁క్షీణ	-10.6081
▁కార్యాలయ	-10.6084
▁నీది	-10.609
▁champ	-10.6091
▁గౌరవించ	-10.6093
▁సంబ	-10.6096
▁పక్షి	-10.61
▁ముడి	-10.6101
▁మోహన్	-10.6103
▁అలానే	-10.6104
aiah	-10.6106
▁ఫ్రె	-10.6106
▁విశాల	-10.6108
▁జర్మన్	-10.6109
▁అందిస్తుంది	-10.6113
▁ప్రత్యేకమైన	-10.6116
కోణ	-10.6116
▁ఇంకె	-10.6119
▁mehakmahendru	-10.612
నూర్	-10.6122
▁bharath	-10.6124
▁రోమన్	-10.6125
▁టెస్ట్	-10.6126
▁పదవీ	-10.6129
▁పార్క్	-10.613
▁virat	-10.6132
▁యాక్	-10.6134
వాడే	-10.6137
▁roju	-10.6142
మంచి	-10.6142
▁పెట్టారు	-10.6145
▁nagar	-10.6146
ప్పటికి	-10.6149
ాల్ని	-10.6153
▁సమర్థ	-10.6156
▁వాటికి	-10.6161
▁పాయింట్	-10.6164
▁యేసయ్యా	-10.6166
▁modi	-10.6172
▁ఉండండి	-10.6177
upu	-10.6177
కుటుంబ	-10.6185
mmy	-10.6186
▁via	-10.6194
tory	-10.6198
▁ధన్య	-10.6199
▁ఒక్కటి	-10.62
▁సమ్మ	-10.6201
▁hyd	-10.6205
▁pow	-10.6205
▁వెళ్లిపో	-10.6207
▁behind	-10.6208
▁సేవల	-10.621
▁vadi	-10.6216
▁business	-10.6219
▁suno	-10.622
▁దేవతల	-10.6223
▁లేకుంటే	-10.6224
మహా	-10.6224
▁until	-10.6234
cinema	-10.6236
▁పెడతా	-10.6238
▁తడి	-10.6238
▁పోతు	-10.624
▁ఆమ్లం	-10.624
ించాలని	-10.6243
▁శ్రీరాములు	-10.6249
▁బతుకు	-10.6251
▁వంతెన	-10.6263
▁following	-10.6274
▁అనుభవం	-10.6278
▁bill	-10.6279
▁emai	-10.628
▁సరిహద్దులో	-10.6281
▁maj	-10.6281
▁ట్యా	-10.6282
▁వివరాల	-10.6284
ప్రపంచవ్యాప్తంగా	-10.6285
▁కష్టపడ	-10.6285
తుంటాయి	-10.6286
▁child	-10.6288
▁ఆధారిత	-10.6288
▁pavan	-10.6289
చర్య	-10.6291
▁ఆందోళన	-10.6291
ుచున్నది	-10.6292
వర్గ	-10.6294
▁రాజమండ్రి	-10.6296
▁దాంతో	-10.6297
▁వుండును	-10.6298
▁సాధించాడు	-10.6303
▁ఏమైనా	-10.6303
▁అధికారుల	-10.6305
▁luck	-10.6307
▁gro	-10.6312
ీశ్వర	-10.6317
▁కూతుర	-10.6319
మైతే	-10.632
▁left	-10.6324
మూరు	-10.6325
▁spi	-10.6326
▁అభ్యర్థుల	-10.633
▁jaya	-10.6334
▁brain	-10.6336
▁rain	-10.6342
▁mak	-10.6343
▁ఇంగ్లీషు	-10.6347
▁మార్చే	-10.6349
▁addict	-10.6349
▁పొంది	-10.6351
nayak	-10.6352
ware	-10.6354
▁ఆయా	-10.6355
▁తీవ్రమైన	-10.6358
▁తెలివి	-10.6363
▁glo	-10.6369
▁స్నానం	-10.6369
▁తప్పక	-10.6371
▁fear	-10.6377
▁అనువాద	-10.6377
▁పదార్థ	-10.6377
▁ganesha	-10.6378
బ్రహ్మ	-10.638
▁creditors	-10.638
కూర	-10.6381
▁గూడూరు	-10.6384
మిత్ర	-10.6388
▁sex	-10.6393
▁సరస్సు	-10.6397
▁talent	-10.6402
▁ఇస్రో	-10.6403
▁edu	-10.6407
▁pray	-10.6408
▁connect	-10.6408
▁scene	-10.6409
▁syeraa	-10.6415
▁బిలియన్	-10.6417
▁visit	-10.6421
క్షేత్ర	-10.6423
▁ఉపయోగపడ	-10.6423
▁does	-10.6423
▁హృదయంలో	-10.6423
bri	-10.6424
▁కార్యక్రమంలో	-10.6428
పేట్	-10.6432
▁చెప్పడం	-10.6439
▁final	-10.6439
▁బుద్ధ	-10.644
తాయని	-10.644
▁దళాల	-10.6447
▁prani	-10.6447
▁blessed	-10.6448
టెడ్	-10.6448
▁ప్రత్యేకత	-10.645
▁ఉండరు	-10.6453
▁నంబర్	-10.6454
▁తొక్క	-10.6455
కాశ	-10.6456
▁అందజే	-10.6459
▁పడుతున్న	-10.6459
▁trending	-10.6463
▁double	-10.6465
▁సంపాదక	-10.6466
▁రేటు	-10.6468
nload	-10.6468
▁వ్యవహర	-10.6471
▁చూపించే	-10.6476
▁means	-10.6476
▁విరిగి	-10.6479
ించుకున్న	-10.648
▁emi	-10.6482
▁నమ్మి	-10.6484
ography	-10.6489
▁భాగాలు	-10.6489
▁గారికి	-10.6494
▁ఫ్యాషన్	-10.6495
▁powerstar	-10.6496
▁vely	-10.6497
▁పార్వతీ	-10.6497
▁లోతు	-10.6498
ాపకం	-10.6499
▁ఫస్ట్	-10.6499
fc	-10.65
puram	-10.6501
▁swag	-10.6503
▁ఏళ్ళ	-10.6503
▁count	-10.6504
▁ప్రాంతానికి	-10.6504
▁sw	-10.6505
▁కొంతకాలం	-10.6505
anand	-10.6512
▁నింద	-10.6516
▁చెబుతున్న	-10.6519
▁నాయకులు	-10.6522
▁చావ	-10.6525
▁మధు	-10.6527
ాల్సింది	-10.6528
▁ప్రేక్షకుల	-10.6528
▁బండ	-10.6528
▁ఉంటుందని	-10.6535
▁teach	-10.6538
డైన	-10.6538
▁పాల్గొన్నారు	-10.654
world	-10.654
▁manubgms	-10.6545
▁విశిష్ట	-10.6545
▁ఉనికి	-10.6547
▁దేవుడ	-10.655
▁votes	-10.655
riya	-10.6555
▁fli	-10.6555
▁సూచన	-10.656
▁పంజాబ్	-10.6562
▁bhu	-10.6563
▁సమావేశం	-10.6565
▁తగిలి	-10.6566
▁బాధ్యతలు	-10.6566
hur	-10.6566
▁ఫైనల్	-10.657
▁దీపం	-10.6574
▁idream	-10.6574
▁వదులు	-10.6575
▁చేయవచ్చు	-10.6576
▁సరిగా	-10.6581
ాభివృద్ధి	-10.6585
▁అంతరిక్ష	-10.6585
▁భూభాగ	-10.6585
▁చందమామ	-10.6585
▁sent	-10.6589
స్థితి	-10.6589
▁కన్నీళ్ళ	-10.6595
▁నిర్మల్	-10.6601
▁sens	-10.6603
bre	-10.6607
▁info	-10.6608
▁cricket	-10.6614
ానాన్ని	-10.662
inchi	-10.6625
▁అడిగితే	-10.6625
▁wrong	-10.6625
▁దాడుల	-10.6629
జాతి	-10.663
▁గుర్తుకు	-10.6635
▁pictures	-10.6638
▁అడిగాడు	-10.6642
▁పిల్లలకు	-10.6645
▁funny	-10.6648
▁పాడేరులోనూ	-10.6648
▁pin	-10.6653
▁ప్రతిభ	-10.6655
▁ప్రతిపాదించ	-10.6656
▁volda	-10.6658
▁దర్శించ	-10.666
▁విధించ	-10.6661
▁సమ్మె	-10.6663
▁dial	-10.6664
▁mahatma	-10.6666
▁wear	-10.6667
▁ఏమిటి	-10.667
▁premi	-10.6675
▁skin	-10.6678
▁బాధపెట్ట	-10.6679
▁నిజాయితీగా	-10.6679
గలిగి	-10.6683
▁lava	-10.6686
▁సమ్మేళన	-10.6695
▁అనుకుంటున్నా	-10.6695
▁ఐతే	-10.6695
ities	-10.6697
▁అక్కడే	-10.6698
క్రియ	-10.6698
▁కలిసే	-10.6699
▁blockbuster	-10.67
▁పరిగణ	-10.6701
▁వెస్ట్	-10.6701
▁రోజంతా	-10.6702
▁మాతృ	-10.6703
▁ఇంటర్నేషనల్	-10.6706
స్తుంటే	-10.6707
▁prabha	-10.6707
చెర్ల	-10.6711
▁అదనపు	-10.6718
▁ఎనిమిది	-10.6724
▁దశలో	-10.6726
▁nur	-10.6726
బెట్ట	-10.673
కొద్దీ	-10.6732
▁దృష్టిలో	-10.6733
▁వడ	-10.6734
▁శ్రీలంక	-10.6736
▁ball	-10.6737
songs	-10.6739
▁కలుగుతుంది	-10.6741
▁అంతర్గత	-10.6742
▁ప్రసంగ	-10.6745
▁క్లో	-10.6752
▁roy	-10.6753
▁nuvu	-10.6756
▁లక్షణాల	-10.6762
▁drive	-10.6767
▁fresh	-10.6767
▁ఎత్త	-10.6768
▁ప్రోత్సహించ	-10.677
▁కెమెరాతో	-10.6773
జన్మ	-10.6774
▁mac	-10.6776
మధ్య	-10.6776
▁టీవీ	-10.6777
▁flower	-10.6777
▁వెళ్ళిపో	-10.6777
▁pari	-10.6784
▁div	-10.6787
▁తెలుసుకున్న	-10.6789
▁downlohe	-10.679
▁level	-10.6791
▁navya	-10.6792
▁లోక్	-10.6793
బాయి	-10.6799
▁తినండి	-10.68
▁సెట్	-10.68
▁సేవించ	-10.6803
▁తై	-10.6803
▁ఆధ్యాత్మిక	-10.6805
▁పెరిగింది	-10.6807
▁wil	-10.6809
▁dig	-10.6814
▁గ్రంథం	-10.6816
చంద్ర	-10.6818
సింహ	-10.6819
▁tim	-10.6826
▁ఉత్తరాన	-10.6827
▁డిజైన్	-10.6829
రహిత	-10.6833
లాగే	-10.6835
▁statu	-10.6836
▁దిక్కు	-10.6837
▁పుస్తకాలు	-10.6842
▁డ్రైవర్	-10.6842
▁కాలము	-10.6843
▁bhag	-10.6846
▁సోవియట్	-10.6847
▁sla	-10.6851
▁వినియోగించ	-10.6857
▁సందర్భంలో	-10.6858
▁కోర్	-10.686
▁మాట్లాడుతూ	-10.6864
▁ప్రాముఖ్యత	-10.6864
▁మోదీ	-10.6869
పడ్డా	-10.6871
▁సత్యనారాయణ	-10.6871
▁ప్ల	-10.6871
▁రాష్ట్రపతి	-10.6873
▁తోడై	-10.6873
ెక్కడ	-10.6873
▁అమర్చ	-10.6874
టార్	-10.6876
▁నదీ	-10.6877
▁నిమిషాలు	-10.6881
▁తొమ్మిది	-10.6882
▁ఆచార	-10.6882
ification	-10.6884
▁జాగ్రత్తగా	-10.6886
▁తెలుగుదేశం	-10.6893
▁జన్యు	-10.6893
▁ఓపెన్	-10.6894
▁బెంగాల్	-10.6894
▁దీవి	-10.6897
▁పరిశుద్ధ	-10.69
▁జరిగాయి	-10.6906
▁రామాయణ	-10.6906
▁తోడ	-10.6911
▁ఫిలిప్	-10.6912
ుడై	-10.6923
▁ఫ్రాన్స్	-10.6923
▁mashup	-10.6929
▁ఆర్టీసీ	-10.6929
▁ముగ్గు	-10.6933
▁నాటకం	-10.6934
▁leni	-10.6937
▁స్వల్ప	-10.6942
kanna	-10.6944
▁అస్సలు	-10.6947
▁ఆస్ట్	-10.6948
▁shy	-10.6951
kul	-10.6952
▁జీవితానికి	-10.6952
▁education	-10.6953
▁ఓపిక	-10.6954
ుకుంటాడు	-10.6956
▁htt	-10.6957
ణ్ణ	-10.6961
▁apple	-10.6964
▁వైవిధ్య	-10.6965
▁tera	-10.6966
▁అందించే	-10.6975
▁నిర్దిష్ట	-10.6977
▁strength	-10.6983
▁could	-10.6985
▁స్వామివారి	-10.6986
▁జన్మించిన	-10.6987
▁oto	-10.6989
▁airtel	-10.699
▁ఉత్సవాలు	-10.7002
▁గ్రీన్	-10.7006
▁పోగొట్ట	-10.7015
▁న్యూయార్క్	-10.7019
▁హిందువుల	-10.7019
chand	-10.7019
▁shemaroo	-10.7025
▁ఫ్లోర	-10.7028
▁సూచిస్తుంది	-10.7029
▁మొదలుపెట్ట	-10.703
▁ఫేస్	-10.7033
▁mur	-10.7034
▁వైద్యులు	-10.7035
▁achanta	-10.7037
▁ఎకరాల	-10.7038
▁ప్రకాశ	-10.704
▁twi	-10.704
durga	-10.7041
పుత్ర	-10.7042
▁రావణ	-10.7044
▁బ్యాండ్	-10.7048
▁తద్వారా	-10.7048
▁శ్రీనివాస్	-10.7051
▁unit	-10.7052
▁సామర్థ్యం	-10.7053
▁శ్రేణి	-10.7055
ాంశం	-10.7056
▁వివరణ	-10.7056
▁ఆత్మీయ	-10.7057
గడ్డ	-10.7058
▁ప్రేమిస్తున్నా	-10.7059
▁gallery	-10.7061
▁singer	-10.7062
▁lose	-10.7063
▁పరిస్థితులు	-10.7064
▁గోవింద	-10.7065
▁సచివాలయ	-10.7067
▁soft	-10.7071
▁నిరా	-10.7072
▁కేసీఆర్	-10.7073
▁replace	-10.7073
▁భారం	-10.7073
▁కుటుంబంలో	-10.7073
▁దంత	-10.7077
▁లవర్	-10.7078
▁ఆదర్శ	-10.7083
▁cheli	-10.7085
▁దేవుడా	-10.7093
▁గ్రీ	-10.7093
▁turn	-10.7094
▁తెలియకుండా	-10.7095
ology	-10.7097
▁పర్యటన	-10.7097
▁సిరీస్	-10.7097
▁tfc	-10.7098
▁చేయటం	-10.7099
▁తప్పదు	-10.71
▁qui	-10.7101
▁సంవత్సరానికి	-10.7105
▁కార్మిక	-10.7107
నెల్	-10.7107
▁జానపద	-10.7109
▁వెలుపల	-10.7109
▁స్థానాల	-10.7114
▁అక్షరాస్యత	-10.7115
▁ప్రియమైన	-10.7116
▁ramya	-10.7119
▁సంస్థాన	-10.7121
▁వాడుకలో	-10.7124
▁పెరుగుదల	-10.7124
పెడుతుంది	-10.7126
▁అనుసరించ	-10.7127
▁cream	-10.7128
▁అవుతారు	-10.713
▁సూర్యుడు	-10.7132
▁cost	-10.7132
▁సమాధి	-10.7133
చెప్ప	-10.7137
ుచున్నాను	-10.7139
▁ప్లాస్టిక్	-10.7139
ట్లయితే	-10.7139
▁shall	-10.714
▁శిలా	-10.7145
▁గుజరాత్	-10.7152
dul	-10.7153
▁working	-10.7154
▁distance	-10.7158
భూమి	-10.7161
▁చెట్ల	-10.7164
▁రకమైన	-10.7165
▁సౌకర్య	-10.7167
▁నోట్	-10.7168
▁ఖు	-10.7173
▁అడుగ	-10.7173
▁కాలేదు	-10.7177
▁ధ్యాన	-10.7177
▁smiley	-10.7186
▁పెళ్ళ	-10.7186
▁qualification	-10.7188
▁taa	-10.719
▁పిండి	-10.7192
▁అవగాహన	-10.7194
▁సంస్కరణ	-10.7194
పొంద	-10.7197
▁universal	-10.72
▁పద్ధతిలో	-10.7202
▁daddy	-10.7202
▁బంతి	-10.7203
ప్రాణ	-10.7204
▁musicbaar	-10.7206
శుభ	-10.7207
▁whi	-10.7207
▁ఏనుగు	-10.7213
▁vide	-10.7215
shiva	-10.7216
▁చైతన్య	-10.7219
మోహన	-10.7221
చోట	-10.7222
▁sav	-10.7223
▁bring	-10.7224
ariki	-10.7225
▁picture	-10.7232
▁లోపలి	-10.7232
▁వాదన	-10.7236
sagar	-10.7237
devi	-10.724
▁క్రమంగా	-10.7242
▁తిరిగ	-10.7244
▁wy	-10.7246
▁చేసుకున్నారు	-10.7249
▁ప్రభావితం	-10.7249
▁స్నేహితుడు	-10.7251
▁సంభవ	-10.7252
▁కష్టపడి	-10.7253
kosam	-10.7254
లేనంత	-10.7256
▁రామచంద్ర	-10.7258
▁చీమ	-10.7259
▁మృతి	-10.7259
ెన్నో	-10.7263
▁వ్యర్థ	-10.7264
పూర్వక	-10.7266
▁dialogue	-10.7268
▁వాల్మీకి	-10.7268
▁గొంతు	-10.7268
▁అనుమతించ	-10.7268
బెర్	-10.7273
ktok	-10.7276
▁పడుకోండి	-10.7278
స్థాప	-10.7278
ానికీ	-10.7278
▁lead	-10.728
▁galaxy	-10.728
indhi	-10.7285
▁wishes	-10.7285
స్ఫూర్తి	-10.7286
▁తీసుకునే	-10.7287
▁కథల	-10.7288
▁తీసుకురా	-10.729
▁వినోద	-10.7291
▁అనారోగ్య	-10.7292
మింగ్	-10.7293
▁నుండ	-10.7293
▁ఆఖరి	-10.7293
▁చెప్పాలి	-10.7294
▁అటువంటి	-10.7295
▁ప్రచురణ	-10.7298
▁విభిన్న	-10.7298
▁ఆహ్వాన	-10.7299
ునట్లు	-10.7304
▁jana	-10.7304
▁యూనివర్సిటీ	-10.7305
▁తియ్య	-10.7305
▁చెన్న	-10.7306
▁అబ్బా	-10.7307
▁చూస్తున్న	-10.7309
ఈ	-10.7314
▁నైవేద్య	-10.7317
▁pakka	-10.7322
▁కప్పు	-10.7323
▁qo	-10.7324
▁stri	-10.7324
▁ఇచ్చాడు	-10.7328
▁పడుకునే	-10.7329
▁called	-10.7329
▁విషెస్	-10.7329
▁ఎక్కు	-10.7332
స్తుంటారు	-10.734
▁used	-10.7342
▁దిగి	-10.7344
▁దుకాణం	-10.7344
▁earn	-10.7348
చేసింది	-10.7356
▁గొడవలు	-10.7359
creation	-10.7361
▁lte	-10.7366
▁స్వాధీనం	-10.7366
హ్య	-10.7369
▁lahari	-10.7369
▁తాగు	-10.7371
▁విభాగంలో	-10.7372
▁credit	-10.7375
▁ammai	-10.7381
▁వరుకు	-10.7381
▁చిట్టి	-10.7383
▁మరిన్ని	-10.7383
▁పాలనలో	-10.7384
▁స్వయంగా	-10.7388
▁నరసింహా	-10.7389
▁బయలుదేర	-10.7391
▁grow	-10.7392
▁భాను	-10.7394
▁తాత్కాలిక	-10.7398
▁వెయ్యి	-10.7398
▁స్తోత్ర	-10.7404
▁వాటా	-10.7405
▁jayanthi	-10.7416
▁murthy	-10.7417
▁ఐశ్వర్య	-10.7418
పేట్లో	-10.7426
▁దంపతులకు	-10.7427
▁stra	-10.7428
▁కృ	-10.7428
▁ఫిలిం	-10.7428
▁vijay	-10.7428
▁hun	-10.7429
▁పుట్టుక	-10.7438
▁సాఫ్ట్	-10.7441
తిన్నావా	-10.7441
vish	-10.7447
▁కాపాడు	-10.7448
▁సందర్శించ	-10.7449
కేంద్ర	-10.745
▁హోటల్	-10.7451
▁యుండ	-10.7451
▁ఎదుటివారి	-10.7456
▁marriage	-10.746
▁మాటల్లో	-10.7461
▁west	-10.7461
▁విధమైన	-10.7464
▁సరిగ్గా	-10.7466
▁neeve	-10.7469
▁bandi	-10.747
▁sca	-10.7471
▁కాశ్మీర	-10.7472
▁టౌన్	-10.7473
▁mining	-10.7477
పట్ల	-10.7478
వ్యవస్థ	-10.7479
శ్వాస	-10.7483
▁వేణుమాధవ్	-10.7491
▁ధ్రువ	-10.7491
▁వేచి	-10.7492
▁pha	-10.7492
▁correct	-10.7493
▁చేరిన	-10.7497
▁coffee	-10.7498
▁స్పె	-10.7498
▁తదియ	-10.7499
▁psalm	-10.751
▁combo	-10.751
▁డేటా	-10.7511
▁సరస	-10.7514
▁వైఎస్ఆర్	-10.7516
▁ఆనందాన్ని	-10.7518
చేశారు	-10.7518
▁bike	-10.7519
▁swathi	-10.7519
▁ఒకరోజు	-10.752
▁బ్లా	-10.752
ుకుంటాయి	-10.752
▁చెయ్యండి	-10.752
▁ఇబ్బందుల	-10.7529
▁ఇస్లాం	-10.7529
▁alive	-10.753
▁చంద్రబాబు	-10.7531
▁ఆచార్య	-10.7531
ినప్పటికీ	-10.7532
▁dark	-10.7536
▁గుహ	-10.7541
▁ఎన్టీఆర్	-10.7542
▁megastar	-10.7543
▁abhi	-10.7544
▁మాధవ్	-10.7546
▁permanent	-10.7548
▁చర్మం	-10.7549
▁నక్షత్రం	-10.7553
▁రూపకల్పన	-10.7561
▁లలితా	-10.7566
singh	-10.757
▁తిరగ	-10.7574
▁మీరే	-10.7579
▁details	-10.758
▁ఆకుల	-10.7586
టెల్	-10.7591
కాంక్ష	-10.7593
▁తెలుపు	-10.7599
▁బదిలీ	-10.7599
▁ఆశ్రయ	-10.7599
▁వండ	-10.7599
▁నిరోధ	-10.76
▁నిలబెట్ట	-10.7603
▁బేబీ	-10.7608
▁శుభోదయ	-10.7612
▁మాట్లాడాలి	-10.7612
vent	-10.7613
▁అన్నింటి	-10.7629
▁character	-10.7631
▁fill	-10.7632
▁ప్రచార	-10.7635
▁రామారావు	-10.7635
▁pandu	-10.7638
▁అనుబంధం	-10.7643
▁అకాడమీ	-10.7643
▁తరలించ	-10.7647
▁ఇటలీ	-10.765
▁తరలి	-10.765
▁whe	-10.7655
▁చుట్టుపక్కల	-10.7656
▁ఇంగ్లాండ్	-10.7656
▁అదనంగా	-10.7656
కల్ప	-10.7659
▁temp	-10.7659
▁పంపుతున్న	-10.7659
▁పరిమాణ	-10.7664
▁నిర్లక్ష్యం	-10.7669
▁లోయ	-10.7669
▁నేర్చుకున్న	-10.7671
▁nature	-10.7672
▁హైడ్రో	-10.7675
▁ఆకులు	-10.7677
▁పదాలు	-10.7682
▁టాప్	-10.7689
శ్రమ	-10.7689
▁అందించారు	-10.7693
▁charging	-10.7695
▁between	-10.7701
▁మాదిరిగా	-10.7701
▁బ్రిటన్	-10.7702
ోద్యమ	-10.7707
▁గిరిజన	-10.7707
▁సిగ్గు	-10.7707
▁పోషక	-10.771
▁నిరంతరం	-10.771
▁మార్క్	-10.7713
▁నదుల	-10.7719
ధర్మ	-10.7721
▁వ్యాపించ	-10.7722
▁cover	-10.7727
▁hindi	-10.7738
▁chese	-10.774
▁ఎంతమంది	-10.7741
▁ప్రారంభించింది	-10.7747
▁ప్రకటించారు	-10.775
లియో	-10.7752
▁తప్పనిసరి	-10.7752
▁పరిణ	-10.7752
▁kanu	-10.7754
▁మరణించిన	-10.7761
▁ఆర్య	-10.7772
▁fit	-10.7772
ిద్దాం	-10.7774
▁choice	-10.7776
▁ఖాతా	-10.7778
▁బాణ	-10.7779
▁చతుర్	-10.778
▁girlfriend	-10.778
కరంగా	-10.7781
▁anukun	-10.7785
▁రావాలి	-10.7788
▁కనిపిస్తాయి	-10.7788
▁odo	-10.7788
▁వస్తారు	-10.7793
▁అమరావతి	-10.7798
▁బైబిల్	-10.7798
▁మత్తయి	-10.7798
పడ్డాడు	-10.7806
▁గేమ్	-10.7807
వేళ	-10.7809
▁నటించింది	-10.781
▁hemanth	-10.7811
▁ప్రై	-10.7811
▁link	-10.7812
▁నడుప	-10.7815
▁near	-10.7818
▁వాటర్	-10.7822
▁హ్యాపీగా	-10.7823
▁తరఫున	-10.7824
▁వాట్సాప్	-10.783
▁హార్ట్	-10.7831
▁ప్రాణాలు	-10.7832
▁మాస్టర్	-10.7832
బడుతున్నాయి	-10.7832
▁గింజల	-10.7834
▁మామిడి	-10.7838
థ్య	-10.7841
▁భరత	-10.7842
▁shop	-10.7843
▁కారణాల	-10.7845
▁ఇస్తే	-10.7845
▁కుటుంబసభ్యులకు	-10.7846
▁కేంద్రాల	-10.7846
రెట్	-10.7846
▁tiru	-10.7848
▁another	-10.785
pper	-10.785
▁సేవలను	-10.7851
▁ఉద్యోగాలు	-10.7851
▁మూసి	-10.7854
▁వేర్వేరు	-10.7856
▁interest	-10.7856
▁neetho	-10.7857
▁simple	-10.7857
▁జుట్టు	-10.7858
rock	-10.7858
▁పనిచేస్తుంది	-10.7863
dani	-10.7868
వ్రత	-10.7868
▁షో	-10.787
▁పలకరించ	-10.7873
▁సమయము	-10.7875
▁స్తంభ	-10.7876
▁ఎక్కడో	-10.7881
▁directed	-10.7883
show	-10.7887
▁tiger	-10.7888
▁చక్కెర	-10.7889
▁నివారణ	-10.7889
▁avoid	-10.7889
sthun	-10.7892
▁వినియోగ	-10.7896
స్టన్	-10.7897
▁మారుతుంది	-10.7899
▁లక్ష్మణ	-10.7902
▁rup	-10.7907
▁నవంబర్	-10.7908
▁నడిచే	-10.7914
▁tec	-10.7917
▁తెలిసింది	-10.7918
▁sb	-10.7918
▁ప్రారంభమైంది	-10.7919
▁painful	-10.7922
▁market	-10.7927
ెందుకు	-10.7927
▁అందరికంటే	-10.7928
▁బాగుండ	-10.7929
▁చూశా	-10.7942
wayanews	-10.7942
▁printed	-10.7942
movies	-10.7943
▁angry	-10.7947
▁విలీనం	-10.7948
film	-10.795
▁నియోజకవర్గ	-10.795
▁సమాచారాన్ని	-10.7954
▁వాయిస్	-10.7957
▁పొట్ట	-10.7957
▁ద్వీపం	-10.7959
▁prasanna	-10.7961
▁రాగి	-10.7962
▁వాడికి	-10.7963
▁పట్టుదల	-10.797
▁శ్రద్ధ	-10.7971
▁pani	-10.7972
షనల్	-10.7973
▁పరిగణించ	-10.7974
▁yesterday	-10.7974
▁సాయిబాబా	-10.7974
▁ముంబై	-10.7974
ద్వారా	-10.7975
ayanews	-10.7975
వల్లి	-10.798
▁రథ	-10.7981
▁earth	-10.7985
▁candy	-10.7986
▁వికారాబాద్	-10.7987
▁touching	-10.7989
▁తరంగ	-10.7989
బర్గ్	-10.7991
▁తేలి	-10.7995
▁ఆశించ	-10.7995
▁వర్గాల	-10.7996
▁రెడ్	-10.7997
gula	-10.7999
▁పెదవుల	-10.8
▁విచారణ	-10.8
▁pada	-10.8002
మెంటు	-10.8004
▁వెంక	-10.8007
▁నిశ్చయ	-10.8007
ద్రోహ	-10.8009
scribe	-10.802
▁ledu	-10.802
▁ఫొటో	-10.802
▁వృధా	-10.802
▁vala	-10.8022
▁colo	-10.8023
▁గవర్న	-10.8024
▁గౌతమ	-10.8032
▁ఖచ్చితంగా	-10.8034
▁తినేసి	-10.8034
▁bath	-10.8042
▁పాటించ	-10.8046
▁lie	-10.8047
బట్టి	-10.8048
▁గణేష్	-10.8049
సాగర్	-10.8051
▁ఉద్యోగాల	-10.8053
gree	-10.8056
▁spe	-10.8056
▁పడిపో	-10.8063
arjun	-10.8067
▁తమ్ముడు	-10.8067
▁centre	-10.8067
▁organ	-10.8068
▁together	-10.8073
▁బాలిక	-10.8074
▁ఆపరేషన్	-10.8075
aditya	-10.808
▁baj	-10.808
▁పురుషులు	-10.8081
డియన్	-10.8082
▁విశాఖపట్నంలోను	-10.8088
▁dj	-10.809
కాంక్షలు	-10.8092
▁నిలిపి	-10.8094
పాఠ	-10.8096
▁ప్రాంతము	-10.8098
▁sli	-10.8098
baby	-10.8098
▁మీదుగా	-10.8103
పండు	-10.8107
▁తగు	-10.8116
▁పలువురు	-10.812
పురము	-10.8123
▁అరుణ	-10.8123
▁ప్రయాణించ	-10.8126
▁వ్యాప్తంగా	-10.8127
▁ignore	-10.8127
▁వచ్చాడు	-10.8127
▁నీళ్లు	-10.8132
▁చక్కగా	-10.8141
▁murali	-10.8142
▁నిర్వహిస్త	-10.8147
▁జరిమానా	-10.8147
▁ఫ్రెంచి	-10.8149
▁సాంగ్	-10.8151
▁పరమేశ్వర	-10.8152
▁మైక్రో	-10.8154
▁ప్రతిరోజు	-10.8154
▁డాన్	-10.8154
▁ismart	-10.8156
▁నేపథ్యంలో	-10.8156
▁ఆదాయ	-10.8159
▁సమీక్ష	-10.8161
▁గమ్యం	-10.8161
▁ammujasmine	-10.8167
▁మహర్షి	-10.8167
▁above	-10.8181
భగవాను	-10.8186
▁matlad	-10.8187
బ్ధ	-10.8192
▁david	-10.8195
▁ఒకడు	-10.8201
▁stereo	-10.8201
▁మహేశ్వర	-10.8203
▁నరకం	-10.8204
▁నిండి	-10.8206
▁లేకపోయినా	-10.8208
▁అణువు	-10.8208
వీడు	-10.8208
▁మీపై	-10.8213
▁ltd	-10.8216
▁abc	-10.822
▁జాతిపిత	-10.8222
roposo	-10.8222
▁ఇస్తారు	-10.8223
▁vote	-10.8223
▁amazing	-10.8228
▁silver	-10.8231
▁గూగుల్	-10.8235
▁స్వీట్	-10.8235
▁ప్రక్కన	-10.8238
▁రాధ	-10.8238
▁ట్రాన్స్	-10.8239
▁సంతకం	-10.8239
▁successful	-10.8245
▁విశాఖ	-10.8247
▁vennela	-10.8249
▁vamshi	-10.8255
▁గ్రంధ	-10.8257
మీటర్	-10.8259
▁సంభాషణ	-10.8262
▁వసతి	-10.8262
▁ఇంకొకరి	-10.8265
▁శాత	-10.8266
▁చేసేవారు	-10.8267
▁kohli	-10.8275
▁nnr	-10.8277
▁కంటికి	-10.8281
▁చదివా	-10.8283
▁పూజా	-10.8285
▁లేనప్పుడు	-10.8288
▁venkatesh	-10.8293
వెళ్ళ	-10.8294
▁tree	-10.8296
▁సింధు	-10.8303
▁వేసే	-10.8308
▁ఎదగ	-10.8311
▁chota	-10.8314
▁దీర్ఘ	-10.8315
▁varshithaa	-10.8316
▁లేకున్నా	-10.8316
బ్యూ	-10.8317
▁అలసి	-10.8319
▁ప్రారంభించాడు	-10.8319
follow	-10.8322
▁పతక	-10.8323
▁కావలి	-10.8326
▁lips	-10.8328
▁emotional	-10.8332
▁దొర	-10.8335
యుక్త	-10.8336
▁ఆల్బమ్	-10.8337
▁ఓవర్	-10.8343
▁kri	-10.8343
▁ప్రాచుర్యం	-10.8343
▁తిమ్మ	-10.8349
▁సంప్రదించండి	-10.8349
▁letter	-10.8353
▁చేరుకున్న	-10.8356
▁పెరిగే	-10.8357
▁children	-10.8358
▁సింగిల్	-10.8359
▁ఉంటున్నా	-10.836
▁vampire	-10.8364
▁ఆశీర్వాద	-10.8364
▁సోషల్	-10.8364
▁కేటాయించ	-10.8371
▁minister	-10.8372
▁అమ్మవారు	-10.8375
▁ఆశ్రమ	-10.8377
▁princess	-10.8378
▁ఇవన్నీ	-10.8378
▁తీర్పు	-10.8378
▁బిరుదు	-10.8378
▁నిపుణులు	-10.8382
▁display	-10.8395
పడ్డాయి	-10.8395
▁హెడ్	-10.8396
▁both	-10.8397
▁శుభమస్తు	-10.8399
▁తాగితే	-10.8399
ాలజీ	-10.84
▁గెలిచిన	-10.8401
▁విద్యుత్తు	-10.8403
priya	-10.8404
▁చేసుకుంది	-10.8405
▁ప్రభువా	-10.8405
▁గూర్చి	-10.8406
▁వ్యాప్తి	-10.8408
చేయు	-10.8409
▁తిథి	-10.841
▁mahendru	-10.8412
▁కార్బన్	-10.8412
▁ఉషోదయపు	-10.8417
▁treat	-10.8417
▁మొదట్లో	-10.8417
▁వారసత్వ	-10.8419
▁result	-10.8421
▁మహాత్మా	-10.8421
▁నిపుణ	-10.8422
▁అంతస్తు	-10.8423
naidu	-10.8423
▁creator	-10.8424
▁ప్రతిబింబ	-10.8426
▁chusi	-10.8428
▁solution	-10.8434
▁club	-10.8443
▁స్నేహితు	-10.8452
▁అత్యవసర	-10.8454
▁భాధ	-10.8454
▁కావాల్సిన	-10.8456
ఎన్	-10.8458
▁clear	-10.8468
▁అలంకారాలు	-10.8476
ఫు	-10.848
▁వెనక్కి	-10.8481
▁motivational	-10.8482
▁గ్యాస్	-10.8483
▁dvv	-10.8483
▁thin	-10.8485
▁మునిగి	-10.8486
▁సరిపోదు	-10.8488
▁హనుమాన్	-10.849
నిర్మాణ	-10.8497
tundi	-10.8498
మయ్యాయి	-10.8499
▁లాటిన్	-10.8502
▁honda	-10.8504
▁వేష	-10.8505
▁కాగిత	-10.8516
▁vibes	-10.8523
▁వహించిన	-10.8524
gina	-10.8525
eswar	-10.8527
▁kannu	-10.853
▁మాట్లాడటం	-10.8532
▁list	-10.8534
▁కక్ష్య	-10.8537
▁సన్నిధి	-10.8538
బెట్టి	-10.8539
▁select	-10.8539
కెన్	-10.8542
▁badha	-10.8542
▁spread	-10.8544
▁engineering	-10.8544
▁పూర్ణ	-10.8547
▁చెబుతుంది	-10.8549
▁ఓటు	-10.855
▁డయా	-10.8555
▁సంతాన	-10.8556
▁పుస్తకాల	-10.8556
▁technology	-10.8558
▁title	-10.8558
▁church	-10.8558
▁nokia	-10.8559
▁ఉన్నపుడు	-10.8559
▁thir	-10.8561
కుమార	-10.8566
▁ట్రె	-10.8567
▁తీవ్రంగా	-10.8568
▁smo	-10.8569
▁చూడాలని	-10.8571
▁చెప్తున్నా	-10.8574
▁బ్రతకడం	-10.8577
▁రంగస్థల	-10.8579
▁మాధవ	-10.859
గలిగిన	-10.859
▁ప్రామాణిక	-10.8593
ర్పణ	-10.8595
▁బంగార	-10.8597
▁నాణ్యత	-10.86
▁ప్రసాదించ	-10.8609
కంఠ	-10.8612
▁breath	-10.8616
▁రికార్డ్	-10.8621
▁sreekar	-10.8627
▁సరస్వతీ	-10.8628
▁thoughts	-10.8628
▁మెడికల్	-10.8628
▁అప్పట్లో	-10.8628
▁సహాయపడ	-10.8628
▁కర్ణ	-10.8631
▁కాలేజ్	-10.8635
▁చిత్రీకరించ	-10.8641
▁అయ్యి	-10.8643
▁subject	-10.8649
▁నిమ్మ	-10.8651
▁విధానాన్ని	-10.8652
▁hall	-10.8655
▁పేర్కొన	-10.866
బియా	-10.8663
▁kwai	-10.8664
▁సంకలన	-10.8664
▁పూట	-10.867
▁ekkada	-10.867
▁padi	-10.8672
▁వైభవం	-10.8673
▁నియంత్రించ	-10.8674
▁కొనసాగింది	-10.8676
శ్రా	-10.8678
▁క్రియేషన్	-10.8681
▁biggest	-10.8683
▁memes	-10.8684
▁అధికారికంగా	-10.8685
jee	-10.8692
▁కోడెల	-10.8693
▁vijaya	-10.8694
▁నడిపించ	-10.8695
▁వసంత	-10.8698
▁tune	-10.8699
▁కలయిక	-10.87
▁suresh	-10.87
▁front	-10.8706
ular	-10.8712
▁ప్రజాదరణ	-10.8713
▁wonderful	-10.8714
▁చేసుకోవాలి	-10.8714
▁మరణించాడు	-10.8716
▁అరటి	-10.8719
▁పొంగ	-10.8722
కారుల	-10.8725
▁డిసెంబర్	-10.8734
▁ఆకర్ష	-10.8736
▁దుర్గాదేవి	-10.8737
▁బొగ్గు	-10.8741
▁ఆలస్యం	-10.8741
▁చూపిస్తుంది	-10.8746
antu	-10.8747
▁pawanism	-10.8748
▁ఎత్తైన	-10.8753
▁సందేశం	-10.8756
pally	-10.8757
▁lesson	-10.8764
▁గ్రేట్	-10.8765
▁different	-10.8777
▁spirit	-10.8777
▁మహేష్	-10.878
▁ఉందో	-10.878
light	-10.8781
▁మరణించారు	-10.8782
ుతుందో	-10.8783
▁ఇంజనీర్	-10.8784
▁కోరుకుంటా	-10.8797
▁bio	-10.8798
▁kulfy	-10.8798
▁అతన్ని	-10.8799
▁పేర్ల	-10.88
▁lalitha	-10.88
▁విశ్రాంతి	-10.8806
ుకునేందుకు	-10.8809
▁నేపథ్య	-10.881
▁medicine	-10.8813
▁హెల్మెట్	-10.8813
▁విజేత	-10.8814
▁అనవసర	-10.8816
▁బ్లూ	-10.882
▁కారణాలు	-10.8828
▁shekar	-10.8829
happy	-10.8829
▁భావిస్తారు	-10.8832
▁విభజన	-10.8834
▁tax	-10.8839
▁కార్తీక	-10.8842
▁space	-10.8847
▁తెలుగింటి	-10.8849
garam	-10.8853
▁అయ్యాడు	-10.8855
▁few	-10.8859
▁ఈస్ట్	-10.8864
▁విడువ	-10.8867
▁దత్త	-10.8869
కుమారి	-10.8869
▁living	-10.8869
▁రాధాకృష్ణ	-10.887
▁killer	-10.8875
▁విగ్రహాలు	-10.8876
▁తినడం	-10.8878
▁limited	-10.8886
▁రంగారెడ్డి	-10.8887
ందేమో	-10.8888
▁అప్పటికే	-10.8897
▁పండించ	-10.8898
▁language	-10.8899
▁seat	-10.8899
▁wishing	-10.8907
▁ఆచరించ	-10.8912
▁develop	-10.8914
▁ఉత్సాహ	-10.8914
▁ఉమ్మడి	-10.8914
▁శివుని	-10.8915
▁తెలిపింది	-10.8921
▁లభిస్త	-10.8922
▁నిండా	-10.8932
▁niku	-10.8936
▁chandra	-10.8938
▁సామెత	-10.8941
▁pink	-10.8943
ctive	-10.8944
కూర్	-10.8949
చక్ర	-10.8949
▁account	-10.895
▁female	-10.895
▁బైక్	-10.8951
▁పెరిగిన	-10.8951
▁middle	-10.8957
▁clickbeats	-10.8958
▁వెతుకు	-10.8965
▁kanya	-10.8967
▁నిండిన	-10.8968
▁update	-10.8971
▁డైరెక్టర్	-10.8972
▁nanne	-10.8973
▁tai	-10.8974
long	-10.8976
▁టైటిల్	-10.8981
▁మాట్లాడకుండా	-10.8981
▁మోక్ష	-10.8982
▁గడుపు	-10.8982
▁browser	-10.8986
▁opportunity	-10.8986
▁effect	-10.8986
▁వ్యాఖ్యాన	-10.8986
హైడ్ర	-10.8988
prince	-10.8993
▁నెహ్రూ	-10.8994
▁సరస్వతి	-10.8994
▁మంచిర్యాల	-10.8994
▁వ్యూహ	-10.8994
▁roman	-10.8997
ేంజ్	-10.9002
▁shopping	-10.9008
ాచల	-10.9014
▁లిమిటెడ్	-10.9016
▁బుధ	-10.9016
▁సమాఖ్య	-10.9017
▁స్టె	-10.9018
▁musi	-10.902
▁వినిపించ	-10.9021
▁tata	-10.9022
▁savenallamala	-10.9023
▁తెలుప	-10.9024
▁mounika	-10.9025
▁చూస్తు	-10.9034
▁జరుగ	-10.9036
▁వడ్డ	-10.9038
▁కదల	-10.9039
▁తగ్గిస్తుంది	-10.9041
▁పోయినా	-10.9049
▁ఎత్తి	-10.905
▁అందించిన	-10.9054
▁చూసుకో	-10.9062
▁వదిలేయ	-10.9062
▁సుబ్బ	-10.9063
ాభిమాన	-10.9063
▁గడిచి	-10.9066
▁bluetooth	-10.9067
▁రిప్లై	-10.9067
▁central	-10.9067
▁కూరగాయల	-10.9067
ింపబడిన	-10.907
praveen	-10.907
▁డ్రై	-10.9071
▁తీసుకెళ్ల	-10.9076
▁ఆపద	-10.9079
▁తపస్సు	-10.9082
▁దేశీయ	-10.9092
▁సూర్యాపేట	-10.9097
▁వేంకటేశ్వర	-10.9102
▁goals	-10.9103
▁థియేటర్	-10.9104
▁వికెట్	-10.9108
చెంద	-10.9109
▁hmtv	-10.9111
▁guarantee	-10.9119
▁అబద్ధం	-10.9119
krish	-10.9128
▁silence	-10.9128
▁event	-10.9129
ాంధ్ర	-10.913
▁నోటిఫికేషన్	-10.9133
▁statusden	-10.9138
▁అసోసియేషన్	-10.9141
▁సామర్థ్య	-10.9143
▁బదులు	-10.9147
▁ప్రొఫెసర్	-10.9148
▁ప్రవహించ	-10.9148
▁అరణ్య	-10.9151
▁siddu	-10.9155
▁పాకిస్థాన్	-10.9156
▁పేర్కొంది	-10.9156
▁sharsha	-10.9156
mudhiraj	-10.9156
▁cherry	-10.9161
▁వంక	-10.9162
▁knowledge	-10.9163
▁chance	-10.9168
▁ఆన్లైన్	-10.917
▁tir	-10.9173
▁దేశము	-10.9175
▁భగవ	-10.9177
▁personal	-10.9178
▁gum	-10.9178
▁నెలకొల్ప	-10.9178
▁famous	-10.9178
▁భూముల	-10.9182
amosa	-10.9184
▁వనపర్తి	-10.9185
▁కామెడీ	-10.9185
▁govt	-10.9186
▁స్థాపించబడింది	-10.919
▁నిలుప	-10.9192
▁ఆధిపత్య	-10.9193
▁విఫలమ	-10.9195
▁డివిజన్	-10.92
▁సౌందర్య	-10.92
▁నిషేధ	-10.9203
ధ్ధ	-10.9206
▁enough	-10.9208
▁ప్రతిపాదన	-10.9208
▁ఒకదాని	-10.9211
▁బోధించ	-10.9212
▁పుల్ల	-10.9214
▁వాదించ	-10.9214
▁చేసుకున్నాడు	-10.9219
▁తగ్గుతుంది	-10.9223
▁jewel	-10.9224
ుకుంటున్నారు	-10.9227
shankar	-10.9246
▁wanna	-10.9248
▁ఎంజాయ్	-10.926
శంకర	-10.9261
స్తుందో	-10.9264
▁నాగరికత	-10.9268
▁rupees	-10.9268
▁ఎరుపు	-10.9268
▁గొల్ల	-10.9275
▁డిజిటల్	-10.9275
▁deva	-10.9279
▁అత్యధికంగా	-10.9281
▁జవాబు	-10.9283
▁గెలుపొంద	-10.9283
▁దినము	-10.9286
▁country	-10.9287
well	-10.9287
▁దోహద	-10.929
▁else	-10.9292
▁peter	-10.9303
▁devil	-10.9305
▁idreamfilmnagar	-10.9305
యొక్క	-10.9309
▁ఆస్తులు	-10.9313
ిస్తుంటారు	-10.9315
▁నిరోధక	-10.9318
▁గొప్పతనం	-10.9328
▁నుంచే	-10.9331
▁కామెంట్	-10.9333
▁టెస్టు	-10.9339
▁విడిచిపెట్ట	-10.9342
▁బొంబాయి	-10.9343
▁ఏడ్చ	-10.9346
▁నిండు	-10.9347
▁focus	-10.9351
superstar	-10.9357
▁making	-10.9358
▁చెట్లు	-10.9359
▁తొందరగా	-10.936
▁payanews	-10.9361
▁three	-10.9362
▁మూవీ	-10.9362
▁ధరించి	-10.9363
▁రూపొంద	-10.9363
▁తీసే	-10.9364
▁ఎమ్మెల్యే	-10.9366
▁తిరస్కరించ	-10.9373
▁సందేహ	-10.9375
▁నవ్విస్తూ	-10.9375
▁శిష్య	-10.938
▁క్రొత్త	-10.9396
▁అటవీ	-10.9396
▁నిజాయితీ	-10.9401
▁పరిశీలన	-10.9419
▁చేయబడ్డాయి	-10.9425
రంగు	-10.9426
▁chocolate	-10.9426
▁కౌన్సిల్	-10.9426
▁సాహితీ	-10.9426
▁ysrcp	-10.9426
▁సమానంగా	-10.9428
quotes	-10.9429
▁భరోసా	-10.9434
▁సముదాయ	-10.9434
▁అందువల్ల	-10.9436
▁దళిత	-10.9436
▁ఫీలింగ్	-10.9436
ుణ్ణి	-10.944
▁పిలిచి	-10.9443
▁version	-10.9445
▁దీర్ఘకాల	-10.9451
శాంతి	-10.9454
▁apply	-10.9455
▁వైరస్	-10.9455
▁అత్యుత్తమ	-10.9457
▁ఎన్నికైనారు	-10.9457
ుకోవటం	-10.9462
▁భాగాల	-10.9464
▁villain	-10.9465
▁కృతజ్	-10.9465
టువంటి	-10.9465
యున్నాను	-10.947
వంతుడు	-10.9471
▁చొప్పున	-10.9472
girl	-10.9473
▁uranium	-10.948
▁సమర్ధ	-10.9486
▁కోరుకున్న	-10.949
▁necklace	-10.9495
▁అంతేకాక	-10.9499
ఫోన్	-10.9499
▁chief	-10.95
▁వాహనాల	-10.9502
▁ప్రయోజనం	-10.9503
▁కలాం	-10.9503
▁ఆమోద	-10.9504
▁అనుకూలంగా	-10.9507
▁cook	-10.9507
▁నుండే	-10.9508
హృదయ	-10.9508
▁అసాధారణ	-10.9511
▁పఠ	-10.9519
▁దేశాల్లో	-10.952
▁aarya	-10.9523
▁mali	-10.9526
▁భువనగిరి	-10.9526
▁ఆర్మీ	-10.9529
ఓ	-10.953
▁pls	-10.9531
▁gemini	-10.9534
▁దంపతుల	-10.9537
▁option	-10.9539
▁వుంటే	-10.9541
▁మినహా	-10.9542
▁balance	-10.9544
▁choose	-10.9546
▁village	-10.9549
▁rules	-10.955
▁అనుకోకుండా	-10.9551
▁శారీరక	-10.9557
▁mereshankar	-10.9557
▁వైశాల్యం	-10.9565
▁source	-10.9565
▁weet	-10.9567
▁అనకాపల్లిలోను	-10.9569
▁samantha	-10.9578
▁చెబుతా	-10.958
▁హస్త	-10.958
▁బ్రదర్	-10.9586
▁వక్ర	-10.9587
▁విస్తీర్ణ	-10.9588
▁worldwide	-10.9588
▁ఒంటరితనం	-10.9589
▁కుట్ట	-10.9595
▁మీకోసం	-10.9596
▁నిమిషాల్లో	-10.9598
▁tarak	-10.9601
▁manasa	-10.9604
▁నీళ్ళు	-10.9608
రెక్ట	-10.9609
▁అనుగుణంగా	-10.9619
▁పండగ	-10.9621
▁నిరుద్యోగులకు	-10.9628
▁రమణ	-10.9629
▁ఉపాధి	-10.963
▁సరళ	-10.9633
▁పరస్పర	-10.9634
▁చిట్కా	-10.9636
▁nobody	-10.9642
▁బాగుండాలి	-10.9649
▁డిమాండ్	-10.965
▁పొరుగు	-10.9651
▁lhokeshsaaee	-10.9651
బీయెస్	-10.9658
▁నలుగురి	-10.9658
▁వడ్డీ	-10.9658
▁ఎమ్బీ	-10.9659
▁bak	-10.9662
▁ఇద్దరూ	-10.9666
▁గోధుమ	-10.9666
గ్రాఫ	-10.9668
▁subbu	-10.9676
▁ropos	-10.9679
▁కన్య	-10.9679
bhu	-10.968
▁చనిపోయిన	-10.968
▁ప్రాతినిధ్యం	-10.9681
రంగంలో	-10.9689
▁పశువుల	-10.9696
▁bestie	-10.9696
▁యజమాని	-10.9697
▁రెండే	-10.9699
▁విలువైనది	-10.9704
▁వరకే	-10.9711
▁పరిష్కరించ	-10.9713
▁ఆగష్టు	-10.972
▁favourite	-10.9736
▁మిత్రులందరికీ	-10.9737
▁స్పందించ	-10.9739
▁రోగుల	-10.9746
▁రచనల	-10.9747
▁delete	-10.9748
▁శరన్నవరాత్రుల	-10.9752
▁smoking	-10.976
వార్డ్	-10.9765
▁coll	-10.9767
▁పశ్చిమాన	-10.9769
▁యాదవ	-10.9774
▁వేతన	-10.9775
▁తీసుకుంటే	-10.9775
▁ఫుడ్	-10.9777
▁hom	-10.9779
▁winner	-10.978
▁glass	-10.9784
▁ఆగ్నేయ	-10.9791
▁inbox	-10.9791
▁hap	-10.9792
▁స్థిరపడ	-10.9793
▁అదృష్ట	-10.9794
▁గ్రూపు	-10.9799
▁చూసుకుంట	-10.9806
▁delhi	-10.9808
▁ధర్మరాజు	-10.981
▁స్పందన	-10.981
▁తట్టుకోలే	-10.9811
▁opp	-10.9811
▁ఇండో	-10.9812
▁ఐదవ	-10.9815
▁కమిషన్	-10.9815
▁బయటపడ	-10.9818
▁qual	-10.982
thday	-10.9824
▁సాహస	-10.9824
▁బెస్ట్	-10.9828
▁ఉర్దూ	-10.9831
▁క్వి	-10.9831
▁భ్రమ	-10.9835
▁chesinavar	-10.984
▁grand	-10.9842
కొట్ట	-10.9847
▁చేస్తోంది	-10.9851
ineappload	-10.9863
▁చేపట్టిన	-10.9865
▁పంపించ	-10.9872
▁ప్రారంభించిన	-10.9878
▁ఎప్పటికప్పుడు	-10.9879
▁పార్లమెంటు	-10.9879
▁vunna	-10.9879
నగరం	-10.9884
▁సుబ్బారావు	-10.9887
▁పరిధి	-10.9888
▁appro	-10.99
▁రష్యన్	-10.9903
పదార్ధాల	-10.9906
amaina	-10.9906
▁పూజించ	-10.9909
▁bright	-10.9911
▁పరుగుల	-10.9914
▁భాద్రపద	-10.9919
▁comments	-10.9919
▁ఘనత	-10.9921
▁likes	-10.9923
bhargav	-10.9934
▁boosters	-10.9935
nilcreativeworks	-10.9935
▁produced	-10.9943
▁సంగతి	-10.9945
▁ఆక్సిజన్	-10.9951
▁సికింద్రాబాద్	-10.9951
▁colgate	-10.9951
▁mickey	-10.9951
dhana	-10.9957
▁శత్రు	-10.9958
▁చక్కని	-10.9959
▁నేనె	-10.9962
▁ప్రాజెక్ట్	-10.9967
▁సేకరణ	-10.997
▁operat	-10.9971
▁వ్యక్తిత్వం	-10.9975
▁టన్నుల	-10.9976
▁చూద్దాం	-10.9976
▁history	-10.9977
▁biggboss	-10.9983
▁motor	-10.9985
▁కల్గి	-10.9988
▁మొదలైంది	-10.9993
▁ఆరాధన	-10.9999
narayana	-11.0002
▁occ	-11.0005
▁ఫ్యాన్	-11.0005
▁అమిత	-11.0007
▁ఖనిజ	-11.0011
▁శుక్ల	-11.0011
▁ఓర్పు	-11.0016
▁build	-11.0016
▁sight	-11.002
▁విస్తరణ	-11.0023
▁ప్రవక్త	-11.0023
దేవత	-11.0025
▁during	-11.0031
▁కాకతీయ	-11.0032
▁వహించాడు	-11.0037
▁ఒంగోలు	-11.004
దోష	-11.0052
▁శాంత	-11.0054
బియన్	-11.0056
▁రమేష్	-11.0056
▁బ్రాడ్	-11.0056
titut	-11.0061
▁పోలీసుల	-11.0063
▁ఉండొచ్చు	-11.0067
▁డేవిడ్	-11.0072
▁అవినీతి	-11.0072
▁doctor	-11.0079
▁ఏమిటంటే	-11.008
▁gowtham	-11.008
self	-11.0084
▁శోభ	-11.0087
▁పేర్కొన్నాడు	-11.0088
▁దీక్ష	-11.0096
▁elugu	-11.01
▁spec	-11.0108
▁salary	-11.011
▁బాధపడుతున్న	-11.012
▁చిరంజీవి	-11.0121
▁కొల్ల	-11.0132
▁బాగుంటుంది	-11.0132
▁ఆకర్షించ	-11.0133
▁మూడ	-11.0134
▁స్పానిష్	-11.0145
▁mythri	-11.0146
▁కొత్తగూడెం	-11.0146
▁పరిష్కార	-11.015
▁నిరాశ	-11.015
▁దీవెన	-11.0154
▁చర్యల	-11.0155
▁score	-11.016
▁pawankalyan	-11.0162
▁తృప్తి	-11.0162
▁తీగ	-11.0166
▁నిదుర	-11.0167
▁మాధ్యమ	-11.0169
▁దశమి	-11.0182
pawan	-11.0185
▁సంస్కార	-11.0186
▁నివారించ	-11.0187
▁కిడ్నీ	-11.0195
▁memory	-11.0195
▁మిమ్మును	-11.0195
▁woman	-11.0199
▁గంధ	-11.0201
▁ఈశాన్య	-11.0203
▁చెబుతారు	-11.0211
▁అంతేకాకుండా	-11.0211
▁నిర్ధారించ	-11.0212
▁reality	-11.0213
▁classic	-11.0219
▁చదరపు	-11.022
▁చచ్చిపో	-11.022
▁శారద	-11.0228
▁ఒలింపిక్	-11.0228
▁స్పెయిన్	-11.0231
▁చికెన్	-11.0231
▁వాసన	-11.0235
▁తీసుకోవడం	-11.0235
▁పాశ్చాత్య	-11.0236
▁సమకూర్చ	-11.0236
▁ఇరవై	-11.0236
▁faith	-11.0239
▁తరపున	-11.024
▁అనువదించ	-11.0244
▁పట్టుకొని	-11.0248
▁యూనిట్	-11.025
▁ద్వితీయ	-11.0253
▁టిఫిన్	-11.0261
ెరుగ	-11.0264
▁నిర్వహిస్తున్న	-11.0265
▁చేసుకోవడానికి	-11.0267
▁sleeves	-11.0269
▁android	-11.0269
▁నిర్వాహక	-11.027
▁kabaddi	-11.0277
▁ప్రసన్న	-11.0285
▁ఉదయభాను	-11.0286
photo	-11.0286
▁నాయకుల	-11.0291
▁తలనొప్పి	-11.0294
▁రెవెన్యూ	-11.0294
▁అరుదైన	-11.0294
▁నవరాత్రి	-11.0296
▁విచిత్ర	-11.0299
▁అనుకోవడం	-11.0301
▁freaks	-11.0302
bili	-11.0302
▁జేమ్స్	-11.0304
▁ultra	-11.0305
▁breakup	-11.0305
▁ఎన్నికల్లో	-11.0309
chary	-11.031
▁నిరసన	-11.0314
▁అవుతున్నా	-11.0329
▁thiru	-11.0331
▁తీసుకుంటా	-11.0341
▁విశ్లేషణ	-11.0341
▁గడిపే	-11.0343
▁department	-11.0344
▁hay	-11.0359
▁wave	-11.0364
ప్రభ	-11.0365
▁వేరొక	-11.0368
▁భౌగోళిక	-11.0369
▁యాజమాన్య	-11.0369
▁sujatha	-11.0369
▁ఇలాగే	-11.0374
▁science	-11.0378
▁సామర్ధ్య	-11.0378
▁dabur	-11.0378
▁నేనంటే	-11.0379
edits	-11.038
▁అభయ	-11.0381
▁స్టూడియో	-11.0386
▁minute	-11.0391
▁particle	-11.0394
▁మర్యాద	-11.0394
▁సురక్షిత	-11.0403
వాక్య	-11.0404
▁జగిత్యాల	-11.0411
▁సురేష్	-11.042
▁ఫుల్	-11.0423
▁జబ్బు	-11.0424
▁సరుకు	-11.0424
పూరిత	-11.0424
▁చేసుకుంటూ	-11.0428
▁meyer	-11.043
తీర్థ	-11.0431
▁శృంగార	-11.0435
▁ఇప్పుడ	-11.0435
భూషణ	-11.0438
▁depend	-11.0439
▁ప్లీజ్	-11.0445
▁బెంగాలీ	-11.0445
▁అయ్యో	-11.0447
▁map	-11.045
▁కుడా	-11.0456
▁ఒకేసారి	-11.0456
▁బాహ్య	-11.046
▁యూనివర్శిటీ	-11.0462
▁twitter	-11.0462
▁swetha	-11.0462
▁income	-11.0463
▁రాశారు	-11.0464
▁వృద్ధ	-11.0467
▁chesthu	-11.0471
▁సందర్భాలలో	-11.0477
▁నిరుద్యోగ	-11.0477
▁ఆయురారోగ్య	-11.0479
▁బ్రతుక	-11.0479
▁అలంకార	-11.0481
eswara	-11.0484
▁మ్యూజిక్	-11.0487
nnel	-11.0491
▁disturb	-11.0496
▁విక్రమ్	-11.0496
▁around	-11.0496
చరిత్ర	-11.0501
▁cult	-11.0502
▁శివలింగ	-11.0503
▁విదేశాల	-11.0504
▁నియో	-11.0507
▁భీష్మ	-11.0513
▁గద్వాల	-11.0513
▁అరబ్	-11.0516
▁గ్రాండ్	-11.0517
▁డౌన్	-11.0521
▁సంయోగ	-11.0528
itude	-11.053
పర్చ	-11.0535
▁లేదంటే	-11.0536
▁ప్రోత్సాహ	-11.0538
▁ప్రతిక్షణం	-11.0542
▁కానుక	-11.0545
▁idiot	-11.0546
▁headset	-11.0547
▁పురుగు	-11.0549
▁ఆశీర్వదించ	-11.0555
▁పీడన	-11.0557
▁అప్పగించ	-11.0558
▁season	-11.056
▁భరించలే	-11.056
▁అసిస్టెంట్	-11.0564
▁నాగార్జున	-11.0564
▁melody	-11.0564
▁president	-11.0572
▁కర్నూల్	-11.0572
▁machine	-11.0575
▁పరిస్థితుల్లో	-11.0578
▁ladityamusic	-11.0581
▁raghu	-11.0581
▁చూచి	-11.059
▁telegram	-11.059
▁చేస్తున్నావ్	-11.0593
▁ఆధారపడ	-11.0593
▁ఉపయోగపడుతుంది	-11.0595
▁మహాత్మ	-11.0596
▁ప్రధానమంత్రి	-11.0607
సముద్రం	-11.0612
▁తెలుస్తోంది	-11.0615
▁దొరికిన	-11.0617
▁కావాలంటే	-11.062
▁vscreations	-11.0632
▁కోర్సు	-11.0634
▁ఏమిటో	-11.0634
▁ఉండలేను	-11.064
▁మ్యూజియం	-11.0641
▁జరుగుతాయి	-11.0644
క్ష్మ	-11.0661
▁మామూలు	-11.0676
▁amazon	-11.0693
▁సంప్రదించ	-11.0695
▁పేర్కొన్న	-11.0695
▁lokal	-11.0696
▁ఘటన	-11.0697
▁ఒప్పుకో	-11.0698
▁odd	-11.0701
▁పంపిస్తున్న	-11.0704
▁దగ్గరికి	-11.0706
బోతున్న	-11.0708
▁esta	-11.0713
▁కుంకుమ	-11.0724
▁kshanam	-11.0735
▁అనురాగ	-11.0735
▁వాడతారు	-11.0736
▁ఆమోదించ	-11.0739
▁అధిగమించ	-11.0745
▁విరమణ	-11.0745
▁gundello	-11.0748
ుతుంటారు	-11.0753
▁association	-11.0754
▁గులాబీ	-11.0754
simha	-11.0755
▁మలయాళ	-11.0762
▁సువార్త	-11.0763
▁షేక్	-11.0767
▁ఆఫ్రికన్	-11.0771
▁అభిమానుల	-11.0776
▁పొడవైన	-11.0788
▁నిప్పు	-11.0791
▁అనుసంధానమై	-11.0793
▁బృహ	-11.0797
▁విమర్శకుల	-11.0798
▁సహస్ర	-11.0805
▁favorite	-11.0806
▁గెలుచుకున్న	-11.0806
▁పాండవుల	-11.0807
▁నిరంతర	-11.0811
▁soulmate	-11.0816
▁ప్రేరణ	-11.083
▁truly	-11.0832
▁ముగించ	-11.0835
▁విజయవంతమైన	-11.0836
▁pearl	-11.0843
▁సంతృప్తి	-11.085
శ్వర్య	-11.0862
▁వోల్	-11.0871
▁కటక	-11.0873
▁శైల	-11.0889
▁జోక్స్	-11.0892
▁వెతికి	-11.0893
▁ప్రతినిధి	-11.0904
▁గుప్త	-11.0905
▁మోటార్	-11.0907
friend	-11.0909
▁traffic	-11.0911
▁mmv	-11.0923
writ	-11.0926
▁మహాలక్ష్మి	-11.0927
▁chintu	-11.0935
▁telugufilmnagar	-11.0938
▁అల్లాహ్	-11.0938
▁అభ్యసించ	-11.0941
▁ఎందరో	-11.0956
▁సాక్ష్య	-11.0957
▁everyday	-11.0961
▁ఇతడి	-11.0962
▁delivery	-11.0965
▁ఆచరణ	-11.0965
▁చంద్రయాన్	-11.0969
▁information	-11.0974
▁myself	-11.0975
▁clean	-11.0975
prabha	-11.098
▁ఐక్య	-11.0981
▁hospital	-11.0983
కొరకు	-11.0987
▁తీర్చిదిద్ద	-11.0991
▁భగవద్గీత	-11.0991
▁ప్రాంగణ	-11.0992
▁పార్వతి	-11.0993
▁శక్తివంతమైన	-11.0995
▁hundred	-11.1009
▁wonder	-11.1016
▁హంస	-11.1019
▁పనితీరు	-11.1027
▁entertain	-11.1038
▁ttd	-11.1044
▁venkateswara	-11.1046
▁copy	-11.1053
▁ganeshvideo	-11.1054
▁పరమాణు	-11.1054
▁బయటికి	-11.1059
▁కార్పొరేషన్	-11.1063
▁ఎడారి	-11.1063
▁వర్తక	-11.1064
▁గడిపిన	-11.1072
▁sindhu	-11.1074
▁tujh	-11.1076
▁waa	-11.1077
▁journey	-11.1081
▁డైలాగ్	-11.1081
ollywood	-11.1084
▁ఎల్లప్పుడు	-11.1086
▁ఎల్లవేళలా	-11.109
▁పలుకుతూ	-11.109
▁ఆయుర్వేద	-11.1108
▁పరలోక	-11.111
▁freedom	-11.1112
▁యురేనియం	-11.1126
▁కామారెడ్డి	-11.1128
ింపజేస	-11.1128
▁సహనం	-11.1135
▁padmaja	-11.1135
▁విశ్వనాథ	-11.1136
▁చోట్ల	-11.1142
▁స్వప్న	-11.1146
వెల్లి	-11.1148
▁sudheer	-11.1153
▁చంద్రుడి	-11.1168
▁పాక్షిక	-11.1172
▁network	-11.1172
▁piece	-11.1181
▁వైకుంఠ	-11.119
▁సుబ్రహ్మణ్య	-11.119
▁లైంగిక	-11.119
లేకపోతున్నా	-11.1215
▁బహుశా	-11.1216
▁కథనం	-11.1226
▁రైల్వేస్టేషన్	-11.1226
▁మహోత్సవ	-11.1236
▁కుంభ	-11.1241
▁మనుష్యుల	-11.1245
▁hac	-11.125
▁సంకల్ప	-11.1251
▁అధ్యాపక	-11.1253
▁ఆస్పత్రి	-11.1253
▁madhutelugu	-11.1255
ద్దామ	-11.1256
▁జార్జి	-11.1263
▁చెల్లె	-11.1266
▁stunt	-11.1268
▁already	-11.1272
▁kamalakannan	-11.1272
surya	-11.1275
▁పర్యాటకుల	-11.128
▁gayathri	-11.1281
▁లభ్యమ	-11.1289
▁భాగ్య	-11.1289
▁ఎవరైతే	-11.1293
▁కదిలి	-11.1295
▁రెట్టింపు	-11.1299
▁పెరుగుతున్న	-11.1308
▁తెనాలి	-11.1309
▁చదివే	-11.1309
▁ప్రార్థించ	-11.131
స్తుండగా	-11.131
▁విక్రయ	-11.1311
నాయుడు	-11.1315
▁చేరుకుంది	-11.132
▁కదలిక	-11.1322
▁ఆదివార	-11.1324
చెరువు	-11.1326
▁చచ్చేంత	-11.1327
▁చులకన	-11.1332
▁పోలిస్తే	-11.1332
▁ఫిర్యాదు	-11.1336
▁సహకరించ	-11.1339
▁keerthi	-11.1355
▁చేకూరాలని	-11.1358
▁అశోక	-11.1369
▁అందిస్తున్న	-11.1376
▁చిలక	-11.138
▁తరహా	-11.1384
▁పిలుస్త	-11.1391
▁ద్రాక్ష	-11.1392
▁scr	-11.1394
▁తరగతుల	-11.1394
▁ఉపవాస	-11.1395
▁జంక్షన్	-11.1401
▁hindu	-11.1402
▁meaning	-11.1411
▁పరబ్రహ్మ	-11.1412
▁చేకూర	-11.1421
▁blessings	-11.1422
దొడ్డి	-11.1422
▁limit	-11.1427
▁పాడ్యమి	-11.1429
▁mujhe	-11.1429
▁ఫిల్మ్	-11.1429
గమనం	-11.1433
▁యాంటీ	-11.1434
▁entry	-11.1437
▁hog	-11.1441
▁ఆదరణ	-11.1442
▁society	-11.1447
▁మనస్తత్వ	-11.1448
work	-11.1454
▁జలపాత	-11.1454
▁విజయనగర	-11.1468
▁తులసి	-11.1468
▁తెలిసే	-11.1475
▁spend	-11.1476
▁వివేక	-11.1478
ొచ్చిన	-11.1481
ెంబర్	-11.1481
▁chavithi	-11.1485
బిడ్డ	-11.1488
▁program	-11.1491
▁బ్రాండ్	-11.1504
▁ప్రాప్తి	-11.1507
▁మార్పిడి	-11.1513
▁ఎలక్ట్రానిక్	-11.1532
▁accessories	-11.1541
▁ajith	-11.1542
▁సున్నిత	-11.1543
▁having	-11.1551
ుచుండ	-11.1556
▁బడ్జెట్	-11.156
▁అలంకరించ	-11.156
power	-11.1563
▁చైర్మన్	-11.1563
▁injurious	-11.157
▁ఆవరణ	-11.157
▁ఉత్తర్వు	-11.1572
▁నరేంద్ర	-11.1573
▁నిర్వచన	-11.1579
▁అహింస	-11.1579
▁శ్వేత	-11.1582
▁ఫాలోవర్స్	-11.1588
▁ఇకలేరు	-11.1589
▁సిద్ధిపేట	-11.1589
▁మసీదు	-11.1589
▁indiaglitz	-11.1598
▁స్టోరీస్	-11.1598
▁పేరిట	-11.1603
▁సంబంధాల	-11.1607
▁ఎవ్వరూ	-11.1617
▁సతీష్	-11.1617
▁ఈరోజ	-11.1622
▁quick	-11.1632
▁pretty	-11.1634
▁ప్రతిరోజూ	-11.1636
▁చమురు	-11.1637
▁project	-11.1646
▁ఎక్స	-11.1646
▁sathish	-11.1651
▁ఇటాలియన్	-11.1655
▁నెట్వర్క్	-11.1655
▁రాజస్థాన్	-11.1655
▁vellipo	-11.1655
▁సాంద్రత	-11.1665
▁కాలుష్య	-11.1665
▁ఆల్బం	-11.1665
▁orange	-11.167
ఒక్క	-11.1677
▁హీరోయిన్	-11.1684
▁farmer	-11.1686
▁స్తుతి	-11.1686
▁cbfc	-11.1703
▁రాజవంశ	-11.1703
ానంతరం	-11.1722
▁జింక	-11.1737
▁యేసుక్రీస్తు	-11.1741
▁ల్యాండర్	-11.1741
▁computer	-11.1741
▁లింక్	-11.1749
▁zindagi	-11.176
▁అభిషేక	-11.1761
acalahari	-11.1762
▁స్నాన	-11.1762
▁ఆదరించ	-11.1781
▁పొరపాటు	-11.1781
▁kinemas	-11.1783
▁వ్యవస్థాపక	-11.1785
▁సర్వీస్	-11.179
▁కొలువు	-11.1794
▁ఫౌండేషన్	-11.1799
▁రాజీనామా	-11.1799
▁నాలుగవ	-11.1799
▁diploma	-11.1809
▁dekh	-11.1809
▁హైకోర్టు	-11.1818
▁చదువుకున్న	-11.1822
▁ఎదురుచూస్తున్న	-11.1822
▁ప్రశ్నించ	-11.1826
పెడతా	-11.1827
▁bhaskar	-11.1828
▁achieve	-11.1829
▁చెప్తు	-11.1829
▁gross	-11.183
▁ఎగువ	-11.1831
▁mornin	-11.1833
▁నేర్పిస్తా	-11.1834
▁ప్రజాస్వామ్య	-11.1838
▁diamond	-11.1838
▁సిస్టమ్	-11.1838
ిచ్చారు	-11.184
▁district	-11.1847
▁పంచాంగం	-11.1847
▁షేర్చాట్	-11.1847
▁teddy	-11.1848
▁వీధుల	-11.1856
▁నవీన	-11.1857
▁discover	-11.1857
▁ఖరీదైన	-11.1857
▁నోబెల్	-11.1857
▁కల్యాణ	-11.1858
thundhi	-11.1864
▁ఎగుమతి	-11.1867
▁మూత్ర	-11.1872
▁నాలుక	-11.1894
▁కృత్రిమ	-11.1896
▁మనశ్శాంతి	-11.1896
▁kavya	-11.1897
▁కమ్యూనిస్టు	-11.1897
▁గెలిచి	-11.1902
▁deverakonda	-11.1916
▁వసూలు	-11.1916
ుకుంటాం	-11.1916
▁cannot	-11.1916
▁సంపాదించాల	-11.1918
▁తింటా	-11.1924
▁డ్రైవింగ్	-11.1925
▁కరెంట్	-11.193
▁ద్వ	-11.193
▁అగ్రహారం	-11.1936
▁అమాయక	-11.1946
▁fruit	-11.1955
▁బంగ్లాదేశ్	-11.1965
▁ratna	-11.1967
ాధ్యక్ష	-11.1972
▁ఆహ్వానించ	-11.1974
▁celebration	-11.1974
▁comfort	-11.1974
▁శిథిల	-11.1975
▁beloved	-11.1985
▁boyfriend	-11.1986
▁నల్లమల	-11.1989
▁ముద్రించ	-11.1989
▁collect	-11.1991
▁లైసెన్స్	-11.2004
▁జార్జ్	-11.2004
▁కుదర	-11.201
▁రిజిస్ట	-11.2011
▁ఫ్యా	-11.2016
▁అత్యున్నత	-11.2024
▁టికెట్	-11.2027
▁energy	-11.2034
▁ఉత్తీర్ణ	-11.2044
▁మరికొన్ని	-11.2044
▁ప్రయోగించ	-11.2046
▁స్థాపన	-11.2047
▁పులిహోర	-11.2053
▁instagrami	-11.2054
▁తెలుస్త	-11.2054
▁సంపుట	-11.2055
▁తల్లితండ్రుల	-11.2063
▁celebrate	-11.2063
▁జనసంఖ్య	-11.2063
▁profile	-11.2073
▁మాడుగుల	-11.2074
▁అసూయ	-11.2075
▁కూర్చున్న	-11.208
▁సుప్రసిద్ధ	-11.2083
▁నియామక	-11.2093
▁రైమ్స్	-11.2096
▁beepu	-11.2099
▁అడుగుపెట్ట	-11.2099
▁receive	-11.2103
▁ctrl	-11.2103
▁మోడల్	-11.2104
▁కథానాయక	-11.2114
ుడయ్యాడు	-11.2125
▁లీడర్	-11.2136
▁mubarak	-11.2143
▁పంజాబీ	-11.2143
▁విశ్లేష	-11.2146
▁udaya	-11.2156
▁నడప	-11.216
▁శస్త్రచికిత్స	-11.2163
▁ప్రత్యర్థి	-11.2173
▁నొప్పుల	-11.2176
▁నిషేధించ	-11.2189
▁సర్వేపల్లి	-11.2193
▁పర్వాలేదు	-11.2193
▁నాలుగో	-11.2204
▁sacrifice	-11.2213
▁ఎపుడూ	-11.2213
▁ఆవిడ	-11.2214
▁ఉద్భవించ	-11.2214
▁అవతరించ	-11.2216
▁ప్రతాప	-11.2217
▁బాయిలరు	-11.2223
▁విద్యాలయ	-11.2231
▁దారితీసింది	-11.2234
▁మృదు	-11.2244
▁స్మాష్	-11.2244
▁issue	-11.2245
▁నంద్యాల	-11.2254
▁ఆవిరి	-11.2259
▁అయిపోత	-11.2263
▁జోడించ	-11.2263
▁ఇంటర్వ్యూ	-11.2264
▁నవాబు	-11.2274
▁నెరవేర్చ	-11.2285
▁kumari	-11.2296
▁శిష్యుల	-11.23
▁powerdirector	-11.2304
▁వ్యత్యాస	-11.2305
▁ప్రగతి	-11.2307
▁దీవుల	-11.2309
▁మెక్సికో	-11.2315
▁రంపచోడవరం	-11.2315
▁స్పీకర్	-11.2315
▁వాయిద్య	-11.2325
▁annayya	-11.2327
▁నిర్వహించెదరు	-11.2327
▁శీతాకాల	-11.2335
ాభిషేక	-11.2345
▁పాల్గొంట	-11.2346
▁నలుపు	-11.2348
▁content	-11.235
▁నవ్వించ	-11.2354
మూర్తుల	-11.2354
▁పౌర్ణమి	-11.2355
▁rayon	-11.2356
▁దొరుకు	-11.2364
▁చిగుర	-11.2364
▁ప్రకారము	-11.2366
▁ముహమ్మద్	-11.2386
▁sudden	-11.2386
▁చెల్లింపు	-11.2389
sweet	-11.2394
▁ఎక్కడున్నా	-11.2395
▁బెంగళూరు	-11.2396
▁trailer	-11.2397
▁పరిపాలించ	-11.2398
▁తలెత్త	-11.2406
▁సోదరుల	-11.2413
▁క్రిస్ట	-11.2415
▁cyril	-11.2427
▁ఆరుగురు	-11.243
సిద్ధి	-11.2436
▁copyright	-11.2438
▁కాలిఫోర్నియా	-11.2438
▁మహిషాసుర	-11.2438
▁సుదీర్ఘ	-11.2448
▁నరసింహారెడ్డి	-11.245
▁నిందించ	-11.2456
▁సంపన్న	-11.2459
▁గుర్తుపెట్టుకో	-11.2459
▁కౌంటీ	-11.2461
▁ఇనుము	-11.2462
▁అవకాశాన్ని	-11.2469
▁ఉదయాన్నే	-11.247
▁సంపాదన	-11.2479
▁సిగ్నల్	-11.2489
▁ప్రస్తావించ	-11.25
▁yugandhar	-11.251
▁కలియుగ	-11.2511
▁అయస్కాంత	-11.252
▁అప్పుడప్పుడు	-11.252
▁require	-11.2521
▁hosanna	-11.2521
ోన్నత	-11.2521
▁భూలోక	-11.2527
▁హెల్త్	-11.2541
▁nijam	-11.2543
▁నడక	-11.2548
▁అట్లతద్ది	-11.2552
కముందే	-11.2557
▁భీమవరం	-11.256
karnataka	-11.2562
▁request	-11.2562
▁కనిపిస్తున్న	-11.2573
▁device	-11.2576
▁సింహాసన	-11.2583
▁కర్మాగార	-11.2593
▁అరుదుగా	-11.2593
▁మళ్ళి	-11.2602
▁సంబరాలు	-11.2605
వృత్తి	-11.2608
▁రెక్కల	-11.261
శెట్టి	-11.2615
▁పగలు	-11.2619
▁నేతృత్వంలో	-11.2625
▁endhuk	-11.2626
▁శీర్షిక	-11.2635
▁పరిరక్షణ	-11.2635
▁laharipatel	-11.2636
▁వెలిగించ	-11.2649
మృగ	-11.2653
▁credions	-11.2656
▁writing	-11.2657
▁రహదారుల	-11.2657
▁unique	-11.2658
▁pyar	-11.2662
▁ప్రదర్శిస్త	-11.2662
▁ydmpraveen	-11.2667
▁ఆటిట్యూడ్	-11.2688
▁సాక్షాత్	-11.2688
▁విమర్శించ	-11.269
భరిత	-11.2694
▁warrior	-11.2699
divya	-11.27
▁megha	-11.2708
▁సదస్సు	-11.2709
▁judge	-11.2709
▁ఎప్పుడైనా	-11.2712
▁normal	-11.272
▁ఆస్తుల	-11.2725
▁మహాత్మాగాంధీ	-11.273
▁రాబర్ట్	-11.2731
▁తుఫాను	-11.2741
▁సన్నిహిత	-11.2762
▁చౌదరి	-11.2762
▁విక్రయించ	-11.277
▁నడుచు	-11.2772
▁నాగేశ్వరరావు	-11.2773
▁propose	-11.2773
▁ఘోర	-11.2775
▁triple	-11.2776
▁జయించ	-11.2778
▁పసిఫిక్	-11.2783
▁నియంత్ర	-11.2786
▁dhfm	-11.2794
▁సరికొత్త	-11.2794
▁ఆవేశం	-11.2796
laxmi	-11.28
▁అఖిల	-11.2803
▁ముత్యాల	-11.2812
▁పెడుతున్నా	-11.2815
▁వెడల్పు	-11.2816
▁management	-11.2816
▁chaitanya	-11.2826
▁continue	-11.2826
▁బీజేపీ	-11.2837
▁కలకత్తా	-11.2848
▁విముక్తి	-11.2848
▁ఆఫీస్	-11.2848
▁మరదలు	-11.2848
ాధిపతి	-11.2852
▁వెలుగ	-11.2859
▁బిజినెస్	-11.2869
▁lonely	-11.2869
▁ఎదుర్కొన్న	-11.287
ాసుర	-11.2872
▁anniversary	-11.288
▁mushkil	-11.288
▁బూడిద	-11.288
▁దక్షిణాఫ్రికా	-11.2891
▁దేశవ్యాప్తంగా	-11.2891
▁శుభదినం	-11.2891
ిద్దర	-11.2896
▁భవిష్యత్	-11.2897
▁టీడీపీ	-11.2902
▁raghav	-11.2903
▁ఐదుగురు	-11.2905
truct	-11.291
▁festival	-11.2912
▁అల్యూమినియం	-11.2923
▁పాల్వంచ	-11.2934
▁equal	-11.2934
▁lyric	-11.2942
▁సెకన్ల	-11.2945
▁ఆధీనంలో	-11.2966
▁అధిపతి	-11.2969
▁ఖగోళ	-11.2977
▁xxl	-11.2978
▁ప్రార్ధించ	-11.299
▁న్యాయవాది	-11.3011
▁భూగర్భ	-11.3032
▁kranthi	-11.3032
▁మొఘల్	-11.3032
▁ప్రతినిధుల	-11.3045
▁visual	-11.3045
▁రీసెర్చ్	-11.3054
▁ధ్వని	-11.3055
▁amulya	-11.3065
సంతోష	-11.3066
▁అనుసరిస్త	-11.3075
▁vijayawada	-11.3087
▁getting	-11.3087
▁ఎదుర్కొన	-11.3097
▁పరిషత్తు	-11.3098
▁భాస్కర	-11.3102
జాతీయ	-11.3106
▁తపన	-11.3122
▁క్షిపణి	-11.3131
▁ధారావాహిక	-11.3131
▁నిర్వచించ	-11.3142
▁ఆరోపణల	-11.3142
▁నగదు	-11.3153
▁జరుగుతుంద	-11.3159
▁కోరుకుంటున్నా	-11.3162
▁డ్రీమ్స్	-11.3164
▁godavari	-11.3164
▁ఖ్యాతి	-11.3164
▁స్క్రీన్	-11.3175
▁కచ్చితమైన	-11.3175
▁స్ట్రీట్	-11.3175
▁proposal	-11.3186
▁టాక్సీ	-11.3186
▁అనకాపల్లి	-11.3192
▁మార్కాపురం	-11.3197
▁ఉత్పాదక	-11.3208
▁గీస	-11.3217
▁శంఖ	-11.3224
▁బ్రెజిల్	-11.3242
▁టర్కీ	-11.3243
▁rajeevan	-11.3253
▁కెప్టెన్	-11.3253
▁వెయిట్	-11.3253
▁sankranthi	-11.3264
▁దక్షణాన	-11.3264
▁mirror	-11.3264
▁హెన్రీ	-11.3264
▁తీర్మాన	-11.3275
▁మూర్ఖ	-11.3276
▁కన్నీళ్ల	-11.3278
▁అర్హుల	-11.3286
▁వెళ్తా	-11.3287
▁విలియం	-11.3287
▁anudeep	-11.3289
▁అలవాట్ల	-11.3295
పెడుతు	-11.3297
▁married	-11.3298
▁ప్రవహిస్తుంది	-11.3309
▁మాంసం	-11.331
▁ఏముంది	-11.3323
▁inewsofficial	-11.3332
▁ఖురాన్	-11.3333
▁university	-11.3343
▁మరాఠీ	-11.3343
▁మునుపటి	-11.3343
▁దొరుకుతుంది	-11.3344
▁outside	-11.3366
▁మైసూరు	-11.3377
▁ఇన్స్టిట్యూట్	-11.3388
▁childhood	-11.3411
▁నాల్గవ	-11.3411
▁వర్షపాతం	-11.3411
▁tweet	-11.3411
▁ఎదుగుదల	-11.3433
▁భద్రాచలం	-11.3434
▁ప్రవర్తించ	-11.3434
▁ఇలవ్	-11.3436
▁తస్మై	-11.3442
▁negative	-11.3445
▁భగత్	-11.3446
▁ప్రతికూల	-11.3446
▁plot	-11.3447
▁అంకె	-11.3448
▁pvt	-11.3456
▁certified	-11.3456
smart	-11.3464
▁బ్రిటీషు	-11.3468
▁general	-11.3491
▁ఆమదాలవలస	-11.3502
▁enfield	-11.3513
▁నర్సీపట్నం	-11.3513
▁vmv	-11.3514
▁swarna	-11.3515
▁ఆడపడుచు	-11.3524
▁బెంగుళూరు	-11.3525
▁చారిత్రాత్మక	-11.3536
▁నిరీక్ష	-11.3543
▁సవరణ	-11.3548
bangaram	-11.3553
▁ఫాలోయింగ్	-11.3559
▁గొర్రె	-11.3565
▁భగవంతుని	-11.3571
▁కండరాల	-11.3575
▁మొక్కజొన్న	-11.3583
▁fellow	-11.3583
▁వాషింగ్టన్	-11.3594
▁కనీస	-11.3596
▁పిలిచ	-11.3597
▁గర్ల్	-11.3602
▁ultimate	-11.3606
▁స్మారక	-11.3609
▁పర్యవేక్షణ	-11.3617
▁వైసీపీ	-11.3617
▁attract	-11.3626
▁శుభరాతి	-11.3629
▁hussain	-11.3641
▁tjg	-11.3653
▁ఒడ్డున	-11.3654
▁dussehra	-11.3675
▁కొలంబియా	-11.3675
▁దురదృష్ట	-11.3675
▁ఆవేదన	-11.3683
▁టోర్నమెంట్	-11.3687
▁shailu	-11.3691
▁తోడ్పడ	-11.3696
▁సంక్షోభ	-11.3699
▁మెస్సేజ్	-11.3699
▁banjara	-11.3699
▁ntvteluguhd	-11.371
▁నాలెడ్జ్	-11.371
▁క్రీడాకారుల	-11.3718
▁గణనీయమైన	-11.3722
విషయ	-11.3727
▁మేనేజ్మెంట్	-11.3734
▁ఒరేయ్	-11.3734
▁శ్రామిక	-11.3734
▁వైష్ణవ	-11.3735
▁పిలవబడే	-11.3735
▁లలిత	-11.3746
ేటట్లు	-11.3749
▁బ్రాహ్మణుల	-11.3756
▁difficult	-11.3769
▁క్వీన్	-11.3769
▁oopiri	-11.3781
▁ముడిపడి	-11.3792
▁పురపాలక	-11.3793
▁పరిపూర్ణ	-11.3816
▁బతికే	-11.3831
▁జరప	-11.3834
▁చోళ	-11.3839
▁సమకాలీన	-11.384
▁సదుపాయాల	-11.384
▁బీహార్	-11.384
▁మిగులు	-11.3843
▁చల్లార	-11.3843
▁mybeatz	-11.3852
▁అరకులోయలోను	-11.3852
▁కాథలిక్	-11.3852
▁biuge	-11.3852
▁డార్లింగ్	-11.3864
▁అవకాశము	-11.3864
▁ఏడిపించ	-11.3864
▁నిరాకరించ	-11.3865
▁rechagotaku	-11.3876
▁నిష్పత్తి	-11.3876
▁current	-11.3876
▁trivedi	-11.3876
▁vitamin	-11.3876
▁డెంగ్యూ	-11.3888
▁వ్యాయామ	-11.3889
▁అనుభూతి	-11.389
▁address	-11.3899
▁pothineni	-11.3899
▁స్టూడెంట్	-11.3899
▁పెట్టుబడుల	-11.39
▁duniya	-11.3912
▁janasenaparty	-11.3923
▁పార్లమెంట్	-11.3935
▁సరాసరి	-11.3935
▁పీల్చ	-11.3941
▁బిందువు	-11.3948
▁damage	-11.3948
▁ఆరాధించ	-11.3959
▁ద్రోణ	-11.3971
పురుష	-11.3972
▁క్షత్రియ	-11.3983
▁warranty	-11.3995
▁మమ్మల్ని	-11.3995
▁తలరాత	-11.3998
wallpaper	-11.3998
▁మేనేజర్	-11.4007
▁ఉయ్యాలో	-11.4008
▁సైకిల్	-11.4009
▁పొలాల	-11.4015
▁భూకంప	-11.402
▁కేశవ	-11.4031
▁రకరకాల	-11.4032
▁అపురూప	-11.4033
▁muharram	-11.4044
▁ప్రభాస్	-11.4044
