<unk>	0
<s>	0
</s>	0
ు	-3.80118
▁	-4.23001
ం	-4.31169
ని	-4.36547
లో	-4.48379
ి	-4.61013
ను	-4.67257
గా	-4.70625
కు	-4.71313
న	-4.98021
్	-5.00135
లు	-5.09067
ా	-5.13032
ే	-5.22395
ము	-5.25105
ల	-5.332
కి	-5.40324
▁జిల్లా	-5.44834
ాన్ని	-5.52214
తో	-5.52333
▁మరియు	-5.62269
క	-5.65005
ానికి	-5.65045
ీ	-5.74639
▁ఉన్న	-5.92924
వ	-5.93753
ంగా	-5.94435
▁అని	-5.95621
ది	-5.96139
▁కూడా	-5.96913
▁ఉంది	-5.97323
మ	-6.01147
▁అనే	-6.01461
ూ	-6.0166
నే	-6.03512
త	-6.03532
▁నుండి	-6.0511
గ	-6.08236
ర	-6.10151
▁ఆంధ్ర	-6.11845
▁తెలుగు	-6.12019
ుడు	-6.16292
ప	-6.16977
డు	-6.18732
ాడు	-6.23529
ారు	-6.23695
▁ఇది	-6.24912
ో	-6.27246
ర్	-6.27813
▁అ	-6.28722
▁ఉన్నాయి	-6.29973
పు	-6.3146
మైన	-6.36305
స్	-6.37043
య	-6.37314
ట	-6.39169
ులు	-6.40001
ాలు	-6.40836
వి	-6.46043
▁శ్రీ	-6.47079
రు	-6.50214
▁తరువాత	-6.55267
స	-6.56411
▁ప్రదేశ్	-6.57762
న్	-6.59892
▁చాలా	-6.62743
ాయి	-6.64789
▁వారి	-6.6513
▁క	-6.68055
ల్	-6.7011
▁భారత	-6.73345
ద	-6.73866
▁ప	-6.74454
▁జిల్లాలో	-6.74456
ె	-6.75002
డ	-6.75731
▁చెందిన	-6.75763
ైన	-6.76894
▁ఆ	-6.77332
▁కొన్ని	-6.77391
రి	-6.77475
▁లోని	-6.80266
ిన	-6.82707
▁ఇక్కడ	-6.83104
▁పెద్ద	-6.83291
టి	-6.84877
ణ	-6.85475
▁పేరు	-6.85837
▁వ	-6.86639
ంది	-6.87349
లను	-6.87593
▁బ	-6.89314
ై	-6.89547
ంలో	-6.91703
పై	-6.92225
▁మ	-6.92652
▁గ	-6.94482
న్న	-6.94651
▁రాష్ట్ర	-6.95188
▁లేదా	-6.95998
▁ఎ	-6.96455
▁దీని	-6.96908
▁నుంచి	-6.97055
▁న	-6.98294
▁గోదావరి	-6.99788
▁ఆయన	-7.00526
డం	-7.00711
▁ముఖ్య	-7.00827
▁త	-7.00867
▁విజయవాడ	-7.00964
▁స	-7.01797
▁నది	-7.02156
▁మీద	-7.02424
▁రెండు	-7.02503
జ	-7.0254
▁హైదరాబాదు	-7.03329
వు	-7.04494
ాల	-7.0543
▁ఉంటుంది	-7.05646
▁మధ్య	-7.07289
▁ఉన్నది	-7.084
ధ	-7.08709
లోని	-7.08987
తి	-7.09112
▁స్వామి	-7.09117
బ	-7.1174
▁అతని	-7.11875
▁తూర్పు	-7.12708
డానికి	-7.13317
హ	-7.13915
▁యొక్క	-7.15924
▁వరకు	-7.16706
▁ద్వారా	-7.16945
▁ప్రధాన	-7.17538
▁అంటారు	-7.19277
నూ	-7.19763
ొ	-7.20068
నీ	-7.20472
▁వద్ద	-7.20578
▁కానీ	-7.22236
▁దూరంలో	-7.22671
▁వంటి	-7.23199
▁వారు	-7.24232
శ	-7.24264
లా	-7.24989
నా	-7.25332
చ	-7.25735
▁ఇతర	-7.26837
▁నగర్	-7.27076
▁చ	-7.2788
మ్మ	-7.2815
ింది	-7.28254
▁కర్నూలు	-7.28255
▁ఒకటి	-7.2886
గు	-7.29072
▁చిన్న	-7.31149
▁అది	-7.32425
ంచ	-7.32901
▁జాతీయ	-7.3354
దు	-7.33651
▁భాష	-7.33731
చే	-7.3381
▁అనేక	-7.33912
ంత	-7.34397
డి	-7.34542
▁పాల	-7.35002
▁దక్షిణ	-7.35957
ుల	-7.36192
లతో	-7.37072
ములు	-7.38132
లకు	-7.38413
▁కవి	-7.38812
▁ఉత్తర	-7.38853
▁కాలంలో	-7.40037
▁ఇ	-7.40069
ముగా	-7.40472
రా	-7.40581
డ్	-7.41394
▁ప్రముఖ	-7.41603
▁అను	-7.41781
▁దాని	-7.42016
▁గ్రామ	-7.42019
▁కడప	-7.42249
▁అతి	-7.43068
ల్లో	-7.43485
▁జ	-7.44217
మని	-7.4486
▁జాతీయం	-7.45302
భ	-7.45543
▁అరటి	-7.46094
య్య	-7.46354
వారు	-7.46551
ిక	-7.46966
▁హ	-7.4697
మే	-7.47309
▁గురించి	-7.47571
ట్	-7.4789
లి	-7.48126
▁ప్రకారం	-7.48168
లలో	-7.48215
▁వి	-7.48439
▁అంటే	-7.48631
▁వల్ల	-7.48814
▁మహబూబ	-7.48917
టం	-7.49029
▁ప్రతి	-7.49261
▁కా	-7.49324
▁చేసి	-7.49577
▁కాని	-7.49671
నుండి	-7.49799
▁వ్యవస్థ	-7.49816
▁తిక్కన	-7.49981
▁ప్రస్తుత	-7.50159
▁అయిన	-7.50173
వే	-7.50174
▁రామ	-7.51088
▁తిరుపతి	-7.51214
▁తిరుమల	-7.51471
▁కృష్ణా	-7.51498
▁కలవు	-7.52399
▁క్రీ	-7.52962
ాన	-7.54781
▁మహా	-7.54906
▁అభివృద్ధి	-7.55434
▁అక్కడ	-7.55701
క్ష	-7.55987
▁వచ్చిన	-7.55999
▁ఇలా	-7.56943
▁గుంటూరు	-7.57884
మి	-7.58585
▁రాష్ట్రంలో	-7.58613
▁ఆలయం	-7.59218
వా	-7.59248
చి	-7.59862
▁చరిత్ర	-7.60655
▁నెల్లూరు	-7.60679
▁ప్రాంత	-7.61137
▁మూడు	-7.61414
▁ప్ర	-7.61439
▁అన్నమయ్య	-7.62049
▁వరంగల్	-7.62347
▁ప్రాంతంలో	-7.626
▁చేసిన	-7.62645
లేదు	-7.62677
▁జన	-7.62952
మ్	-7.64543
▁ఎన్నో	-7.65037
▁కోసం	-7.65229
▁సినిమా	-7.6603
్య	-7.66072
▁ఎక్కువ	-7.66386
▁తెలంగాణ	-7.66402
▁య	-7.66734
యు	-7.67741
▁ప్రసిద్ధి	-7.6902
▁ఖమ్మం	-7.69346
కీ	-7.69354
సి	-7.70987
ప్పుడు	-7.71024
▁అనగా	-7.71754
▁ఇక్కడి	-7.71787
ప్ప	-7.71998
త్త	-7.72186
▁ద	-7.72346
▁ఉంటాయి	-7.72468
▁వివిధ	-7.7305
▁చేసే	-7.73585
▁కొత్త	-7.73778
▁రాష్ట్రం	-7.74105
▁శ	-7.74483
లోనే	-7.74556
▁కోట	-7.7465
ంటే	-7.74759
▁చెప్ప	-7.74861
ాల్లో	-7.74883
▁కంప్యూటర్	-7.75199
కా	-7.75401
▁ఆమె	-7.76037
▁మాత్రమే	-7.76307
▁మొదటి	-7.76532
ంద	-7.76533
▁ప్రత్యేక	-7.77144
▁నీరు	-7.77159
రావు	-7.77187
▁వచ్చింది	-7.77199
▁కలిగి	-7.77351
▁కనుక	-7.7765
▁తర్వాత	-7.7798
▁జిల్లాలు	-7.78168
ష	-7.78228
▁నిర్వహణ	-7.78317
ంగ	-7.7845
ాలను	-7.78611
▁ర	-7.78835
కుండా	-7.78843
▁వలన	-7.78844
ంతో	-7.79007
▁ఇవి	-7.79229
▁మొదలైన	-7.79235
▁జనాభా	-7.79338
▁వీటి	-7.79481
▁పని	-7.79532
▁కాల	-7.79591
ించి	-7.79597
ాలి	-7.8055
▁ఆంధ్రప్రదేశ్	-7.81088
ింగ్	-7.81343
▁రహదారి	-7.81484
▁కలదు	-7.82498
▁వారికి	-7.82988
▁పాటు	-7.8341
▁జిల్లాలోని	-7.84124
ళ	-7.84632
▁రెండవ	-7.84635
▁ఇంకా	-7.8473
▁పశ్చిమ	-7.84849
▁రైలు	-7.84964
▁తండ్రి	-7.85031
తా	-7.85123
స్త	-7.85677
▁గొప్ప	-7.85916
▁ఏ	-7.86051
▁ల	-7.86421
▁రోజు	-7.86681
▁చేయ	-7.87029
▁వా	-7.87161
▁అదే	-7.87338
ండ	-7.8757
▁అన్న	-7.88016
▁రాజులు	-7.88128
▁మద్రాసు	-7.88272
ద్ద	-7.88375
▁మొత్తం	-7.88465
ూరు	-7.88759
▁ప్రభుత్వ	-7.88859
▁అలాగే	-7.89048
దా	-7.89227
▁భూమి	-7.89378
ార	-7.89415
▁రచించిన	-7.89559
▁కొండ	-7.89803
▁అన్ని	-7.90593
▁రాజధాని	-7.90785
▁నా	-7.91229
▁కాదు	-7.91237
▁దేశంలో	-7.91927
గల	-7.92017
▁ఒంగోలు	-7.92082
▁కంప్యూటరు	-7.92087
కో	-7.92262
క్	-7.92332
▁సుమారు	-7.92477
▁వెళ్ళి	-7.92665
ందుకు	-7.92956
మున	-7.93076
▁అవి	-7.93174
▁ఉండ	-7.9424
▁విజయనగర	-7.94463
▁కృష్ణ	-7.94566
త్ర	-7.94642
▁సమయంలో	-7.95346
▁మిగిలిన	-7.9546
▁రాజు	-7.95606
▁పట్టణ	-7.96028
▁ప్రాంతం	-7.96067
▁మంది	-7.96202
వచ్చు	-7.96237
▁ఆర్	-7.96618
▁మంచి	-7.96958
▁ము	-7.96965
▁ముందు	-7.97228
స్వామి	-7.97247
పల్లి	-7.97328
▁దేశము	-7.98338
లొ	-7.98787
నది	-7.98911
▁దగ్గర	-7.98916
▁నాగ	-7.98926
▁పట్టణం	-7.99027
▁అలా	-7.99226
▁త్యాగరాజు	-7.99581
ాయ	-7.99663
▁తొలి	-7.99914
▁జరిగిన	-8.00412
▁కొ	-8.00544
ములో	-8.00554
ిత	-8.00694
ళ్ళు	-8.00705
▁తెలుగులో	-8.00717
ుకొని	-8.00833
యా	-8.00951
▁కిలోమీటర్ల	-8.00952
▁ఉ	-8.0101
▁భార్య	-8.01038
ట్లు	-8.01261
సు	-8.01311
▁చిత్తూరు	-8.01439
▁రా	-8.01459
ష్ట	-8.01687
యి	-8.01809
లే	-8.01816
▁పార్టీ	-8.01816
మా	-8.01921
▁ప్రకాశం	-8.02028
▁కూడ	-8.02143
కొ	-8.02426
▁అప్పుడు	-8.02621
▁కర్ణాటక	-8.03178
▁ఎస్	-8.03222
▁నాలుగు	-8.03265
▁నగరం	-8.03611
▁కాక	-8.0411
▁ఎక్కువగా	-8.04233
▁ముఖ్యమైన	-8.04342
ప్ర	-8.04554
▁కుమారుడు	-8.04593
ద్	-8.04665
▁కేంద్రం	-8.04667
▁వాటి	-8.04867
▁సంవత్సరాల	-8.049
▁కలిపి	-8.04912
▁ఈయన	-8.04928
ంట	-8.05193
లాంటి	-8.05198
▁ఈ	-8.0534
▁కనిపిస్తుంది	-8.05355
▁మన	-8.05459
▁తిరిగి	-8.05797
▁దేవ	-8.05949
ండి	-8.06109
▁అంత	-8.06341
▁గుండా	-8.06572
ించిన	-8.06794
రీ	-8.06931
▁విధంగా	-8.07471
▁బాగా	-8.07487
▁సం	-8.07503
▁ముఖ్యమంత్రి	-8.07614
▁జరిగింది	-8.07625
▁గ్రామం	-8.07634
▁లేదు	-8.08343
▁మాట	-8.08358
▁అంద	-8.0858
ుతుంది	-8.08677
▁సంగీత	-8.08954
పో	-8.0907
రాజు	-8.09265
▁లాంటి	-8.09307
▁రైల్వే	-8.09421
▁పొంద	-8.09526
టానికి	-8.09593
▁కాకతీయుల	-8.09641
▁వచ్చి	-8.10253
▁దీనికి	-8.10382
క్క	-8.10386
▁తప్ప	-8.10689
మై	-8.10705
టు	-8.10959
్ర	-8.11386
▁ఏర్పాటు	-8.1144
▁నన్నయ	-8.11604
యో	-8.11646
▁రాష్ట్రము	-8.11783
▁లేని	-8.12099
ంబ	-8.12338
▁ఉండే	-8.12471
కే	-8.12545
నకు	-8.12735
▁వేల	-8.12783
▁వంశ	-8.13008
▁కాలం	-8.1354
▁మెదక్	-8.13671
దే	-8.13756
గి	-8.13794
▁సు	-8.13855
▁రాజ్య	-8.14004
▁అన	-8.14046
ికి	-8.14377
▁అయిత	-8.14416
▁ఇతని	-8.14422
▁వాడ	-8.14438
ధి	-8.1479
▁ప్రపంచ	-8.14805
▁చేశారు	-8.14929
గానే	-8.15082
ష్	-8.15155
▁చెన్న	-8.1521
▁శతాబ్దం	-8.15294
▁రెడ్డి	-8.15736
ంచి	-8.15775
▁అప్పటి	-8.15981
▁రాజ	-8.16022
▁విశాఖపట్నం	-8.16114
▁నగర	-8.16136
▁మా	-8.16148
థ	-8.16151
లోనూ	-8.16225
▁నరసింహ	-8.16614
▁పో	-8.16644
▁బ్రహ్మ	-8.16737
▁బాల	-8.17262
▁వచ్చే	-8.17402
▁ప్రాచీన	-8.17523
వ్వ	-8.17538
▁ఆలయ	-8.17627
▁పంట	-8.1774
త్	-8.17981
▁వాడుకలో	-8.18619
న్నీ	-8.19087
▁వీరు	-8.19209
▁ప్రజల	-8.19384
▁ఒక	-8.19438
▁వర్గం	-8.19448
▁నీటి	-8.197
▁మరో	-8.1983
▁తెలంగాణా	-8.20214
▁భ	-8.20856
ేశ్వర	-8.2097
▁సంస్థ	-8.20994
▁కలిగిన	-8.21041
ాది	-8.21166
▁కాకుండా	-8.21262
ౌ	-8.21656
▁రాసిన	-8.21664
మునకు	-8.21927
▁మె	-8.22146
▁నదులు	-8.22291
▁మరొక	-8.22292
▁అడవి	-8.22747
▁కారణంగా	-8.22856
▁వీరి	-8.22921
▁ఉండేది	-8.23058
ఖ	-8.23075
▁గ్రామంలో	-8.23189
▁దేశ	-8.23529
▁ఇంటి	-8.23569
▁కొంత	-8.23598
▁లేక	-8.23797
▁నాటి	-8.23816
▁సా	-8.23862
వాడు	-8.23964
ుటకు	-8.24051
▁తయారు	-8.24238
మీద	-8.24309
▁పిండి	-8.24532
▁చూసి	-8.24984
▁పర	-8.25246
▁విజయ	-8.25375
ంబు	-8.25654
ృ	-8.2584
▁చక్రవర్తి	-8.25999
▁రకాల	-8.26349
▁సంఖ్య	-8.26627
తే	-8.27131
తు	-8.27191
▁పె	-8.27219
▁సాహిత్య	-8.27259
▁ప్రజలు	-8.27486
▁వాటిని	-8.27561
▁గు	-8.27819
కూ	-8.27847
మును	-8.28142
ళ్ళ	-8.28419
▁మనం	-8.2868
▁దక్షిణాన	-8.2883
వారి	-8.28996
▁లోక	-8.29082
▁మొ	-8.2954
▁పలు	-8.29707
వల్ల	-8.29745
▁కలిసి	-8.29758
▁పు	-8.29786
▁హిందూ	-8.29852
కాల	-8.29949
ిని	-8.29983
▁సర్వ	-8.30198
▁కృష్ణుని	-8.30276
▁గుడి	-8.30359
▁హైదరాబాద్	-8.30421
▁భాషలో	-8.30454
▁మనము	-8.30621
లోకి	-8.3075
▁సందర్భాల్లో	-8.31001
ింప	-8.31028
▁సేవ	-8.31102
బ్	-8.31234
▁శాస్త్రము	-8.31327
▁అందులో	-8.3146
▁ప్రాజెక్టు	-8.31495
▁మొల్ల	-8.31568
▁భారతీయ	-8.31695
▁రోడ్డు	-8.31743
యం	-8.31805
▁రాష్ట్రములో	-8.32503
వాడ	-8.32535
▁వీర	-8.32919
▁పద	-8.32969
▁ఏర్పడిన	-8.33034
లుగా	-8.3309
▁పరిపాలన	-8.33315
▁కావ్య	-8.33352
▁చెందింది	-8.33359
▁గ్రామము	-8.33383
▁మొదట	-8.33454
▁ఎంతో	-8.33666
▁నేల	-8.33724
కర	-8.3392
ందు	-8.34313
▁సాగు	-8.34368
▁వేర్	-8.34409
ముల	-8.35516
▁చెప్పిన	-8.36195
▁విద్యా	-8.36221
▁మాత్రం	-8.36291
▁శ్రీశ్రీ	-8.36348
▁పాత	-8.36817
▁భక్తుల	-8.36845
ాలకు	-8.36852
▁నిజాం	-8.36897
▁తన	-8.37189
ప్	-8.37608
▁పాలన	-8.37621
▁పూర్వం	-8.37741
▁పాలు	-8.37815
▁ఖ	-8.37855
ుడైన	-8.38217
చు	-8.38252
ట్ట	-8.38278
టా	-8.38352
▁స్థాయి	-8.38464
▁ఆది	-8.38788
▁అందుక	-8.38881
▁వరి	-8.3936
▁దేవాలయము	-8.39584
▁సమ	-8.39784
▁ప్రోగ్రాము	-8.39948
▁రవాణా	-8.3998
▁మూల	-8.40007
▁గారి	-8.40452
▁శ్రీశైలం	-8.40625
▁రాజధానిగా	-8.40845
▁ఇప్పుడు	-8.41042
▁చె	-8.41096
▁లక్షల	-8.41099
▁దేవాలయం	-8.41121
▁మే	-8.4114
▁తాను	-8.41378
నో	-8.41468
▁లలో	-8.418
▁నారాయణ	-8.41811
▁దాదాపు	-8.41912
▁వై	-8.42275
▁వ్యాపార	-8.42326
▁చేర	-8.42655
▁చూడ	-8.42801
▁మండలం	-8.42863
చ్చ	-8.42987
▁ఎంత	-8.43066
ాలలో	-8.43666
ించాడు	-8.43683
▁చేత	-8.4376
▁ప్రసిద్ధ	-8.43834
▁విష్ణువు	-8.43894
▁పై	-8.44014
▁ఇందులో	-8.44169
▁నగరము	-8.44242
▁ఒడ్డున	-8.44266
▁విశేష	-8.44272
రెడ్డి	-8.44387
▁రంగ	-8.44441
▁రాజమండ్రి	-8.44468
▁పడ	-8.44559
▁పరి	-8.44628
▁పైన	-8.44629
దల	-8.44992
ిస్తుంది	-8.45024
▁జిల్లాల	-8.45135
▁కేంద్ర	-8.45275
▁అర్ధం	-8.45398
▁చంద్ర	-8.45757
▁స్థానాలు	-8.45828
▁భాషా	-8.45881
▁ఆనంద	-8.45899
▁బా	-8.46074
▁ఏడు	-8.46165
ాన్	-8.46193
▁క్రింద	-8.46347
▁జరుగుతుంది	-8.46462
▁ట	-8.46468
▁నందు	-8.46656
▁ఒక్క	-8.46664
▁పా	-8.46717
▁కో	-8.4679
▁పట్టణము	-8.46834
ైనా	-8.47058
▁కృష్ణుడు	-8.47096
వర్	-8.4711
థి	-8.47265
పాల	-8.47345
▁స్థానంలో	-8.47429
కొండ	-8.47557
కం	-8.47573
▁నల్ల	-8.47644
▁కాకతీయ	-8.48169
బడిన	-8.48299
▁ప్రయోగంలో	-8.48464
▁ఆధునిక	-8.48482
▁భూ	-8.48767
▁అల్ల	-8.48844
▁భాగం	-8.48901
ట్టు	-8.48995
▁పిలుస్తారు	-8.49169
మీ	-8.49227
ెను	-8.49285
▁శక్తి	-8.49397
▁మి	-8.49422
▁ఫ	-8.4946
▁భాగ	-8.49595
▁ష	-8.49693
వరకూ	-8.49776
్యా	-8.49832
▁భారతదేశంలో	-8.49932
▁పట్ట	-8.50093
▁రచన	-8.50146
▁సంస్కృతి	-8.50328
▁నిజామాబాదు	-8.50551
▁పంచ	-8.50567
▁ఎలా	-8.50642
ాస	-8.50774
▁ఉండి	-8.50793
▁అధిక	-8.51041
▁మార్గం	-8.51074
▁తాళ్ళపాక	-8.51251
▁వ్యవసాయ	-8.51306
▁ఒకే	-8.51429
ుతూ	-8.51596
▁సత్య	-8.51663
▁కల	-8.51735
▁మొదలు	-8.51754
▁పచ్చ	-8.51946
▁నల్గొండ	-8.51954
ితే	-8.51983
▁రోజుల	-8.5202
▁రామాయణం	-8.5206
▁సమీప	-8.52363
▁తక్కువ	-8.52465
▁సాధారణ	-8.52579
▁తుంగభద్ర	-8.52663
▁తర	-8.52697
▁వాటిలో	-8.52764
▁జాతి	-8.52827
పేట	-8.52841
▁ఆరు	-8.52873
▁సూర్య	-8.52878
స్తూ	-8.52923
▁గారు	-8.52968
▁ప్రపంచంలో	-8.5298
ట్టి	-8.53199
▁పూర్తి	-8.53214
▁భావం	-8.53312
▁జరిగే	-8.53378
▁మానవ	-8.53385
▁భారతదేశం	-8.535
యిన	-8.53595
రే	-8.5365
▁చెప్పి	-8.53748
ట్ల	-8.53811
ుంది	-8.53904
ించారు	-8.53928
▁కోస్తా	-8.54107
ాక	-8.5411
▁అర్థం	-8.54181
▁ప్రదేశం	-8.54199
మూ	-8.54292
రో	-8.54741
దని	-8.54759
▁కూచిపూడి	-8.54822
▁చేస్తారు	-8.54832
మైనది	-8.54837
పా	-8.54884
▁చేసాడు	-8.5489
▁డ	-8.54953
▁పోతన	-8.5505
▁నన్నయ్య	-8.55066
▁సిద్ధ	-8.55173
గిరి	-8.55197
▁రూపంలో	-8.55482
▁రాముడు	-8.55621
ుచు	-8.55764
ాలని	-8.55861
▁పాత్ర	-8.55943
▁అర్థంలో	-8.5601
సం	-8.56175
స్థ	-8.56182
▁లక్ష్మీ	-8.56271
▁పూర్తిగా	-8.56495
ిస్తూ	-8.56708
▁సంస్కృత	-8.5693
▁జీవిత	-8.57
▁స్వ	-8.57011
▁నేటి	-8.57051
▁లేకుండా	-8.57054
▁కొండల	-8.5732
లూ	-8.57343
▁తల్లి	-8.57363
సాధారణంగా	-8.57467
▁కేంద్రము	-8.5755
▁బట్టి	-8.57592
▁ముగ్గుర	-8.57774
▁ఉత్పత్తి	-8.57778
▁శివ	-8.57843
▁మండలాలు	-8.57977
జ్	-8.57989
టువంటి	-8.58001
కార	-8.58016
▁పుట్ట	-8.58035
▁మీర	-8.5828
▁మర	-8.58372
▁నిర్మాణ	-8.58508
▁తెనాలి	-8.58526
పురం	-8.58601
▁జన్మించారు	-8.58618
▁భక్తి	-8.58739
పప్పు	-8.58842
▁చే	-8.58919
▁రాతి	-8.58995
▁ఎన్	-8.59144
▁భద్రాచలం	-8.59241
▁కరీంనగర్	-8.59283
గో	-8.59562
▁ధర్మ	-8.59718
▁చి	-8.60155
▁ఉత్తరా	-8.60281
రణ	-8.60533
రంగ	-8.60577
▁భాగము	-8.60852
▁పొ	-8.60852
▁ప్రాథమిక	-8.60856
▁విషయం	-8.61215
▁బు	-8.61269
▁విష్ణు	-8.61348
▁అతడ	-8.61392
▁భావ	-8.61456
▁వె	-8.61471
▁జానపద	-8.61595
ఆర్	-8.6173
▁ప్రబంధ	-8.61742
ులకు	-8.61834
బడింది	-8.61864
▁యుద్ధ	-8.61989
▁సి	-8.62114
▁గర్భం	-8.62547
▁రచించాడు	-8.62635
గ్	-8.62744
▁బయట	-8.62816
▁పర్యాటక	-8.62985
▁వినియోగదారు	-8.63184
▁సంవత్సరం	-8.63241
▁ప్రభుత్వం	-8.63351
్లో	-8.63413
▁నగరంలో	-8.63457
▁మండల	-8.63748
స్తుంది	-8.63791
ణి	-8.63862
▁కొందరు	-8.63954
▁ప్రవహిస్త	-8.64124
▁పొందిన	-8.64245
▁అర్ధ	-8.64524
▁మహారాజు	-8.64537
▁ఆరోగ్య	-8.64632
▁విశ్వ	-8.64665
యే	-8.64723
▁వ్యక్తి	-8.64726
▁ఇందు	-8.64754
▁కాయ	-8.64896
▁బస్సు	-8.64902
▁సముద్ర	-8.64915
న్ని	-8.64996
సాని	-8.65199
ాడని	-8.65257
▁వీటిలో	-8.65331
▁పాట	-8.65418
▁గోన	-8.65619
▁తెల్ల	-8.65625
▁చిక్కుడు	-8.6563
▁శ్రీకాకుళం	-8.65743
ులను	-8.65815
▁దేశం	-8.65858
▁చెయ్య	-8.65928
▁గంగ	-8.65972
▁అధికార	-8.6601
▁స్థానం	-8.66088
▁పాఠశాల	-8.66109
▁స్ప	-8.66187
▁రచనలు	-8.66193
▁దిశ	-8.66391
కూర	-8.66484
▁దా	-8.66595
▁సమీపంలో	-8.66697
▁శైలి	-8.66902
ారెడ్డి	-8.67131
▁రకరకాల	-8.67196
▁సీత	-8.67285
▁జన్మించాడు	-8.67295
▁పూర్వము	-8.67648
త్వ	-8.67687
లేరు	-8.67896
▁అడవుల	-8.67936
▁భాగంగా	-8.68009
▁అదిలాబాదు	-8.68019
▁మహారాష్ట్ర	-8.68033
▁భాగవతము	-8.68202
శి	-8.68441
▁చెప్పాడు	-8.68515
ద్ధ	-8.68706
చె	-8.68746
▁కొరక	-8.68763
బడి	-8.68816
▁చేస్తున్న	-8.68818
▁తపస్సు	-8.68909
▁ఆఫ్	-8.6892
ర్మ	-8.6898
ాలతో	-8.69105
డంతో	-8.69157
▁వే	-8.69179
పాడు	-8.69215
▁వీ	-8.69266
▁మహ	-8.69484
ుట	-8.69635
▁ఉపయోగించ	-8.6965
▁మహర్షి	-8.69694
▁చేశాడు	-8.69746
▁దేవి	-8.69763
▁భారతదేశ	-8.69792
వచ్చును	-8.69933
▁పెంచ	-8.70007
▁సౌకర్యం	-8.70147
▁దేవతల	-8.70457
▁బంగాళాదుంప	-8.7054
▁రాయలసీమ	-8.7054
▁శాసనసభ	-8.70547
▁శాతం	-8.70563
▁సాంకేతిక	-8.70573
▁ప్రదేశము	-8.70823
నికి	-8.70843
జా	-8.71142
చేయ	-8.71367
▁వివాహం	-8.7138
▁ప్రోగ్రామ్	-8.71395
▁పుట్టిన	-8.71485
ావ	-8.71654
తుల	-8.71788
▁బహు	-8.72172
▁మూడవ	-8.72315
కాయ	-8.72439
▁వంకాయ	-8.72494
▁పిల్లల	-8.72538
▁పరిశ్రమ	-8.72574
▁గొ	-8.72603
బా	-8.72707
▁రాముని	-8.7274
▁అమ్మ	-8.72845
త్య	-8.72883
▁వాడు	-8.73085
▁అక్షరాస్యత	-8.73142
▁ఉపయోగిస్తారు	-8.73176
ధార	-8.7319
▁వేరు	-8.73478
ాంగ	-8.73532
ారని	-8.73721
▁జూన	-8.73926
▁పండు	-8.73935
▁శ్రీకృష్ణుని	-8.74017
▁తరువాతి	-8.74087
నని	-8.74167
ర్య	-8.74205
▁ఎందుక	-8.74318
▁రాక్షస	-8.74402
నె	-8.74429
▁తల	-8.74542
ించు	-8.74553
కవి	-8.74566
▁బొ	-8.74735
▁నాటికి	-8.7478
▁స్వామివారి	-8.74854
▁యుద్ధం	-8.75001
▁బాధ	-8.7506
క్ర	-8.75111
▁ఆధారంగా	-8.75115
స్తాయి	-8.75232
పడ	-8.75257
▁ఆదిలాబాదు	-8.75311
▁శతాబ్దము	-8.75626
భాగ	-8.75718
▁తదితర	-8.75782
▁ప్రదర్శన	-8.7584
లె	-8.7585
▁తెలుగుదేశం	-8.75883
▁పనులు	-8.75948
దీ	-8.76009
▁పశ్చిమా	-8.76053
▁కవుల	-8.76087
దేవ	-8.76309
ర్ల	-8.76343
▁ప్రయోగం	-8.76384
▁గ్రామాలు	-8.76386
▁విషయ	-8.76421
▁వర	-8.76446
▁శాతవాహనుల	-8.76481
▁దండ	-8.76587
ుడి	-8.7662
▁కే	-8.76699
ుతున్న	-8.76728
▁ఐదు	-8.76739
లేని	-8.76757
▁వేద	-8.76789
▁దానికి	-8.76819
వ్య	-8.76904
▁మొక్క	-8.76944
▁కవులు	-8.77156
▁అవతారము	-8.77201
▁నిర్మించిన	-8.77247
▁అయినా	-8.77411
▁హా	-8.77435
▁శాసన	-8.77443
దో	-8.77563
▁నిల్వ	-8.77592
▁దేవకి	-8.77617
▁గో	-8.77621
▁శతాబ్ద	-8.77633
▁ఒకప్పుడు	-8.77672
▁గురువు	-8.77711
▁పది	-8.77879
▁ఎక్కడ	-8.77881
▁చేయడం	-8.77986
▁ప్రాంతాల	-8.78153
▁దేవాలయ	-8.78209
▁తనకు	-8.78309
మాన	-8.78315
్యం	-8.78341
▁కళాశాల	-8.7845
ఫ	-8.78456
ంప	-8.78594
▁చెట్ల	-8.78663
▁ఇదే	-8.78712
ఘ	-8.79203
ద్య	-8.79239
▁రాగ	-8.79426
▁బంగాళదుంప	-8.79435
▁చేసారు	-8.79522
తం	-8.79633
▁మొట్టమొదటి	-8.79656
ంటి	-8.79803
ఛ	-8.79804
▁వాళ్ళ	-8.79897
▁ప్రాంతాలు	-8.79929
▁కూర	-8.79937
▁యంత్రాల	-8.80012
ెన్	-8.80056
▁కంప్యూటర్లు	-8.80112
డా	-8.80267
▁చాల	-8.80315
▁ఖగోళ	-8.80328
▁బ్రౌన్	-8.80369
▁కోట్ల	-8.8037
▁నిత్య	-8.80619
▁నవ	-8.80706
▁ఉప	-8.80932
▁ప్రాంతము	-8.80937
▁చిత్ర	-8.80972
▁ఇంత	-8.81141
▁చూస్త	-8.81178
▁భక్తులు	-8.81179
▁నిర్	-8.81221
▁రాయ	-8.81264
▁శ్రీమహావిష్ణువు	-8.81313
▁దివ్య	-8.81317
ళ్ల	-8.81354
▁ఫైల్	-8.81378
ంజ	-8.81466
▁చివరి	-8.81636
▁పాడ	-8.81832
ేరు	-8.81892
▁అవసరం	-8.81961
ణం	-8.81995
▁ఇవ్వ	-8.8202
▁దగ్గరలో	-8.82031
ిస్తున్న	-8.82163
▁రుచి	-8.82208
▁సమయ	-8.82225
▁రెవెన్యూ	-8.82265
▁వైష్ణవ	-8.82265
▁చెరసాల	-8.82269
▁స్టేషన్	-8.82271
▁ఉంటే	-8.82362
కుడు	-8.82446
▁మరణ	-8.8248
▁అమెరికా	-8.82514
▁చక్ర	-8.82529
ఠ	-8.82617
▁వేమన	-8.82695
▁కథ	-8.83073
▁పూర్వ	-8.83091
▁పర్వత	-8.83114
▁క్రీస్తు	-8.8323
▁గురు	-8.83252
▁వార్డు	-8.83302
▁చాళుక్యుల	-8.83394
▁క్రింది	-8.83437
▁రామాయణము	-8.8348
▁సంబంధించిన	-8.83489
▁హరి	-8.83614
▁రాష్ట్రాలు	-8.83674
▁స్	-8.83677
▁కట్ట	-8.83803
▁ఉదాహరణ	-8.8425
▁స్వాతంత్ర్య	-8.84311
మో	-8.84315
▁వ్రాసిన	-8.84331
యందు	-8.84817
ద్ర	-8.84991
▁ప్రసాద	-8.85205
▁బొమ్మ	-8.85228
▁వున్న	-8.85623
ిస్తారు	-8.85737
దన	-8.85811
▁సామ్రాజ్య	-8.85825
▁వంటివి	-8.85989
సా	-8.8599
▁కింద	-8.86016
▁పరమ	-8.86063
▁మిరప	-8.86086
▁సరి	-8.86112
▁ఈశాన్య	-8.86168
▁ద్విపద	-8.86171
▁ఒక్కొక్క	-8.86177
ణా	-8.86257
▁వస్తుంది	-8.86443
▁ఉంచ	-8.86453
▁ఇతన	-8.86668
▁చంప	-8.86825
▁బంగారు	-8.86835
వీ	-8.86875
▁వెళ్ళ	-8.86933
బ్బ	-8.87073
ార్థ	-8.8715
▁బ్రాహ్మణ	-8.87165
▁వాణిజ్య	-8.87168
▁కేవల	-8.87172
▁ఉప్పు	-8.87173
▁అతిపెద్ద	-8.87185
▁గాని	-8.87211
▁రాజకీయ	-8.87235
▁చెందినది	-8.87336
▁చూసిన	-8.87491
లీ	-8.87632
▁కూ	-8.87661
▁అల	-8.87675
▁ప్రాంతాలలో	-8.87761
▁పుణ్యక్షేత్ర	-8.87869
▁రే	-8.88154
▁కూడిన	-8.88184
▁దిగువ	-8.88188
▁ఈమె	-8.88203
▁ఉండును	-8.88233
▁రామాయణ	-8.88249
న్నాయి	-8.88297
ేషన్	-8.88319
ునికి	-8.88319
▁క్షేత్రము	-8.88333
▁ఇచ్చిన	-8.88354
▁తీర	-8.88427
▁పొడి	-8.88441
ిక్	-8.88475
ర్చ	-8.88605
▁పంప	-8.88639
▁చేసింది	-8.88656
▁ముందుగా	-8.88697
▁విన	-8.88749
▁యుగము	-8.88752
రుగు	-8.88933
డము	-8.89194
▁అనంతపురం	-8.89209
▁తమిళనాడు	-8.89213
ేది	-8.89241
▁తెర	-8.89287
▁బస్సులు	-8.89322
▁నె	-8.89377
▁వరంగల్లు	-8.8938
▁లా	-8.89541
▁సాగ	-8.89549
▁కనిపించ	-8.89568
▁చివర	-8.89789
▁మీ	-8.89811
▁అనుసరించి	-8.89848
▁అనీ	-8.89888
▁గ్రంథ	-8.89937
▁ప్రవేశించి	-8.89991
▁అంశ	-8.90031
▁విన్న	-8.90088
గ్గ	-8.90118
▁జన్మ	-8.90131
▁మండలంలో	-8.90219
ల్లు	-8.90241
▁చేస్తూ	-8.90259
బడ్డాయి	-8.90309
▁మీదుగా	-8.904
▁ఎత్తు	-8.90579
▁బ్ర	-8.9059
నాడు	-8.906
▁పాలించిన	-8.90747
పద	-8.90895
ిస్తాడు	-8.91002
వరం	-8.9109
▁ఇంద్ర	-8.91125
▁ప్రతీ	-8.91175
హా	-8.91227
▁నాగార్జున	-8.91271
▁కాంగ్రెస్	-8.91271
▁కుమార్తె	-8.91272
▁ఏలూరు	-8.91287
ాద్రి	-8.9134
లైన	-8.91394
షి	-8.91401
▁ప్రత్యేకత	-8.91621
▁ఉండేవి	-8.91631
▁అవ	-8.91664
▁అధికంగా	-8.91688
▁కాయలు	-8.91713
▁అక్షర	-8.9192
▁మహాభారత	-8.9194
▁కలన	-8.91943
▁రంగా	-8.92003
▁శరీర	-8.92134
▁నదుల	-8.92236
న్నది	-8.92278
▁భద్ర	-8.92324
▁ఇటీవల	-8.92324
▁బెంగళూరు	-8.92324
▁విప్లవ	-8.92324
▁కాబట్టి	-8.92324
▁కొడుకు	-8.92334
▁ఇండియా	-8.92338
▁చెట్టు	-8.92604
▁అవకాశ	-8.92713
▁పడి	-8.92767
▁పాటల	-8.92794
▁సరిహద్దులు	-8.92834
▁పాప	-8.92891
▁ఊరగాయలు	-8.92902
ెల్	-8.92935
పరంగా	-8.93141
▁జిల్లాలలో	-8.93213
▁సాహిత్యం	-8.93286
▁వైఎస్	-8.93388
▁వార	-8.93569
ృత	-8.93576
▁భాగవత	-8.93744
మయిన	-8.9395
▁ఆడ	-8.94003
చేసి	-8.94147
▁కోర	-8.94306
▁ఉన్నారు	-8.94321
ార్	-8.94345
▁స్టేషను	-8.94464
రాయ	-8.94557
పురి	-8.94915
▁వైపు	-8.94939
▁కంటే	-8.94944
జ్ఞ	-8.95037
అ	-8.95167
▁వెల	-8.95182
▁కేంద్రంగా	-8.95231
త్యంత	-8.9527
▁తమిళ	-8.95485
▁గద్వాల	-8.9555
▁భగవంతుని	-8.9555
▁పేరుతో	-8.9557
▁కళాకారుల	-8.95673
▁ఆన	-8.95684
పతి	-8.95726
▁చూప	-8.95754
సె	-8.95765
▁పొందింది	-8.95775
గాను	-8.95817
▁సంతానం	-8.95836
▁శ్రీరామ	-8.96061
▁బల	-8.9617
▁సమయం	-8.96196
▁అందుకు	-8.96303
బు	-8.96369
▁తాత	-8.96433
▁ఐ	-8.96534
▁టమాటో	-8.96649
▁కొద్ది	-8.96656
▁ప్రక్రియ	-8.96657
▁శాస్త్రీయ	-8.96657
▁పి	-8.96713
▁జిల్లాను	-8.96827
ర్వ	-8.96835
▁చక్క	-8.96888
▁ప్రాంతానికి	-8.96919
▁ముంద	-8.96922
ిల్లీ	-8.96964
సారి	-8.97067
తీ	-8.97069
▁పూజ	-8.97123
▁సంవత్సరాలు	-8.97328
నట్లు	-8.97348
▁కీర్తనలు	-8.97353
▁నేను	-8.97369
▁జీవ	-8.97419
▁అక్క	-8.97557
▁దొంగ	-8.97568
పూర్	-8.97598
ండు	-8.97658
▁అయ్య	-8.97669
▁ద్రాక్ష	-8.9776
▁రక్షణ	-8.97763
▁నవాబు	-8.97774
▁గ్రహ	-8.97837
▁అగ్ని	-8.97874
▁నాట్య	-8.97908
▁చోళుల	-8.97917
▁అన్నీ	-8.98022
▁ఒకరి	-8.9803
▁పద్యాలు	-8.98161
▁అయి	-8.98176
▁శాఖ	-8.98274
▁మాట్లాడ	-8.98346
▁క్షేత్రం	-8.98379
వాళ్ళు	-8.98485
▁పెట్ట	-8.98486
▁అవతారాల	-8.9853
▁ఎప్పుడ	-8.98532
▁జ్ఞాన	-8.98687
▁అమలు	-8.98876
▁గుర్తింపు	-8.98884
▁తీసుకు	-8.98954
▁ప్రదేశాల	-8.99026
▁వున్నాయి	-8.9915
▁వర్ణన	-8.99186
▁పరిశ్రమలు	-8.99191
ాడ	-8.99326
ుకునే	-8.99356
▁విమానాశ్రయం	-8.99381
వరి	-8.99417
▁పుస్తకం	-8.99501
రూప	-8.99501
హార	-8.9955
▁సంవత్సర	-8.99566
వరకు	-8.99787
▁మామిడి	-8.99796
ుతారు	-8.99866
▁ఆధార	-8.99867
▁లెక్క	-8.99894
నుడు	-9.00008
▁వ్యతిరేక	-9.0002
▁విస్తీర్ణం	-9.0002
▁పెళ్ళి	-9.00021
▁నూతన	-9.00022
▁పల్లవుల	-9.00074
ున్నాయి	-9.00175
▁కారం	-9.00183
▁మేర	-9.00217
▁మద్య	-9.00228
▁తగ్గ	-9.0031
▁కుటుంబ	-9.00369
▁మాట్లాడే	-9.00416
▁గాలి	-9.0044
▁సమస్య	-9.00458
రం	-9.00479
▁సర	-9.00575
▁రాత్రి	-9.00654
▁ముని	-9.00716
▁కంపెనీ	-9.00733
క్త	-9.00775
వారికి	-9.00799
▁విధ	-9.00942
▁జాతీయాన్ని	-9.01006
▁ఆమెను	-9.01053
▁రావు	-9.01058
▁తాగ	-9.01072
▁మొక్కల	-9.01096
▁కవయిత్రి	-9.01169
▁టెక్నాలజీ	-9.01169
▁సరఫరా	-9.01169
▁వెనుక	-9.01177
▁పేర	-9.01201
▁దేశములో	-9.01324
దేశ	-9.01324
▁కార్య	-9.01325
రవాత	-9.01345
▁ప్రఖ్యాత	-9.01416
▁వెలసి	-9.01596
▁వేడి	-9.01681
తులు	-9.01693
▁కర	-9.01881
పాక	-9.0193
▁భారతము	-9.01952
వాస	-9.0207
▁నిఘంటువు	-9.02082
▁ఇద్దరు	-9.02119
ఫ్	-9.02171
▁నాటక	-9.02217
▁శ్రీకృష్ణుడ	-9.02301
▁చూడండి	-9.02392
▁విస్తరించి	-9.02438
▁తయారీ	-9.02457
▁రాష్ట్రాల	-9.02534
▁ప్రాంతాల్లో	-9.0255
ధ్య	-9.02617
▁మహాభారతం	-9.02617
▁ఒకరు	-9.02688
▁నిర్మించాడు	-9.02779
▁చుట్ట	-9.0287
ులైన	-9.02895
▁పర్వాల	-9.02941
▁పాండవుల	-9.03114
ాజీ	-9.03126
చిన	-9.03326
▁వ్రాయ	-9.03329
▁తెలియ	-9.03345
జీ	-9.03485
▁ఒరిస్సా	-9.03509
▁సాంస్కృతిక	-9.03509
▁ఛ	-9.03662
▁మరియ	-9.03864
▁సభ	-9.03985
లై	-9.04213
▁రూప	-9.04253
▁చదివి	-9.04288
▁ఎర్రన	-9.04312
▁విధాన	-9.04332
ేశ	-9.04378
▁రంగు	-9.04462
▁వాసుల	-9.04549
▁బౌద్ధ	-9.04654
▁ప్రదేశ	-9.04661
▁బరువు	-9.04775
రామ	-9.04799
▁గట్టి	-9.04877
▁వందల	-9.04904
▁పాలించారు	-9.04928
ీయ	-9.04957
▁కొండలు	-9.05002
ాంధ్ర	-9.05053
చో	-9.05071
▁తిన	-9.05282
▁రో	-9.05436
▁కదా	-9.05493
▁పెరుగు	-9.05536
▁సో	-9.05708
▁ఇంగ్లీషులో	-9.05828
▁శృంగార	-9.05904
▁సంపూర్ణ	-9.05904
▁ప్రవహించి	-9.05909
▁మద్దతు	-9.05911
▁వంట	-9.05926
▁సహా	-9.05949
▁మరింత	-9.05962
▁మనసు	-9.06005
▁అతన	-9.06066
▁పార	-9.06222
▁ప్రా	-9.06272
▁ప్రైవేటు	-9.06312
▁మొదలగు	-9.06344
ుంటాయి	-9.06427
▁నీ	-9.06517
▁ఉన్నత	-9.06589
▁ఊరగాయ	-9.06604
▁మణి	-9.06668
▁ఉద్యోగ	-9.06841
▁క్ర	-9.06869
▁ఆధారము	-9.06921
▁పురుషుల	-9.06957
ారి	-9.06963
▁క్షేత్ర	-9.06973
రాలు	-9.07064
▁పాపికొండల	-9.07123
▁విశాఖ	-9.07135
▁చేస్తుంది	-9.07155
▁కుతు	-9.07168
ల్లా	-9.07288
పుడు	-9.07337
ియా	-9.07406
▁పాలనలో	-9.07414
▁వాడే	-9.07438
▁గ్రామాల	-9.07517
▁నక్షత్ర	-9.07586
వార	-9.0761
▁వంగ	-9.07692
▁మధ్యలో	-9.07767
▁నవలలు	-9.07771
▁సుప్రసిద్ధ	-9.07817
ేవారు	-9.07897
▁ఇన్	-9.07942
▁దో	-9.07956
▁పొగాకు	-9.08373
▁భౌగోళికంగా	-9.08395
▁సంగీతం	-9.08511
▁గుట్ట	-9.08528
▁బెంగుళూరు	-9.08605
▁వైద్య	-9.0867
▁యతి	-9.08733
చేత	-9.08801
▁ధ	-9.08819
▁లే	-9.08877
▁ఊ	-9.08882
▁కుల	-9.08948
▁కంప్యూటర్ల	-9.09179
▁వర్ణించ	-9.09316
▁పుణ్య	-9.09362
యైన	-9.09397
కోట	-9.09404
్ని	-9.09422
▁గనుల	-9.09591
▁కోరిక	-9.09597
▁అక్టోబరు	-9.09608
▁కాకినాడ	-9.09608
▁రెవిన్యూ	-9.09608
▁గణపతి	-9.09616
▁మాయ	-9.09639
▁వచ్చు	-9.09676
▁అవార్డు	-9.09693
▁రెండో	-9.09694
▁విడిచి	-9.09716
▁రచించి	-9.0972
▁మూర్తి	-9.09769
▁సంబంధ	-9.09776
▁పెద్దన	-9.0983
▁కాకర్	-9.0987
▁పద్యం	-9.09912
పించ	-9.09963
▁ఆగ	-9.10034
▁ముఖ్యమైనవి	-9.1007
▁రె	-9.10113
గ్గా	-9.10186
▁తె	-9.10226
▁సార	-9.10356
▁సాహిత్యంలో	-9.10479
▁చేరి	-9.1048
▁అహోబిల	-9.10562
▁పురాతన	-9.10582
ములను	-9.1059
▁పోటీ	-9.10702
▁కారణం	-9.10821
పడి	-9.10823
▁వస్తువుల	-9.10824
పోయిన	-9.10837
రము	-9.10864
▁రంగనాథ	-9.10886
▁తీసుకొని	-9.10888
ాస్	-9.10907
▁నవల	-9.10976
డీ	-9.10991
▁అడుగు	-9.11065
▁పోయి	-9.11107
▁పూర్వపు	-9.1112
▁వెళ్ళాడు	-9.11124
▁ఉపయోగ	-9.11149
ినప్పుడు	-9.11373
▁నాడు	-9.11412
డే	-9.11456
▁గాన	-9.11651
ల్లి	-9.11808
పెట్ట	-9.11896
వైపు	-9.11978
కూడా	-9.1202
▁కొబ్బరి	-9.12109
▁పరిసర	-9.1213
ువ	-9.12149
▁యశోద	-9.12156
▁హార్డ	-9.12188
ియం	-9.12201
▁ఖాన్	-9.12203
ించే	-9.12212
▁సందర్భంలో	-9.12212
ాత్మక	-9.12257
ున్న	-9.12298
▁మారింది	-9.12391
▁రస	-9.12428
▁పద్ధతి	-9.12443
▁లక్ష్మీనరసింహ	-9.12464
ుతాయి	-9.12508
▁పాదాల	-9.12533
టో	-9.12682
ందని	-9.12682
ందర	-9.12688
▁సంఘ	-9.12704
రాయి	-9.12738
▁వెంకట	-9.12874
ార్ధ	-9.13
ాలున్నాయి	-9.13013
▁అర	-9.13048
వాద	-9.13086
▁వాతావరణం	-9.13116
్ల	-9.13278
వలెను	-9.13437
▁దంపతుల	-9.13455
▁సంరక్షణ	-9.13455
▁శైవ	-9.13456
▁అవతరించింది	-9.13502
▁ప్రతీతి	-9.13562
▁ప్రయాణ	-9.13572
▁ఆహార	-9.13599
▁మార్గ	-9.13697
▁పొడు	-9.13743
▁విద్య	-9.13747
శ్ర	-9.1399
భా	-9.14064
మైంది	-9.14209
▁భక్త	-9.14223
లేక	-9.14223
ునకు	-9.14258
▁రకం	-9.14447
మూర్తి	-9.14465
▁బలి	-9.14525
▁బియ్యం	-9.14621
▁ఆంగ్ల	-9.14689
▁ఎవరైన	-9.14696
▁పసుపు	-9.14774
▁ఏక	-9.14784
▁అప్ప	-9.14871
ంగి	-9.14942
స్త్ర	-9.15028
▁దుంప	-9.15062
▁భాషను	-9.15087
వె	-9.15127
కల	-9.15185
▁ఇచ్చి	-9.15218
▁పేర్లు	-9.15221
▁అంతా	-9.15341
▁యోగ	-9.15341
▁కన్నా	-9.1538
▁నిజ	-9.15502
▁జా	-9.15678
శ్	-9.15835
ాళ	-9.15847
శా	-9.15993
▁సమాజ	-9.16003
▁అమృత	-9.16104
తాయి	-9.1614
▁నిజాము	-9.1616
▁ప్రధానమైన	-9.16275
▁ప్రాముఖ్యత	-9.1629
నప్పుడు	-9.1641
ియ	-9.1645
▁వాయు	-9.16468
పరి	-9.16584
▁విమాన	-9.16607
వలసిన	-9.16623
▁పోరాటం	-9.16915
▁అస	-9.1702
▁అందు	-9.17069
▁పెట్టి	-9.1722
▁పద్య	-9.17349
▁ఆత్మ	-9.17414
▁దు	-9.17419
పట్నం	-9.17445
▁అక్టోబర్	-9.17455
▁కాంగ్రెసు	-9.17455
▁గోల్కొండ	-9.17455
▁వైశాల్యం	-9.17455
▁ఐదవ	-9.17455
▁ఉన్నవి	-9.17463
▁త్యాగయ్య	-9.17478
▁దేవతలు	-9.17484
▁కృతుల	-9.17507
▁క్రమం	-9.1755
▁ఉండగా	-9.17596
▁ఇక్కడే	-9.17671
▁కన్న	-9.17673
▁కుమారులు	-9.17723
▁మీటర్ల	-9.17906
▁ఒ	-9.18031
▁మరల	-9.18117
నుంచి	-9.18126
నందు	-9.1822
డైన	-9.1822
▁రాజుల	-9.18273
▁కనిపించే	-9.18346
ెల్ల	-9.1845
▁జీవుల	-9.18526
▁చారిత్రక	-9.18543
▁ప్రక్క	-9.18561
▁లెక్కల	-9.18571
▁సామాజిక	-9.18825
▁బూడిద	-9.18825
▁ఆర్ధిక	-9.18826
▁ఒకసారి	-9.1886
▁సుందర	-9.18864
▁అర్జునుడు	-9.18908
▁ఎందర	-9.18963
దేవి	-9.18979
▁చైనా	-9.1898
ములలో	-9.19013
ుకున్న	-9.1908
జన	-9.19083
▁పొడవు	-9.19188
▁పిల్లి	-9.19344
▁తొక్క	-9.19359
ందున	-9.19424
▁అవతార	-9.1943
ేవాడు	-9.1955
స్తారు	-9.19582
▁నంది	-9.19653
చుట్టూ	-9.19722
మె	-9.19803
▁అత్యధిక	-9.19938
▁నిద్ర	-9.19944
జాతి	-9.19976
▁జల	-9.20071
▁వ్యవసాయం	-9.20101
▁జీవన	-9.20124
▁పండ్లు	-9.20132
▁అష్ట	-9.20202
▁పారిశ్రామిక	-9.20214
▁ఉమ్మడి	-9.20214
▁నిజామ్	-9.20214
▁ప్రకృతి	-9.20214
సీ	-9.20228
ళి	-9.20238
▁ఉంటారు	-9.20277
▁కాగా	-9.20281
ిలి	-9.20284
లం	-9.203
▁చేపల	-9.20358
▁భావన	-9.20387
▁వరద	-9.20594
ంబున	-9.20621
▁ఆట	-9.20882
▁గౌతమి	-9.20899
▁దేశాల	-9.20994
▁మధుర	-9.21015
▁ద్వీప	-9.21248
▁యా	-9.21309
ుడై	-9.21318
▁జన్మించిన	-9.21454
▁నియోజక	-9.21598
▁ఫిబ్రవర	-9.21622
▁బుద్ధారెడ్డి	-9.21622
▁జొన్న	-9.21623
▁పెంపక	-9.21623
▁ఎగువ	-9.21625
▁సాఫ్ట్	-9.21633
్త	-9.2165
▁ఏర్పడింది	-9.21681
▁వెంటన	-9.21738
▁అంటూ	-9.2188
బడ్డ	-9.21896
చోట్ల	-9.21914
▁విశేషం	-9.21933
నైనా	-9.21939
▁పెరిగి	-9.2204
▁వున్నది	-9.22072
▁లోను	-9.22106
▁మండలము	-9.22122
▁చరిత్రలో	-9.22208
▁పండితుల	-9.22314
ోద	-9.22314
▁కమ్మ	-9.22528
▁వ్యవస్థలు	-9.22529
▁ప్రాణ	-9.22588
ముఖ	-9.22622
▁అన్నమాచార్య	-9.22672
కుల	-9.22836
యన	-9.22893
ారం	-9.22925
▁ఉదాహరణక	-9.22975
▁మొక్కజొన్న	-9.23051
▁విటమిన్	-9.23051
▁సలహా	-9.23051
గలిగే	-9.23052
▁మనిషి	-9.23054
▁టన్నుల	-9.23055
▁సమితి	-9.23055
▁విరివిగ	-9.23055
▁జరుగుతాయి	-9.23057
▁యాత్రికుల	-9.23078
▁దస్త్ర	-9.23103
▁భద్రాచల	-9.23138
▁నిర్మాణం	-9.23159
▁శిశువు	-9.23193
▁శా	-9.23194
▁మళ్ళీ	-9.23213
▁నిర్మించారు	-9.2324
▁రచయిత	-9.23323
▁ఇలాంటి	-9.23339
▁లోక్	-9.23408
ిస్తున్నారు	-9.23499
తున్న	-9.23505
ధా	-9.2358
▁గుమ్మడి	-9.23592
▁రామదాస	-9.2363
▁సకల	-9.23639
▁మొదలైనవి	-9.23726
ిగా	-9.23759
▁చోట	-9.23763
ండ్ల	-9.23783
▁పట్టణంలో	-9.23845
▁కవితా	-9.23939
▁తనను	-9.23963
▁బిరుదు	-9.24031
ునిగా	-9.24156
▁భాగవతం	-9.24179
▁ఘ	-9.24239
▁జనమేజయుడ	-9.24318
▁పవిత్ర	-9.24323
▁రచించ	-9.24413
▁నెహ్ర	-9.245
▁ప్రస్తావన	-9.245
▁కెర్న	-9.245
▁యాదగిరి	-9.24504
▁దూరములో	-9.24524
▁అనంతర	-9.24565
▁ఖగోళశాస్త్ర	-9.24565
▁సహజ	-9.24569
▁వాడతారు	-9.24576
యుగ	-9.24624
▁సీమ	-9.24692
▁మరి	-9.24711
మాల	-9.24793
▁నంద	-9.24949
▁ప్రభావం	-9.24991
▁ధరించి	-9.25275
▁సమాచారము	-9.25322
▁ఇప్పటిక	-9.25378
▁విని	-9.25492
▁సినిమాలు	-9.25529
▁చేతుల	-9.25582
▁ఆదాయ	-9.25687
ంభ	-9.25785
▁జంక్షన్	-9.25971
▁తక్కిన	-9.25971
▁దీన్ని	-9.26207
▁కావాల	-9.26224
▁మో	-9.26265
▁మంత్రి	-9.26433
▁చల్ల	-9.26565
తున్నాయి	-9.26665
▁పరిపాలించ	-9.26678
▁మల్ల	-9.26733
▁నాయకులు	-9.26781
▁రాజ్యం	-9.26927
▁కథలు	-9.26961
▁కావు	-9.2706
▁కన్నడ	-9.27077
కాలం	-9.27169
▁చాళుక్య	-9.27203
▁ఆయనకు	-9.27305
▁భక్తుడ	-9.27306
▁తా	-9.27385
▁గీతాల	-9.27395
▁జో	-9.27407
వృత్త	-9.27415
▁కాశీ	-9.27462
▁జాగ్రత్త	-9.27463
▁సొంత	-9.27464
▁ముఖ	-9.27504
▁ప్రజా	-9.27526
▁చెప్పే	-9.2754
▁చెంద	-9.27595
▁కృష్ణానది	-9.27674
▁వ్యాస	-9.27765
▁పూ	-9.27817
సరి	-9.27879
▁ఆశ	-9.2791
▁దాన్ని	-9.27999
▁జైన	-9.28046
▁జి	-9.28195
▁చింత	-9.28248
ళ్లు	-9.28297
▁కార	-9.28298
▁కాణిపాకం	-9.28446
చా	-9.28456
▁పేర్కొన	-9.28676
▁పాద	-9.28681
న్నా	-9.28734
కొని	-9.28917
▁చదరపు	-9.28978
▁కంసుడు	-9.28979
▁విలీన	-9.2898
▁బిల్లు	-9.2898
▁భర్త	-9.28985
▁సంగమ	-9.28985
రత్న	-9.28986
తను	-9.29014
పాలెం	-9.2913
▁కల్లు	-9.29197
ప్పటిక	-9.29231
▁ఎర్ర	-9.29238
▁పరిపాలించిన	-9.29248
▁రంగంలో	-9.29292
▁బస్	-9.2931
▁మార్చి	-9.29419
▁చెరువు	-9.29473
▁గర్భ	-9.29574
▁సంప్రదాయ	-9.29588
హి	-9.29589
▁నీటిని	-9.29777
యినా	-9.29854
▁నిర్మించ	-9.29873
▁లేద	-9.29906
▁ఉన్నా	-9.29974
▁పండిత	-9.30062
▁వస్త	-9.30154
నంత	-9.30248
గూడెం	-9.30512
▁ఉష్ణోగ్రత	-9.30517
▁మనుమసిద్ది	-9.30517
▁కృషి	-9.30517
▁పంతులు	-9.30521
ేంద్ర	-9.30535
వటం	-9.30535
▁రుద్ర	-9.30546
▁త్వర	-9.3056
మంటే	-9.30566
▁రంగాచార్యుల	-9.30576
▁వసుదేవుడ	-9.30582
▁ఎదురు	-9.30589
▁ఒడి	-9.30592
▁అడవులు	-9.30673
సాగర	-9.30773
▁అమర	-9.30798
▁దేశానికి	-9.30799
శ్రీ	-9.30871
▁నగరాల	-9.30921
▁చెయ్యడానికి	-9.30954
▁ఏనుగుల	-9.3106
▁పరిస్థితుల	-9.31073
▁వివరించ	-9.31099
▁దేవుడు	-9.31105
ాంశ	-9.31137
▁వివర	-9.31176
▁నాకు	-9.3127
▁చదువు	-9.31386
▁నవంబర	-9.31399
▁శతాబ్ది	-9.31437
మయ	-9.31526
▁లోపలి	-9.31542
▁అండ	-9.31633
లున్నాయి	-9.3165
ల్స్	-9.31665
▁కలి	-9.31713
▁అమ్మవారి	-9.31839
హిత	-9.31884
▁అంతే	-9.31942
బడినది	-9.31964
▁అసెంబ్లీ	-9.32079
▁క్రొత్త	-9.32079
▁జవాబు	-9.32079
▁ప్రెసిడెన్సీ	-9.32079
▁సంహరించ	-9.3208
▁చరిత్రకారుల	-9.32087
▁శిఖర	-9.32105
▁ప్రవేశ	-9.32108
▁ఆవిర్భవించింది	-9.32111
షాద్	-9.32134
▁పోరాట	-9.32177
▁నరసింహస్వామి	-9.3219
▁ఆకాశ	-9.32191
▁యోగి	-9.32258
▁తొమ్మిద	-9.3228
▁సినీ	-9.32314
▁పుట్టి	-9.32365
▁భరత	-9.32381
▁ఎండ	-9.32382
▁పాఠశాలలు	-9.32595
నియా	-9.32627
▁కీర్తి	-9.32737
కథ	-9.32816
పోయింది	-9.32818
వంత	-9.32858
ురభి	-9.32976
▁రక్షించ	-9.33119
▁శాస్త్ర	-9.33249
▁ఒకట	-9.33295
▁కాపాడ	-9.33301
▁వాహనాల	-9.33331
▁అంకిత	-9.33473
▁భావించ	-9.33624
▁గుణ	-9.3366
▁కిలో	-9.3366
▁తిమ్మక్క	-9.33667
▁ప్రాచుర్యం	-9.33667
▁దాశర	-9.33667
▁పరిధిలో	-9.33669
▁నవాబుల	-9.33671
▁వరుస	-9.33676
▁ప్రచురణ	-9.3368
▁దర్శించి	-9.33696
▁నిర్వహించ	-9.33789
▁వగైరా	-9.33798
▁దక్క	-9.33829
▁వాడుక	-9.33886
▁కొల	-9.33907
▁ఆదేశము	-9.33915
▁ఎల్	-9.33928
▁శ్రీరాములు	-9.33932
కృత	-9.33937
▁సన్న	-9.34002
▁స్థానిక	-9.34004
▁వెళ్ళే	-9.34008
▁కురు	-9.34031
▁చూడవచ్చు	-9.34221
త్వం	-9.34237
▁వేరుశనగ	-9.34292
▁దీ	-9.3431
▁అరణ్య	-9.34377
▁ఆంధ్రులు	-9.34382
▁కొట్ట	-9.34413
ూరి	-9.34416
▁శ్రీవారి	-9.34506
▁లోపల	-9.3455
తొ	-9.34568
▁వాడి	-9.34578
▁నీవు	-9.3469
▁నేరు	-9.34701
▁గ్ర	-9.34771
మంది	-9.34788
▁ప్రేమ	-9.34863
▁రక	-9.34865
ినేని	-9.34917
▁తీవ్ర	-9.34988
▁మారు	-9.35079
▁పర్వతం	-9.35125
న్నారు	-9.35204
▁పరీక్ష	-9.35205
▁స్కంధము	-9.35279
▁హెక్టేరుల	-9.35279
▁వదిలి	-9.35282
▁విస్తార	-9.35282
▁ఫలితం	-9.35285
▁వలస	-9.35286
▁నీల	-9.35333
ిష్ట	-9.35429
▁నిమ్మ	-9.35436
▁జానకి	-9.35566
గారు	-9.35576
▁బంగాళా	-9.35626
▁వలె	-9.35657
లింగ	-9.3573
▁భా	-9.35761
▁జరిగి	-9.35785
▁కోల్	-9.35848
రువు	-9.35917
▁కాలము	-9.35919
▁పురాణ	-9.36063
ీణ	-9.36093
▁సంతాన	-9.36147
▁ఏర్పడ	-9.36273
కాలంలో	-9.36279
▁సేవలు	-9.36302
▁అసల	-9.36344
▁నృత్య	-9.36363
▁డి	-9.36365
ుండు	-9.364
▁ప్రాంతమున	-9.36404
▁చేయాల	-9.36503
▁భీమ	-9.36553
▁గుర్తు	-9.36562
▁కామ	-9.36799
పొంద	-9.36831
▁శ్రీకాళహస్తి	-9.36919
▁డిస్క్	-9.36919
▁క్రితం	-9.3692
▁శంఖ	-9.36921
▁మనకి	-9.36941
▁గోపన్న	-9.36979
▁సిద్ద	-9.37
▁ఉండేవాడు	-9.37073
▁విశ్వనాథ	-9.37131
ప్రాంత	-9.37144
▁వచ్చాడు	-9.37172
వన	-9.37213
▁ప్రతిరోజ	-9.37228
▁అవుతుంది	-9.37249
▁స్వీకరించ	-9.3726
▁ఎమ్	-9.37312
డల	-9.37377
▁భాగాలు	-9.37439
▁భాషలు	-9.37455
▁దాటి	-9.37465
▁చెరకు	-9.3748
▁స్వయంగా	-9.37537
▁శిక్షణ	-9.37589
▁చేసుకొ	-9.3768
▁గ్రహించి	-9.37711
▁శంకరు	-9.37727
▁ప్రయత్నం	-9.37744
ాపురం	-9.37756
ిస్తున్నాయి	-9.37811
▁గోపాల	-9.37826
▁బండ	-9.3787
▁చేసుకు	-9.38068
కలు	-9.38113
▁పైకి	-9.38174
▁విర	-9.38194
▁ఆదేశాల	-9.38233
▁చోళ	-9.38342
▁ఇప్పటి	-9.38462
▁సాహితీ	-9.38583
▁గోధుమ	-9.38585
▁మధుబాబు	-9.38585
▁వాగ్గేయకారుడ	-9.38585
▁గోవింద	-9.38593
▁శ్రీరంగం	-9.3861
▁ప్రయత్నించ	-9.38671
▁అయినది	-9.38681
▁ఇంగ్లీషు	-9.38691
▁కావ	-9.38697
▁శతాబ్దాల	-9.38729
▁ఊరి	-9.38739
▁సమాచారాన్ని	-9.38744
▁విలువ	-9.38755
▁ఇంక	-9.38783
▁అప	-9.38844
▁పువ్వు	-9.38855
ముగ	-9.38878
▁ప్రారంభించ	-9.38924
▁లభించే	-9.38967
▁మేక	-9.38969
▁సై	-9.39014
కర్త	-9.39015
▁వెంట	-9.39016
▁రాజా	-9.39021
ందలి	-9.391
▁దోస	-9.39155
ల్ని	-9.39173
▁శబ్ద	-9.39179
▁పత్రికలు	-9.39181
▁ప్రచురించ	-9.3927
▁ఆంగ్లం	-9.39275
▁దశావతారాల	-9.39442
ండే	-9.39444
▁ఆలయము	-9.39447
సాహ	-9.39526
▁రాయల	-9.39554
గడ్డ	-9.39584
▁అన్నాడు	-9.39719
▁మత	-9.39757
▁దర్శించ	-9.39779
ాలంటే	-9.39857
▁కావ్యము	-9.39869
▁జన్మించి	-9.39928
▁ప్రశ్న	-9.40202
▁కాఫీ	-9.40205
రస	-9.4022
గ్రహ	-9.40228
ాప్రగడ	-9.40239
▁కోడ	-9.40247
▁అహోబిలం	-9.4025
▁ఛందస్సు	-9.4028
▁స్మృతి	-9.4028
▁తిమ్మా	-9.40284
▁భేద	-9.40288
▁రేపల్లె	-9.40291
▁దేవయాని	-9.40299
▁వనరుల	-9.40312
▁పట్టు	-9.40401
▁భారీ	-9.40432
▁దేవకీ	-9.40461
శక్తి	-9.4054
▁ప్రత్యేకమైన	-9.40546
▁రక్తం	-9.40583
▁సామాన్య	-9.40618
▁బెండ	-9.40735
నామ	-9.40808
ాలుగా	-9.40838
ట్లే	-9.40953
పాద	-9.40973
▁గాంధ	-9.40985
▁నెల	-9.41036
ాపూర్	-9.41036
▁విష	-9.41223
▁వాని	-9.41384
▁శివుడు	-9.41385
▁విగ్రహం	-9.41512
పాలు	-9.41538
▁మండలాల	-9.41554
▁ట్ర	-9.41584
వలె	-9.41712
▁మార్చ	-9.41777
ెక్క	-9.41779
ినది	-9.41892
▁కాలువ	-9.41893
ర్లు	-9.41907
▁పరిశోధన	-9.41927
తుంది	-9.41996
▁ఇంజనీర	-9.42004
▁చిరంజీవి	-9.42004
▁ప్రామాణిక	-9.42004
▁స్వతంత్ర	-9.42004
▁ఆవకాయ	-9.42005
▁డేటా	-9.42005
▁శ్రీహరి	-9.42006
▁చేసెను	-9.42023
▁వారిలో	-9.42035
▁చేయడ	-9.42043
▁ఎద్దుల	-9.42075
▁ఎవరి	-9.42238
▁ఉండటం	-9.42264
▁వహించి	-9.42272
▁రకము	-9.4228
▁ఉండవచ్చు	-9.42321
దె	-9.42403
▁కావ్యం	-9.4249
▁తెల	-9.42505
▁రేగ	-9.42508
▁వేసి	-9.42609
రాజ	-9.42629
▁కం	-9.42669
▁సుల్తాన	-9.43035
▁వ్యాపించి	-9.43151
▁ఉత్సవాలు	-9.43156
▁కలసి	-9.43171
తర	-9.43178
▁రూపొందించ	-9.43291
▁ఉద్యమ	-9.43332
ూర్	-9.43333
▁స్థల	-9.43434
శాల	-9.43535
భాగం	-9.43552
తాడు	-9.43623
▁అంతకు	-9.43666
వాళ్ళ	-9.43736
▁అభిప్రాయం	-9.43759
▁వారసత్వ	-9.43759
▁ఆర్థిక	-9.4376
▁అర్చకుల	-9.4376
▁వసువు	-9.43815
▁పాలమూరు	-9.43817
▁వివాహ	-9.43849
▁కంద	-9.43863
▁వ్యాసుడ	-9.43869
▁శ్రీశైల	-9.43925
▁గ్రంథము	-9.43957
▁కన్య	-9.43996
▁నడుమ	-9.44063
పోయి	-9.44143
▁సూచ	-9.44203
▁లె	-9.44211
మందు	-9.44234
▁వస్తున్న	-9.44518
▁అలాంటి	-9.44584
▁ప్రారంభ	-9.44667
ాశ	-9.44678
▁విగ్రహ	-9.44742
▁డివిజన్లు	-9.4478
▁ఇతడ	-9.44812
▁మార్గము	-9.44923
▁తమ్మ	-9.44942
ెద	-9.44979
▁అంగ	-9.44991
▁రూపం	-9.45142
▁చేయవచ్చు	-9.45148
▁మార్గంలో	-9.4521
▁నీకు	-9.45224
▁విధానం	-9.45234
▁సామ్రాజ్యం	-9.45241
స్తే	-9.45244
ుతున్నది	-9.45289
▁తోక	-9.45312
వద్ద	-9.45334
▁శేష	-9.4543
▁ప్రజ	-9.45489
▁తగిన	-9.45513
▁నాయకత్వం	-9.45545
▁హిరణ్యకశిపు	-9.45545
▁తీర్థ	-9.45545
▁వివాహమాడ	-9.45545
▁ఎయిర్	-9.45545
▁అంచనా	-9.45546
▁మాత్రము	-9.4555
▁తియ్య	-9.4556
▁గ్రా	-9.45571
▁లైన్	-9.45572
▁ఘంట	-9.45596
ల్ప	-9.45601
డ్డ	-9.45618
▁ఉండడం	-9.457
▁సంప్రదాయాల	-9.4572
▁కుక్క	-9.45729
రపాలక	-9.45781
మార్	-9.45785
▁శి	-9.45812
▁బ్రిటిషు	-9.45815
ాలయం	-9.45823
▁మొత్తము	-9.45859
పె	-9.45937
జయ	-9.45987
▁పరిశోధకుల	-9.46044
గురు	-9.46064
▁సౌకర్యాలు	-9.46153
▁మునుల	-9.46184
▁రోజులలో	-9.46344
▁దాచ	-9.46345
▁డివిజన్	-9.46521
▁భాషల	-9.46551
▁కోప	-9.46566
▁స్నానం	-9.46581
▁యి	-9.46679
కంటే	-9.46788
▁హి	-9.46829
▁కీర్తనల	-9.46831
చ్చిన	-9.46873
▁తోడు	-9.46887
▁ఆవు	-9.46894
▁కలుప	-9.469
▁పచ్చి	-9.46909
▁ముక్కల	-9.46974
▁చేతిలో	-9.47026
చేసిన	-9.47064
నము	-9.47067
▁చర్య	-9.47074
▁కుమారుడ	-9.4712
ుండగా	-9.47186
▁శ్రీశైలము	-9.47207
కాక	-9.47304
▁శాస్త్రం	-9.47316
▁పాము	-9.47339
▁మెట్ట	-9.4735
▁బెజవాడ	-9.47363
▁సభ్యుల	-9.47365
ంగ్	-9.47368
▁మౌర్య	-9.47373
▁భీమవరం	-9.47378
▁పోలవర	-9.4738
▁వారే	-9.47405
▁రామకృష్ణ	-9.47412
▁చెపుతారు	-9.4743
▁మొదటిసారి	-9.47435
▁అనుకూల	-9.47439
▁సాగర	-9.47464
▁పనికి	-9.47472
▁నివాస	-9.47498
▁పద్యాల	-9.47548
▁సహాయంతో	-9.47576
▁ఊర	-9.47645
▁నియమ	-9.47655
నగర్	-9.47659
దాకా	-9.47676
కైక	-9.47716
ుత	-9.47733
▁అయ్యాడు	-9.47784
▁పట	-9.47948
▁సంఘం	-9.47962
చూ	-9.48003
▁అక్కడి	-9.48013
వలసి	-9.48078
▁సాహిత్యము	-9.48109
▁తోటల	-9.48129
▁చూస	-9.48285
▁ఎన్నికలలో	-9.48337
▁ప్రభువు	-9.48412
▁అంట	-9.48416
ిస్తుంటారు	-9.48505
మూల	-9.48533
▁అవతారం	-9.4854
▁వాక్య	-9.48544
▁బీ	-9.48582
ెడ	-9.48593
▁సీ	-9.487
ంబులు	-9.4885
▁తగ్గి	-9.48939
▁మిన	-9.48971
ుకొన్నాడు	-9.49013
▁సరిహద్దు	-9.491
▁వాద	-9.49139
▁కల్పించ	-9.49151
▁కొద్దిగా	-9.49211
▁అరటిపండు	-9.49215
▁బ్యాంక్	-9.49215
▁పుష్ప	-9.49216
▁కనుగొనెను	-9.49234
▁గజరాజు	-9.49236
▁విజయవాడలో	-9.49253
▁పట్టణాల	-9.49258
▁విషయాల	-9.49267
్యాల	-9.49277
▁వివరాలు	-9.49282
▁వుంటుంది	-9.49289
▁వేస	-9.49338
వచ్చ	-9.4934
▁కళాశాలలు	-9.49341
▁కరువు	-9.49369
▁తెగ	-9.49391
▁పొట్టి	-9.49399
▁రేవు	-9.49413
▁రామారావు	-9.49417
తన	-9.49475
▁బ్రిటీషు	-9.49498
▁ఉద్భవించిన	-9.49526
▁యాత్రా	-9.49551
ంతా	-9.4956
▁నూనె	-9.49609
▁వర్షపాతం	-9.49615
▁సమాజం	-9.49629
▁తంజావూరు	-9.49672
ెట్	-9.49816
▁స్థితి	-9.49836
▁పాయలు	-9.49908
▁జూ	-9.49952
ిట	-9.49981
▁దేవత	-9.49982
ాడో	-9.50001
▁రాక్షసుల	-9.50038
▁దిగి	-9.50072
▁ఎకరాల	-9.50087
▁ఎన్ని	-9.50106
▁సారి	-9.50155
▁అతడి	-9.50198
▁దూరంగా	-9.50321
బర్	-9.5035
ెడు	-9.50388
ాయని	-9.50399
▁విషయంలో	-9.50511
న్నిటి	-9.50513
▁ఆంజనేయ	-9.50556
ుకున్నాడు	-9.50573
▁ఎనిమిద	-9.50644
బడుతుంది	-9.50688
య్	-9.50743
శ్వ	-9.50785
▁పిల్లలు	-9.50786
▁ప్రభ	-9.50917
▁పుర	-9.50999
▁హిందువుల	-9.51101
▁విభజన	-9.51102
▁ఖిల్లా	-9.51102
▁కంసుని	-9.51102
▁కిరీట	-9.51102
▁ఉచిత	-9.51102
▁పునర్య్వస్థీకరణ	-9.51111
▁నల్లమల	-9.51113
▁పెద్దగా	-9.51119
▁బలరాము	-9.51119
▁ఆధ్యాత్మిక	-9.51129
ంటారు	-9.51165
▁జన్మించ	-9.51215
▁దాడి	-9.51256
▁ఉద్	-9.51256
బో	-9.51277
▁ఉండాలి	-9.51303
▁పంచాయతి	-9.51305
▁ఆసియా	-9.51373
▁గాను	-9.5144
▁మార్కెట్	-9.51442
▁ఎవర	-9.51492
ర్ద	-9.5152
▁అనంత	-9.51525
▁ప్రారంభం	-9.51618
కుండ	-9.51653
▁వన	-9.51663
▁శకం	-9.51705
స్వరూప	-9.51721
్ణ	-9.51776
జేబ	-9.51952
▁సహ	-9.51993
▁దీనిలో	-9.52057
పట్ట	-9.52078
▁స్థలాలు	-9.52124
▁చేతి	-9.52133
▁మెట్ల	-9.52172
▁మాల	-9.52197
▁చేయించ	-9.52205
▁భాగాల	-9.5231
పోత	-9.52373
▁ఆలయంలో	-9.52417
▁మంద	-9.52422
పెట్టి	-9.52455
▁పాలించ	-9.52541
▁వర్ణ	-9.5259
▁పొంది	-9.52599
▁కుటుంబంలో	-9.52657
▁నృత్యం	-9.52666
▁దూ	-9.52713
▁పరిశోధనల	-9.52719
కల్	-9.52738
▁గ్రాముల	-9.52932
డయిన	-9.52936
▁పిలవ	-9.52946
గుల	-9.5297
▁ఏనుగు	-9.52983
▁ఉగ్ర	-9.52992
▁పబ్లిక	-9.53024
▁ఆసుపత్రి	-9.53025
▁టంగుటూర	-9.53025
▁బంగాళాఖాతం	-9.53025
▁పితామహుడు	-9.53025
▁మరాఠ	-9.53027
▁గాంచిన	-9.53028
▁పరిస్థితి	-9.53035
▁విజ్ఞాన	-9.53076
▁పోషించారు	-9.53077
▁ప్రాప్తి	-9.53091
▁కావలసిన	-9.53107
▁సున్నపు	-9.53117
▁భూగోళ	-9.53156
▁అద్భుతమైన	-9.53168
▁చాలామంది	-9.5319
▁శ్రీకృష్ణ	-9.53282
ంచు	-9.53339
▁కాలములో	-9.53372
▁అయింది	-9.53387
రత	-9.53454
▁వైదిక	-9.53458
▁పదముల	-9.53521
▁ఖండము	-9.5353
నాటి	-9.53548
▁ఆయా	-9.53571
▁ప్రశస్తి	-9.53599
▁రేఖాంశ	-9.53608
▁కుండ	-9.53668
▁వసతి	-9.53704
▁ప్రవేశిస్తుంద	-9.53711
▁తినే	-9.53724
య్యే	-9.5373
ుచున్నది	-9.53747
సభ	-9.5377
▁తగ్గించ	-9.53776
▁సె	-9.53923
▁మాటలు	-9.53937
స్థాన	-9.53993
▁కుమారుల	-9.54011
▁సంస్థలు	-9.54025
▁తాలూకా	-9.54062
ేశ్వరం	-9.54203
▁ధన	-9.54226
క్కల	-9.54236
టే	-9.54249
ంపేట	-9.54292
▁గ్రంధ	-9.54294
పాటు	-9.54314
యూ	-9.54321
▁ఉన్నట్లు	-9.54354
▁లేవు	-9.54362
ుకోవడం	-9.54377
▁విడుదల	-9.54385
▁సాధించ	-9.54393
▁రావడం	-9.54474
▁అర్	-9.54671
▁బ్రిటిష	-9.54689
▁చేసుకుంట	-9.54692
పర	-9.54742
పోయినా	-9.54744
▁పదం	-9.54757
▁సింహ	-9.54766
్యూట్	-9.54774
హమ్మద	-9.54917
▁శాపం	-9.54946
▁దిగ	-9.54976
▁ప్రచార	-9.54985
▁రాజశేఖర	-9.54985
▁నిజామాబాద్	-9.54985
▁మహావిష్ణువు	-9.54985
▁వశిష్ఠ	-9.54985
▁ఖచ్చిత	-9.54985
▁తదుపరి	-9.54985
▁మంత్రివర్గ	-9.54985
▁శకుంతల	-9.54985
▁గ్రానైట	-9.54986
▁ప్రత్తి	-9.54989
▁పరిచయ	-9.54989
▁లభిస్తుంది	-9.54992
▁ముద్ర	-9.55013
▁ఆకర్షణ	-9.55019
▁దేవస్థానము	-9.55035
▁బహుళ	-9.55076
▁తను	-9.55185
ానిక్	-9.55225
▁ఘన	-9.55252
▁దర్శన	-9.55304
ొచ్చు	-9.55359
▁అత్యధికంగా	-9.55378
▁దేశాలలో	-9.55397
▁పక్క	-9.55407
▁విశ్వవిద్యాలయం	-9.55455
▁నీటిలో	-9.55459
▁ప్రాంతాలను	-9.55511
చరిత్ర	-9.55511
తలు	-9.55558
▁తక్కువగా	-9.55562
▁భుజ	-9.55587
▁దే	-9.55659
్మయ	-9.5567
▁తిక్కన్న	-9.55694
▁పూజల	-9.55695
▁పనుల	-9.55702
మెంట్	-9.55753
ోంది	-9.55774
▁భగవంతుడు	-9.5584
▁పొందాడు	-9.55845
▁పదాల	-9.55875
▁ప్రసిద్ది	-9.56067
▁కశ్యప	-9.56077
▁పాండవ	-9.5614
▁కొనసాగ	-9.56162
ించడం	-9.5617
▁పండించ	-9.56267
▁రహదారులు	-9.56415
▁మాజ	-9.56424
▁హో	-9.56561
మనీ	-9.56579
వంతు	-9.56726
ానంద	-9.56752
ేటప్పుడు	-9.56794
పోతుంది	-9.56946
▁అధ్యయనం	-9.56985
▁కర్నాటక	-9.56985
▁జాబితా	-9.56985
▁నామకరణ	-9.56985
▁యయాతి	-9.56985
▁పద్ధతుల	-9.56986
▁జరగ	-9.56994
▁నెల్లి	-9.57013
▁నడిపించ	-9.57031
▁మహాప్రస్థానం	-9.57032
▁నాలుగవ	-9.57043
▁సహకార	-9.57045
▁అందువల్ల	-9.5708
▁గిరి	-9.57153
▁వీరభద్ర	-9.5717
▁పర్వము	-9.57175
ణము	-9.57201
▁కాకర	-9.57246
▁దుర్గ	-9.57256
▁పద్మ	-9.57256
▁మేలు	-9.57267
ాదరణ	-9.57316
▁మొదలైనవారు	-9.57333
▁ఆదాయం	-9.57338
▁లక్షణ	-9.57392
▁లేత	-9.57398
▁దాట	-9.57398
▁అర్జునుని	-9.57459
▁నిర్ణయించ	-9.57561
▁వ్యాపారం	-9.57624
▁కవిత	-9.57631
ంబుల	-9.57734
▁తెచ్చి	-9.57759
▁పోపు	-9.57763
దేశం	-9.57784
▁హనుమ	-9.57823
▁శ్	-9.57824
▁గరుడ	-9.57852
చ్	-9.57906
▁కొట్టు	-9.57922
▁కోడ్	-9.5799
మూరు	-9.5806
బై	-9.58067
భి	-9.58087
పోయ	-9.581
▁పూర్త	-9.58105
▁దూరం	-9.58128
▁సృష్టి	-9.58159
▁తోట	-9.58203
▁దుష్ట	-9.58219
▁అనుమతి	-9.58253
▁గౌతమ	-9.58264
▁ప్రదేశాలు	-9.58313
▁మై	-9.58369
▁మండప	-9.58379
▁మెరుగ	-9.58419
▁ఆంగ్లము	-9.58571
షన్	-9.58628
▁ఉన్నప్పుడు	-9.58735
▁రామలింగ	-9.58861
▁గాధ	-9.58881
▁సంగీతంలో	-9.58888
ఫల	-9.58932
▁యాదవ	-9.58983
▁నవాబులు	-9.58996
▁విముక్తి	-9.59026
▁అంతర్జాతీయ	-9.59026
▁జడ్చర్ల	-9.59026
▁పునర్విభజ	-9.59026
▁ఉర్దూ	-9.59026
▁మరికొన్ని	-9.59026
▁ప్రథమ	-9.59027
▁సన్నిధి	-9.59027
▁గోపవరం	-9.59036
▁పక్షి	-9.59037
▁నల్లగొండ	-9.59038
▁గూడూరు	-9.59051
▁విష్ణుమూర్తి	-9.59055
▁చెందినవారే	-9.59101
▁ప్రోగ్రాముల	-9.59131
▁ఆంద్రప్రదేశ	-9.59147
▁చెప్పబడింది	-9.59158
▁దీప	-9.59163
▁నెట్	-9.59185
▁వినాయక	-9.592
కట్ట	-9.59202
▁ఆధిపత్యం	-9.5921
కపోతే	-9.5926
▁క్షత్రియ	-9.59298
▁మట్టి	-9.59332
సాల	-9.59343
ానంతరం	-9.59362
▁దాన	-9.59364
▁కలిగించ	-9.59369
▁పడిన	-9.59385
▁వుంది	-9.59391
▁వస్తారు	-9.59441
▁చేస్తున్నారు	-9.59534
▁కౌ	-9.59539
▁పండ్ల	-9.59543
ఇ	-9.59619
కుమారు	-9.59664
▁ఉత్సవ	-9.59724
▁పదము	-9.59729
ములకు	-9.59841
▁పొట్	-9.59843
▁అక్షరం	-9.59851
▁రావ	-9.59908
▁వెయ్యి	-9.60069
▁ధాన్య	-9.601
మాత	-9.60135
▁గంటల	-9.60337
రాల	-9.60435
▁గడి	-9.60498
రుడు	-9.60562
▁చేసుకో	-9.60692
▁స్వర	-9.60779
ుకున్నారు	-9.60838
▁ఏట	-9.6086
▁రాళ్ళ	-9.60864
▁జంతువుల	-9.60939
న్య	-9.60962
ుండును	-9.60972
▁సమాన	-9.61079
▁పంపి	-9.61094
▁అభిషేక	-9.61109
▁కాళహస్తి	-9.61109
▁డాక్టర్	-9.61109
▁పర్ణశాల	-9.61109
▁వైనతేయ	-9.61109
▁సమైక్య	-9.61109
▁సూక్ష్మ	-9.61109
▁రోదసి	-9.6111
▁ఇచ్చే	-9.6111
▁అంతరిక్ష	-9.6111
▁సంకీర్తనాచార్యు	-9.61116
▁పెద్దది	-9.6112
▁పిలిచేవారు	-9.61123
▁మానస	-9.61123
▁గణ	-9.61125
▁సూ	-9.61127
▁ద్రవ	-9.61137
▁బంధ	-9.61151
▁జియో	-9.61155
▁సంపద	-9.61182
▁ప్రాంతీయ	-9.61204
▁కీలక	-9.61217
▁మహాకవి	-9.61241
మాట	-9.61267
▁గుండ	-9.61274
▁తాటి	-9.61279
▁వేగంగా	-9.6131
▁వ్రాశాడు	-9.61379
▁సంక	-9.61396
▁సామెత	-9.61397
▁చేయటం	-9.61452
▁ఇస్త	-9.61465
▁మాటల	-9.61532
్లర్	-9.61541
మంత్రి	-9.61587
▁ఇవే	-9.61626
గ్రా	-9.61643
▁ఉంద	-9.61656
▁పండుగ	-9.61656
కొన్న	-9.61697
ాల్	-9.61733
▁రథ	-9.61777
▁ఖండ	-9.61794
▁మద	-9.61794
▁వర్షాలు	-9.61841
కాండ	-9.61951
షా	-9.61971
▁చేర్చి	-9.61972
విద్య	-9.62043
కృష్ణ	-9.62074
నార	-9.62097
▁పల్లె	-9.6239
▁బ్యా	-9.62399
శీల	-9.62402
దురు	-9.62423
పోయే	-9.62485
▁వీలు	-9.62488
▁ఏదైన	-9.62512
▁గృహ	-9.62543
▁పర్వ	-9.62559
▁విపరీత	-9.62579
▁చేస	-9.62621
యై	-9.62643
▁శ్రీనాథుడ	-9.62667
▁కాయల	-9.62757
▁శ్రీనివాస	-9.62763
▁చెక్క	-9.62789
తీర	-9.62881
ుకుంటూ	-9.62891
మంచి	-9.62905
▁పరంగా	-9.6303
▁పోషకా	-9.6304
ఉ	-9.63071
మున్	-9.63093
దర	-9.63103
స్తా	-9.63136
▁కనుగొన	-9.63176
▁తోడే	-9.63201
▁ఆలంపూర్	-9.63237
▁కద్రువ	-9.63237
▁పనిచేశాడు	-9.63237
▁శారద	-9.63238
▁పనస	-9.63255
▁నిర్వహిస్తారు	-9.63292
▁గ్రేడ	-9.63303
▁ఆహారం	-9.63305
▁కాండము	-9.63324
▁పలక	-9.63337
▁వర్ష	-9.63344
▁తెలియదు	-9.63362
▁మతము	-9.63387
ిస్తే	-9.63452
▁కుమారుని	-9.63481
▁సంపాదించి	-9.63511
▁కూడలి	-9.6356
▁ప్రయాణం	-9.63569
▁నిలువ	-9.63596
▁కళ్యాణ	-9.63619
నపుడు	-9.63641
▁వారం	-9.63749
▁షాహ్	-9.6375
▁ఆస్థాన	-9.63791
▁కాన	-9.6385
జు	-9.63873
గణన	-9.6395
▁ప్రముఖమైన	-9.63991
▁రకాలు	-9.64082
▁శనగ	-9.64125
మైనా	-9.64167
▁ఉదా	-9.64173
▁ఉదయ	-9.64226
కేంద్ర	-9.64258
▁పత్రికల	-9.64305
▁చేర్చ	-9.64375
▁పులి	-9.64399
▁యూ	-9.64411
▁ఆకు	-9.64425
చ్చి	-9.64439
▁కొర	-9.64444
▁అత్య	-9.64499
▁చెప్పారు	-9.64539
▁నీళ్ళ	-9.64558
ఉన్న	-9.64624
▁మంత్ర	-9.6464
▁లోనికి	-9.64762
▁గెల	-9.64787
▁సినిమాల	-9.64787
▁ద్వారక	-9.64797
▁యంత్ర	-9.64817
▁రాయి	-9.64845
▁ప్రముఖులు	-9.64915
▁సాంప్రదాయ	-9.65002
▁సంఖ్యలో	-9.65034
▁గురి	-9.65062
ుడిగా	-9.65073
▁బో	-9.65148
▁కప్ప	-9.65198
▁ఉన్నాడు	-9.6521
భావ	-9.65216
యింది	-9.65272
▁స్త్రీల	-9.65275
▁ఖడ్గ	-9.65301
▁కవిత్వము	-9.65328
జాల	-9.65334
పుత్ర	-9.65363
▁ఆదేశ	-9.65388
▁మత్స్య	-9.6541
▁అరేబియా	-9.65411
▁భోజన	-9.65411
▁యాగ	-9.65411
▁కల్యాణ	-9.65412
▁బెల్లం	-9.65418
▁భావిస్తున్నారు	-9.65439
▁ఆలోచన	-9.65445
మెయిన్	-9.65463
గ్రఫ	-9.65471
▁పురాణం	-9.65518
▁సజ్జ	-9.65529
▁రేడి	-9.65558
ిన్	-9.65564
▁కుమ్మ	-9.65587
▁నారాయణయ్య	-9.65612
▁భారతదేశము	-9.65673
▁కూర్చ	-9.65678
నాథ	-9.65679
▁కలిపే	-9.65729
▁వ్యవస్థల	-9.65729
▁ఉగ్రసేన	-9.65764
ఖ్య	-9.65792
▁పత్రిక	-9.65908
▁రాజ్యంలో	-9.65945
మంతా	-9.65978
▁టా	-9.66053
▁వీధి	-9.6607
▁శుక	-9.66084
▁సాధించిన	-9.66087
▁నారాయణుడు	-9.66159
▁పుస్తక	-9.66172
▁సుర	-9.66226
▁అందించ	-9.66252
▁బియ్య	-9.66255
▁కంఠ	-9.66278
▁విషయాలు	-9.66311
ుతోంది	-9.66375
కర్మ	-9.66391
▁సంస్థల	-9.66444
▁మార్పులు	-9.66486
▁శంకర	-9.66509
పీఠ	-9.6652
▁వ్యాప్తి	-9.66588
▁ముక్కలు	-9.66603
▁కారణ	-9.66641
▁గుర	-9.66688
▁కరి	-9.66759
▁యె	-9.66836
▁గమన	-9.6689
▁శాంతి	-9.66923
న్నాడు	-9.6696
మునందు	-9.66965
మ్మెర	-9.66982
గడ	-9.67001
లపై	-9.67051
▁గంగా	-9.67061
▁జె	-9.67106
▁గుర్తించి	-9.67134
ాత్మ	-9.67157
▁మరణించ	-9.67171
▁నిలిచి	-9.67327
▁కథనం	-9.67567
▁పప్పు	-9.67585
▁నాట	-9.67624
▁కొమ్మ	-9.67631
▁కాలక్రమే	-9.67633
▁ఖర్జూర	-9.67633
▁డెల్టా	-9.67633
▁త్రిమూర్తుల	-9.67633
▁శాశ్వత	-9.67633
▁మిగతా	-9.67634
▁ఉపాధి	-9.67634
▁ఇంద్రకీలాద్రి	-9.67636
▁పులుసు	-9.67636
▁పోరాడ	-9.67641
▁నెంబర	-9.67646
▁ఏడవ	-9.67669
▁రామబ్రహ్మ	-9.67675
▁భావిస్తారు	-9.67675
ర్తి	-9.67681
▁వాటికి	-9.67739
▁దశ	-9.67745
▁చెబుతారు	-9.67786
▁నుండ	-9.67802
▁విడి	-9.67812
▁జంతువులు	-9.67819
▁సర్	-9.67974
▁తెలిసిన	-9.68088
▁లక్ష	-9.68184
▁వెండి	-9.6822
ియర్	-9.68409
వంతమైన	-9.68411
▁మోహ	-9.68411
ైతే	-9.68417
▁వచ్చింద	-9.68474
▁ముందుకు	-9.68483
▁వినత	-9.68504
▁బాధ్యత	-9.68513
▁క్ల	-9.68514
▁ప్రయోగ	-9.68571
జ్ఞాన	-9.68577
▁పెంచి	-9.68591
కోసం	-9.68605
▁ఉద	-9.68704
▁లింగము	-9.68706
▁దారిలో	-9.68819
ాదుల	-9.68974
చ్చు	-9.69008
ున్నది	-9.69045
▁పెద	-9.69056
పడ్డ	-9.69098
సిక్	-9.69142
▁చెప్పవచ్చు	-9.69173
చిత్త	-9.69254
▁కంది	-9.69316
▁సొమ్ము	-9.69368
▁విషయము	-9.69388
▁అభి	-9.69463
▁జరుగుతున్న	-9.69522
▁వయసులో	-9.69537
▁పద్యము	-9.69614
▁వార్త	-9.69627
▁ఫ్ర	-9.69663
▁సౌ	-9.69719
ొక	-9.69734
▁ఎదిగ	-9.69806
▁సరిగా	-9.69874
▁స్థిర	-9.69898
సుబ్రహ్మణ్య	-9.69906
▁సత్యభామ	-9.69906
▁రోజూ	-9.69906
▁పెసర	-9.69907
▁సింధు	-9.69908
▁పదమూడ	-9.69909
▁పూర్వీకుల	-9.69916
▁సాయుధ	-9.69941
▁ఆప	-9.69993
▁గింజలు	-9.70019
▁లభించిన	-9.70123
▁తిరుగు	-9.70124
▁ప్రస్తుతము	-9.70145
ాల్సి	-9.70187
▁పంటల	-9.70211
▁దేవుని	-9.70301
▁పెట్టాడు	-9.7032
▁వస్తాయి	-9.70373
లేద	-9.70382
▁తర్	-9.70409
▁రాజైన	-9.7047
▁తోలు	-9.7053
ోత్సవం	-9.70597
▁వాళ్ల	-9.7064
▁అర్థ	-9.70685
▁రచయితలు	-9.70698
▁యుగ	-9.70791
▁ఆకులు	-9.7082
ఖండ	-9.70846
ాలయము	-9.70867
▁కధ	-9.70946
▁పురాణాల	-9.70964
▁వేట	-9.71026
ాంతర	-9.71073
ప్రస్థానం	-9.71131
ెడ్	-9.71217
▁అందరి	-9.713
ినీ	-9.71391
▁అనుభవ	-9.71425
▁కర్తల	-9.71499
ిచ్చే	-9.71533
▁కూరగాయలు	-9.71565
▁వంకాయలు	-9.71595
డమే	-9.71641
▁మార	-9.71643
▁అర్ధము	-9.71672
▁సర్పయాగం	-9.71686
ెక్	-9.71694
▁నై	-9.71702
▁నగరాలు	-9.71791
▁భయ	-9.71818
▁ఉపయోగించి	-9.71928
▁గుహ	-9.72079
▁సీస	-9.72128
▁చెందుతున్న	-9.72158
▁కథల	-9.72196
▁రూపము	-9.72229
▁ఆత్రేయ	-9.72232
▁పరిక్షిత్తు	-9.72232
▁సావిత్రి	-9.72232
▁ఉభయ	-9.72232
▁ముత్యాల	-9.72232
▁విద్యార్థుల	-9.72233
▁అందుబాటు	-9.72236
▁హనుమంతుడ	-9.72239
▁శుభ	-9.72241
▁సత్యనారాయణ	-9.72244
▁రూపాయల	-9.72246
▁ఒకరోజు	-9.72249
▁సందర్భాలలో	-9.72252
▁గంగాదేవి	-9.72256
▁అనుగ్రహం	-9.72257
▁ఇంట్లో	-9.72259
▁ఏమిటంటే	-9.72261
▁తమ	-9.72275
▁దొండ	-9.72283
▁మొదలయ్య	-9.72286
▁అద్భుత	-9.72289
▁కొత్తగూడెం	-9.72299
▁స్ట	-9.72388
▁పలిక	-9.72393
▁స్వంత	-9.72475
▁గ్రహాల	-9.72496
▁రామా	-9.72551
▁లక్ష్మి	-9.726
▁శాత	-9.7271
▁పోయిన	-9.72732
▁ఆవాల	-9.72745
తోపాటు	-9.72749
▁పర్యాటకుల	-9.72752
్రన్న	-9.72755
▁స్థలం	-9.72778
▁వేంకటేశ్వర	-9.72819
▁నాట్యం	-9.72827
▁రూపొంద	-9.72862
▁నిజానికి	-9.72863
▁సిద్ధాంత	-9.72868
▁ఇచ్చాడు	-9.72938
తుంటారు	-9.72954
▁ఆకుల	-9.72971
ేసి	-9.72981
తమ	-9.73102
ినట్లు	-9.73293
▁నెలల	-9.73328
▁ఇల్లు	-9.73458
▁పంటలు	-9.73488
▁లక్షణాల	-9.73533
ముతో	-9.73592
▁కూతురు	-9.73634
▁కీర్తన	-9.73787
▁కేంద్రాల	-9.73883
చాడు	-9.73898
▁బంగాళ	-9.74016
▁జీవితం	-9.74049
పూడి	-9.74065
▁ప్రశంస	-9.741
వంటి	-9.74114
▁నిర	-9.74115
వచ్చి	-9.7412
▁మంట	-9.74165
▁సామెతల	-9.74285
స్తున్న	-9.74313
▁మార్గాల	-9.74406
పల్లె	-9.74464
▁వ్యవహరించ	-9.74497
▁పురాణము	-9.74512
▁పంది	-9.74527
▁ఉంచి	-9.74555
▁గొల్ల	-9.74608
▁తల్లిదండ్రుల	-9.74613
▁ద్వాపర	-9.74613
▁భగవద్గీత	-9.74613
▁భౌతిక	-9.74613
▁హనుమంతరావు	-9.74613
ెరైటీ	-9.74613
▁కళింగ	-9.74613
ణ్ణి	-9.74616
▁కెప	-9.74618
▁మార్కాపురం	-9.74618
▁భోగ	-9.74623
▁పార్వత	-9.74625
▁లీలావతారాల	-9.7464
ొక్క	-9.74681
▁పాలకుల	-9.74691
ీకరించ	-9.7471
▁నియంత్రణ	-9.74711
మత	-9.74755
▁దూర	-9.74769
▁తీగల	-9.74777
▁నీతి	-9.74801
▁శివలింగ	-9.74811
▁దృష్టి	-9.74871
▁వేయ	-9.74952
మ్మెల	-9.74969
ంగు	-9.74985
▁జరిప	-9.74988
▁మారి	-9.75047
▁కోరాడు	-9.75064
▁చేయుటకు	-9.75085
లూరి	-9.75099
▁ఊరగాయల	-9.75182
▁నివసించిన	-9.75197
▁దేవస్థానం	-9.75206
▁రోడ్	-9.75264
రమణ	-9.75289
▁అంతేకా	-9.75361
త్యం	-9.75387
▁బె	-9.75469
▁పట్టణాలు	-9.7547
▁కొన	-9.75493
▁పోలి	-9.75494
▁చరిత్రను	-9.75588
▁ఆధారాలు	-9.7559
వంశ	-9.75596
▁సుల్తానుల	-9.75607
▁సృష్టించ	-9.75638
▁ప్రాంతముల	-9.75677
▁జామ	-9.75766
▁తీయ	-9.75824
▁నేషన	-9.75923
ధర	-9.75927
పీడ	-9.75971
▁భాస్కర	-9.7598
▁విలసిల్ల	-9.7599
▁డిగ్రీల	-9.76012
▁దిన	-9.76044
▁ఎల్ల	-9.76115
▁అంక	-9.76137
▁శంతనుని	-9.76204
▁స్వయం	-9.76264
▁లంక	-9.76286
▁రైత	-9.76289
్యే	-9.76318
▁తీసి	-9.7632
స్థానంలో	-9.76352
మధ్య	-9.76434
▁వుండే	-9.76457
▁కవిత్వం	-9.765
▁ప్రస	-9.76567
▁సెం	-9.76575
▁వివరాల	-9.76594
రకాల	-9.76658
▁బిడ్డ	-9.76658
▁పండి	-9.76659
▁సమాజంలో	-9.76722
▁సీతా	-9.76728
ిచ్చి	-9.76741
▁స్వా	-9.76801
▁ప్రఖ్యాతి	-9.76838
నాధ	-9.76962
▁చిక్క	-9.77002
▁ఇక్ష్వాకు	-9.77052
▁జీలకర్ర	-9.77052
▁హృదయ	-9.77052
▁హెక్టార్ల	-9.77052
▁ఆకుపచ్చ	-9.77052
▁బ్రౌను	-9.77052
▁హీరో	-9.77052
▁ప్రవహించే	-9.77053
▁అనిపిస్తుంది	-9.77054
▁స్వర్గ	-9.77055
▁మచిలీపట్నం	-9.77055
▁కిలోమీటర్లదూరం	-9.77059
▁భృగువు	-9.77071
▁పీచు	-9.77071
చ్ఛ	-9.77072
▁ఆరంభ	-9.77151
▁చేసుకున్నాడు	-9.77157
మారు	-9.77186
▁దేహ	-9.77199
▁ఆనాటి	-9.77202
▁నేడు	-9.77202
▁పూజించ	-9.77257
▁వ్యవస్థాపకుడ	-9.77268
▁పుత్రుడ	-9.7727
దట	-9.7727
▁ఎనిమిదో	-9.77302
క్షేత్రం	-9.77319
▁దత్త	-9.7732
▁బీన్స్	-9.77333
▁ప్రారంభించారు	-9.77368
▁ఖాతము	-9.77406
▁ముఖ్యపట్టణం	-9.77422
▁క్ష	-9.77459
▁మట్ల	-9.77474
డికల్	-9.77484
▁మార్గాలు	-9.77513
▁పావు	-9.77517
▁వెళ్ళు	-9.77558
▁మొగ	-9.77573
▁గోపుర	-9.77609
▁చదివ	-9.77681
▁ఎత్తి	-9.77692
▁చాలు	-9.77709
▁కనుమ	-9.77758
▁ఒక్కో	-9.77763
భీ	-9.77779
▁గీత	-9.7781
ట్లుగా	-9.77852
ట్స్	-9.77866
ెవర	-9.77868
▁కలిగింది	-9.77929
▁దైవ	-9.77955
▁ఉత్తమ	-9.77958
▁సంస్కృతము	-9.78066
▁సే	-9.7807
దారుల	-9.78104
▁ఆన్	-9.78134
▁సప్త	-9.78191
గర	-9.78303
▁పదాలు	-9.78327
▁కనపడ	-9.78435
▁కీర్తించ	-9.78504
డో	-9.78505
▁నిర్మాణము	-9.78511
ాడే	-9.78544
▁తామ	-9.78546
షుల	-9.78599
రల్	-9.78655
▁సమస్యల	-9.78656
▁ఐత	-9.78709
▁అన్నారు	-9.78776
▁గౌరవ	-9.78863
▁ప్ల	-9.79014
▁అధికారుల	-9.79125
త్సవ	-9.79148
బుల్	-9.79205
నున్న	-9.79245
▁పరికర	-9.7926
వుతుంది	-9.7934
▁సంప్రదాయం	-9.79356
▁అందరిక	-9.79356
▁నుంచ	-9.79415
▁పరిష్కార	-9.79432
కై	-9.79478
▁మగ	-9.7952
▁బోధించ	-9.79534
▁దేవదానవ	-9.79551
▁జయప్రద	-9.79552
▁నాగరికత	-9.79552
▁మద్రాస్	-9.79552
▁నిర్వచనోత్తర	-9.79552
▁పార్లమెంటు	-9.79552
▁గండికోట	-9.79552
▁వసుదేవుని	-9.79552
▁దొరికిన	-9.79554
▁దిక్కు	-9.79556
▁గంధర్వ	-9.79559
▁కాలక్రమం	-9.79575
▁పులోమ	-9.79575
▁ఆదిశేషువు	-9.79586
▁మోట	-9.79597
▁పాతాళ	-9.79598
▁అత్తి	-9.79598
▁తెలుస్తోంది	-9.79642
ష్ఠ	-9.79667
▁అవసరమైన	-9.79727
▁ఏదో	-9.79744
చెర్ల	-9.79776
▁గణన	-9.79796
బర	-9.79815
▁దోష	-9.79835
▁అర్జునుడి	-9.7984
▁జనమేజయుని	-9.79931
▁సోమ	-9.79949
▁ప్రత్యక్షమై	-9.7995
▁బోధన	-9.79963
▁అటు	-9.79979
▁జీవి	-9.79996
▁బిగ	-9.80022
▁గ్రంథం	-9.8014
▁పర్వం	-9.80147
ర్ప	-9.80157
▁అయే	-9.8018
▁లోతు	-9.80258
▁తిరు	-9.80266
▁యు	-9.80303
▁ప్రయోగించడ	-9.80381
▁తాలూకాల	-9.80398
ప్పుడే	-9.80505
▁నిర్మల	-9.80506
▁కళా	-9.80507
▁భూముల	-9.80513
ావళి	-9.8056
▁పద్యాలలో	-9.80601
▁తమకు	-9.80604
▁నిండ	-9.80648
▁పరిమాణము	-9.80769
ెర	-9.80784
సన్	-9.80808
▁స్థ	-9.80869
▁ఉన్నాయ	-9.80869
నూరి	-9.80872
▁గడ్డ	-9.80886
▁భారతంలో	-9.8091
▁సామంత	-9.80936
▁చేయు	-9.80995
▁త్రి	-9.81033
▁విభాగం	-9.81034
▁నొ	-9.81039
▁ఇంట	-9.81056
▁మొదల	-9.81099
▁పిలు	-9.81162
లూరు	-9.81213
▁కావడం	-9.81234
ుకారు	-9.81325
ెబ్	-9.8135
పోయాయి	-9.81354
▁కాపు	-9.81358
కునిగా	-9.8137
▁దేవాలయాలు	-9.81409
▁వేసిన	-9.81458
విభ	-9.81464
▁ఆధారాల	-9.81514
▁దుంపల	-9.81553
యానం	-9.81621
▁త్ర	-9.81642
▁మోక్ష	-9.81665
▁చక్కగా	-9.81678
▁చూపి	-9.81711
▁సంఘాల	-9.81812
▁యుగం	-9.81857
▁పేరి	-9.81948
ాచార్యుడ	-9.82045
▁విద్యుత్	-9.82086
ాసుర	-9.82109
పునర్వ్యవస్థీకరణ	-9.82116
▁కల్వకుర్తి	-9.82116
▁ఛత్తీస	-9.82116
▁లభ్యమ	-9.82116
▁ఫిలిప్	-9.82116
▁బార్లీ	-9.82116
▁తెలుస్తుంది	-9.82117
▁వచ్చాయి	-9.82119
▁ఫోన్	-9.8212
▁నాశన	-9.82122
▁కొలువు	-9.82123
▁ఆరవ	-9.82128
▁నిర్మిత	-9.82134
▁పట్టాభిషేక	-9.82136
▁థర్	-9.82138
ీశ్వర	-9.82143
▁ఆధారపడి	-9.82143
ణ్య	-9.82144
▁చేస్తే	-9.82147
▁లభించింది	-9.82157
▁పదార్ధాల	-9.82172
▁కరుణ	-9.82194
▁సంవత్సరము	-9.82218
ఫున	-9.82226
▁దబ్బ	-9.82236
వేత్త	-9.82261
మర్రి	-9.82267
▁వ్యా	-9.82271
▁సౌకర్యాల	-9.82286
▁మెంతు	-9.82286
▁చేయబడింది	-9.82289
▁మైస	-9.82302
▁తినడం	-9.82318
లక్	-9.8233
▁సగం	-9.82351
▁ఏమి	-9.82356
▁ఎడమ	-9.82378
▁దానితో	-9.82394
▁పేట	-9.82396
▁ఊరగాయల్	-9.82428
ండా	-9.82457
▁వుంటాయి	-9.8246
▁జీ	-9.82465
▁కాలువల	-9.82476
▁వరం	-9.82485
▁గణాంకాల	-9.82487
పొ	-9.82554
ాభిషేక	-9.82567
▁వనవాస	-9.82585
▁వేసవి	-9.82625
▁నిన్న	-9.82634
శ్య	-9.82702
▁రచించారు	-9.82806
రకం	-9.8282
ుచున్న	-9.82825
▁సంవత్సరములు	-9.82904
కాయలు	-9.82998
▁క్యా	-9.8303
▁దంత	-9.83064
ర్వేట	-9.83072
▁కిలోమీటర్లు	-9.83124
▁నియోజకవర్గం	-9.83177
▁డిగ్రీ	-9.83227
▁సింగ	-9.83248
ఎ	-9.83254
▁శ్రీకృష్ణదేవరాయ	-9.83284
▁సౌకర్యము	-9.83301
డని	-9.83303
▁రచయితల	-9.83339
ంపల్లి	-9.83373
▁చదవ	-9.8339
్యము	-9.83402
▁తెలుసుకోవ	-9.83525
▁జై	-9.83532
▁పేర్ల	-9.83539
▁మెర	-9.83563
▁రాక	-9.83669
▁వైభవ	-9.83676
దృ	-9.83693
▁పాలక	-9.83783
▁థా	-9.83797
పైన	-9.83879
▁యజ్ఞ	-9.83996
▁నేర్ప	-9.84024
▁పాఠ	-9.84139
▁చాటువు	-9.84151
▁జరుగ	-9.84186
యాస్	-9.84251
▁సందర్భ	-9.84254
బెట్టి	-9.84257
▁పాత్రలు	-9.84381
▁బండల	-9.84428
▁తెలుసు	-9.84493
▁అర్థము	-9.84583
పడ్డాడు	-9.84599
▁అధ్యక్షుడ	-9.84747
▁ఆమోదం	-9.84747
▁ద్వాదశ	-9.84747
▁స్రవంతి	-9.84747
▁యాంత్రిక	-9.84747
▁రహస్య	-9.84747
▁ప్రశాంత	-9.84747
▁బ్రహ్మాండ	-9.84748
▁సగటు	-9.84749
▁దిగుబడి	-9.84749
▁ఊహించ	-9.84754
▁పత్తి	-9.84758
▁అభిమాన	-9.84767
▁ప్రధమ	-9.84767
▁వృత్తి	-9.84782
▁రాజంపేట	-9.84788
▁డె	-9.84795
▁ప్రకటించింది	-9.84813
▁పక్షుల	-9.8482
ద్వారా	-9.84829
▁వచ్చినది	-9.84872
▁బాబు	-9.84893
▁దట్టమ	-9.85023
▁పెట్టె	-9.85031
చేశారు	-9.85078
ాల్సిన	-9.85111
మాంబ	-9.85158
▁వ్యవస్థలో	-9.85188
▁కావడంతో	-9.85199
▁గోరు	-9.85219
వృ	-9.8531
▁లేకపోవడం	-9.85321
▁మెచ్చి	-9.85418
▁విశ్వవిద్యాలయము	-9.85448
▁వృక్ష	-9.85469
▁శతాబ్దమున	-9.85476
గారి	-9.85551
▁శ్రీరాముని	-9.85559
▁సీతారామ	-9.85562
▁ముడి	-9.85595
▁పుత్రులు	-9.856
▁పోతు	-9.85623
▁కంప	-9.85624
ావతారం	-9.85648
▁పరిశోధనా	-9.85669
▁నూతిలో	-9.85682
రాగ	-9.85757
▁జాన	-9.85759
▁రచనల	-9.85805
▁మకర	-9.85842
▁ఒకడు	-9.85866
▁త్రాగ	-9.85874
▁మోస	-9.85881
▁వర్ణముల	-9.8595
▁నవంబరు	-9.85976
▁చొప్ప	-9.85997
ులై	-9.86108
వతి	-9.8616
▁దున్న	-9.86162
▁ఆస్త	-9.86176
ంద్ర	-9.86268
రిగి	-9.86312
▁వాగు	-9.8632
▁అనబడ	-9.86333
▁వెళ్ల	-9.86342
బెట్ట	-9.86509
▁నూతి	-9.86521
▁ముస్లిం	-9.86575
▁విమానాల	-9.86607
▁కావాలి	-9.86646
▁యుద్ధంలో	-9.86673
తుంటే	-9.8671
▁శ్రీకృష్ణుడి	-9.86763
కాదు	-9.86791
▁తెలుపు	-9.86897
▁జెట్	-9.86906
▁కుటుంబము	-9.8693
▁చర్మ	-9.86947
▁అనువదించ	-9.87047
▁దొ	-9.87132
▁రచనా	-9.8714
▁గజ	-9.87241
డవ	-9.87266
▁నృత్యము	-9.87362
▁అయ్యే	-9.87389
ిడి	-9.87424
▁రిజర్వ	-9.87442
▁ఆంగ్లేయుల	-9.8745
▁ఇండియన్	-9.8745
▁విస్తీర్ణము	-9.8745
▁అమరావతి	-9.8745
▁టౌన్	-9.8745
▁దృశ్య	-9.8745
▁ఇందూరు	-9.8745
▁నిరవాకి	-9.8745
▁యోధుడు	-9.8745
▁సికింద్రాబాద	-9.8745
▁పిలిచి	-9.87451
▁పశువుల	-9.87454
▁దర్శనీయ	-9.87468
▁బెంగాల	-9.87482
▁వ్యాధి	-9.87482
▁కిమీ	-9.87483
▁కొంతమంది	-9.87497
▁గోప	-9.87515
గింజ	-9.87522
▁నారాయణపేట	-9.87536
▁ప్రహ్లాదుని	-9.87547
▁కోసమ	-9.87555
్రం	-9.87562
▁ప్రతిష్ట	-9.87563
▁కనిపిస్తాయి	-9.8757
▁బహుశ	-9.87601
▁వ్రాసి	-9.87631
▁కలప	-9.87663
షావ	-9.87686
▁ఇవన్న	-9.87713
▁కల్ప	-9.8773
▁చెర	-9.8774
▁ఎనిమిదవ	-9.87835
▁చతుర్	-9.87878
లనుండి	-9.87883
▁వయసు	-9.87893
▁రాచ	-9.87909
▁మరణం	-9.87936
▁సూత్ర	-9.87943
▁మునుప	-9.87944
▁తప్పు	-9.87956
▁మొదలుపెట్ట	-9.87992
▁పరికరాల	-9.88076
▁మాసం	-9.88085
క్య	-9.88118
వేసి	-9.88122
▁రాజకీయంగా	-9.88213
యల్	-9.88227
▁ఇద్దర	-9.88254
▁నూరు	-9.88267
▁చేరాడు	-9.88301
▁ఆపై	-9.8832
నాధుడు	-9.88382
▁శంతన	-9.88468
▁వ్యాకరణ	-9.88513
▁చీల	-9.88523
▁టై	-9.88562
పోవడం	-9.88583
▁స్థానాల	-9.88605
కారం	-9.8866
ీకరణ	-9.88673
పట్టణం	-9.88675
▁సాల	-9.88714
నరసింహ	-9.88732
ధినేత	-9.88739
▁జన్మిస్తాడ	-9.88764
సార్లు	-9.88774
వాణి	-9.88916
మస్	-9.88948
ణ్యం	-9.89073
▁నక్షత్రాల	-9.89157
▁కర్పూర	-9.89195
ధ్ర	-9.89274
కర్	-9.89277
▁క్రమంలో	-9.89298
▁మీటర్లు	-9.89312
▁భాగవతంలో	-9.89313
▁ప్రకటించ	-9.89316
▁తొల	-9.89334
▁మూస	-9.89347
▁సూర్యుని	-9.89367
▁సంత	-9.89436
ండమూర	-9.89446
ేలా	-9.89485
వూరు	-9.89495
▁సరా	-9.89561
▁స్త్రీ	-9.89577
▁కట్టడ	-9.89584
▁నకు	-9.89631
పిరి	-9.89728
▁ప్రాంతములు	-9.89802
▁తిన్న	-9.89816
▁ఉద్యమాల	-9.89834
▁కలుగ	-9.89834
▁దుర్గా	-9.89857
▁సంతోష	-9.90164
▁పోయింది	-9.90212
▁హిరణ్య	-9.90227
▁అతిశయోక్తి	-9.90228
▁కమిటీ	-9.90228
▁జవహర్	-9.90228
▁ప్రణాళిక	-9.90228
▁రొట్టె	-9.90228
▁లక్కమాంబ	-9.90228
▁అనెదరు	-9.90228
▁వాల్మీకి	-9.90228
▁శీర్షిక	-9.90228
▁సరస్సు	-9.90228
▁తణుకు	-9.90228
▁వ్యవహరిస్తారు	-9.90231
▁శతకము	-9.90231
▁మనుషుల	-9.90232
▁తక్షకుడ	-9.90234
▁కుంతి	-9.90235
▁గన్నవరం	-9.90239
▁తరతరాల	-9.9024
▁హాస్య	-9.9024
▁వర్గ	-9.90241
▁బహువిధ	-9.90248
▁సిద్ధేంద్ర	-9.9026
▁సత్	-9.90261
బడే	-9.90288
▁దీక్ష	-9.90315
▁తగినంత	-9.90334
▁శాసనం	-9.90355
▁భట్టు	-9.90358
▁సొర	-9.90371
▁ప్రహ్లాదుడు	-9.90421
▁కోరికపై	-9.90453
▁పెట్టడం	-9.90466
▁కావ్యాలు	-9.90519
▁షాహీ	-9.90546
ోన్నత	-9.90566
▁నియంత్రించ	-9.90574
▁తత్వ	-9.90595
గలరు	-9.90637
▁మచ్చుకు	-9.90656
ప్పటి	-9.90674
▁శాప	-9.90707
▁తీరు	-9.90721
▁ఆస	-9.90746
▁తాళ	-9.90759
▁పేల	-9.90765
▁సుఖ	-9.90834
▁వుండ	-9.90836
▁గండ	-9.90863
▁మొగలు	-9.90997
రక్ష	-9.91022
ోటు	-9.91141
▁ఫ్రెంచి	-9.91165
బట్ట	-9.91166
▁రెండ	-9.9121
కార్య	-9.91213
గాయ	-9.9122
గలదు	-9.9133
▁మునిగి	-9.91334
▁రామచంద్ర	-9.91356
దేశానికి	-9.91377
▁సమయములో	-9.91433
ుద్ర	-9.91447
▁తీ	-9.91475
ాలయాలు	-9.91569
▁అంతరించి	-9.91612
బద్ధ	-9.91658
▁అగు	-9.91675
రించి	-9.91718
▁అడుగ	-9.91725
భక్త	-9.91756
▁సార్లు	-9.91817
▁జయ	-9.91821
▁పురాణాలలో	-9.91886
▁పౌ	-9.91904
▁చేశే	-9.91913
▁వార్	-9.91927
ున్నా	-9.91964
▁సేకరించ	-9.92095
▁షాహ	-9.92114
స్థాయి	-9.92128
▁పక్కన	-9.92208
▁సంస్కృతిలో	-9.92215
▁తీస	-9.92303
▁ఫల	-9.92311
▁వెల్ల	-9.92464
▁పోతుంది	-9.92498
వలన	-9.92534
డ్డు	-9.9259
▁వ్యాప్త	-9.92591
▁మిల్ల	-9.92601
▁సాధించి	-9.92665
▁సంపాదించ	-9.92721
స్తోంది	-9.92861
▁మండలి	-9.92885
దారి	-9.93035
▁దర్శనం	-9.9304
▁పూల	-9.93067
లోకంలో	-9.9308
▁కర్మాగార	-9.93085
▁భరద్వాజ	-9.93085
▁మనుమసిద్ధి	-9.93085
▁శ్రేణి	-9.93085
▁మిలియన్	-9.93085
▁తిమ్మన	-9.93085
▁మనస్సు	-9.93085
▁సందేహ	-9.93085
▁మాధ్యమ	-9.93086
▁అభిప్రాయము	-9.93086
▁పెసలు	-9.93089
▁తేడా	-9.93091
▁చట్టం	-9.93092
▁పండిస్తారు	-9.93097
▁వాహనము	-9.93102
▁సంభాషణ	-9.93105
▁విశ్వనాధ	-9.93106
స్థాపన	-9.93115
▁కృతి	-9.93132
▁మహావీర	-9.93137
▁పథక	-9.93138
మేజర్	-9.93139
▁చేస్తాయి	-9.93156
▁సమాధ	-9.93163
▁వారధి	-9.93168
మాన్	-9.93168
చారు	-9.93179
▁మరణించడం	-9.93185
▁స్థితిగతుల	-9.93195
త్రిక	-9.93218
▁ప్రాయం	-9.93219
▁శిష్ట	-9.93224
▁కమలా	-9.93235
▁భీష్ముడు	-9.93264
▁రాష్ట	-9.9328
▁కలిగారు	-9.93287
▁ఆశ్రమ	-9.93289
▁కాలేజీ	-9.933
▁ఫ్ల	-9.93312
వబడే	-9.93358
▁వ్యాసం	-9.93362
▁కురుక్షేత్ర	-9.93369
▁ఇవ్వడం	-9.93375
ప్రస	-9.93417
ంద్రీ	-9.93419
▁సంవత్సరములో	-9.93487
▁ఆచార్య	-9.93488
▁దుప్ప	-9.93506
▁సుజ	-9.93555
▁బయలు	-9.93567
▁దారి	-9.93619
▁అహోబిలంలో	-9.93628
▁ఫైలు	-9.93653
లెస్	-9.93654
▁అవతరించాడ	-9.93688
▁నిండి	-9.93734
▁ఆటో	-9.93745
▁పెట్టే	-9.9375
▁శిల్పాల	-9.93758
లాగే	-9.9376
▁ఎవరు	-9.93761
▁పంచాయతీ	-9.93765
ున్నప్పుడు	-9.93773
▁చెప్పడానిక	-9.93792
▁తరచు	-9.93803
▁మహాభారతంలో	-9.9382
ంత్ర	-9.93827
▁లేడ	-9.93904
ంచే	-9.93985
ున్నట్లు	-9.93994
▁మార్	-9.94024
▁వాతావరణము	-9.94052
▁చెప్పడం	-9.94108
ినాడు	-9.9417
▁ఉద్యమం	-9.94196
సాగాడు	-9.9421
▁ప్రదర్శించ	-9.94229
▁వేగ	-9.94233
▁వెళ్లి	-9.94237
▁ప్రారంభమైన	-9.9432
▁అడుగుల	-9.94347
▁పూజా	-9.94357
వరు	-9.94367
▁యుగాల	-9.94407
▁ప్రసిద్ద	-9.94419
▁చెబుత	-9.94487
▁శుకృని	-9.94553
▁సంధ	-9.94586
నామా	-9.94635
బడతాయి	-9.94753
▁కమ్యూనిస్టు	-9.94755
▁స్తంభ	-9.9476
జేయ	-9.94783
▁కాళ్ళ	-9.9487
▁కిలోల	-9.94965
▁నిర్మాణాల	-9.94977
▁మొదలగున	-9.95001
▁మరీ	-9.95021
▁కృష్ణదేవరాయలు	-9.95035
▁సంఘటన	-9.95183
పాటి	-9.95213
▁తెలిప	-9.95286
▁సాధన	-9.9533
▁తెలుసుకు	-9.95344
ంచీ	-9.95361
ఠా	-9.95421
పేరు	-9.95423
▁పిల్	-9.95429
మండలం	-9.95481
ండ్ర	-9.95489
▁చుట్టుప	-9.95507
ధ్వ	-9.95517
దయిన	-9.95531
▁మంగ	-9.95545
వారం	-9.95575
రాని	-9.95622
▁మండ	-9.95638
తార	-9.95652
కారుడ	-9.95682
▁ఆచార	-9.95735
▁విగ్రహాల	-9.95757
▁రకంగా	-9.95761
కంటె	-9.95776
▁ఆపి	-9.95813
▁సందర్శించి	-9.95825
▁యువ	-9.95978
దేశము	-9.96008
▁ప్రవేశించ	-9.96016
▁కెన	-9.96018
▁జ్వాలా	-9.96026
▁ప్రాచుర్యము	-9.96026
▁ఆవిర్భావ	-9.96026
▁టెలిస్కోపు	-9.96026
▁ప్రాధమిక	-9.96026
▁హిరణ్యదేశమ	-9.96026
▁ఎగుమతి	-9.96026
▁సన్యాస	-9.96026
▁నారింజ	-9.96026
▁మెట్టవంగ	-9.96026
▁పిఠాపుర	-9.96026
▁అప్పుడప్పుడ	-9.96027
▁ఇసుక	-9.96028
▁విదేశీ	-9.96032
▁నిరంతర	-9.96035
▁భద్రపరచ	-9.96039
▁శివరాత్రి	-9.96039
▁వాస్తవ	-9.9604
ద్వార	-9.96043
▁లేకపోతే	-9.96044
▁బ్యాంకు	-9.96045
▁ద్రవిడ	-9.96049
▁పర్షియ	-9.96058
▁సైన్స	-9.96062
ారట	-9.96064
▁గ్రహించిన	-9.96076
▁కలహాల	-9.96077
▁కొంతకాలం	-9.9609
▁ఎత్తైన	-9.96094
▁ప్రధానమంత్రి	-9.96136
▁నడవ	-9.96163
▁పేర్కొన్నారు	-9.96167
▁గోకర	-9.9617
▁పడుతుంది	-9.96172
▁వెనక	-9.96175
▁మొదట్లో	-9.9618
▁దక్ష	-9.96224
▁అద్దంకి	-9.96228
▁చెంది	-9.96259
▁బట్ట	-9.96278
▁చార్	-9.96282
▁రాష్ట్రపతి	-9.96296
▁తిలక	-9.96296
▁కనక	-9.96306
▁కళ	-9.96327
దేవుడు	-9.96355
▁ఏమీ	-9.96394
▁తేలికగా	-9.96401
▁లేచి	-9.9641
యుత	-9.96489
▁నీరా	-9.96565
సార	-9.96575
▁పంపాడు	-9.96616
▁రైళ్ళు	-9.96621
▁నువ్వు	-9.96641
▁అంతర్	-9.96747
హారం	-9.96781
▁గోడ	-9.96782
▁అక్షాంశాల	-9.968
▁భంగ	-9.96825
▁రీతి	-9.9694
▁విపరీతము	-9.96947
▁కవిత్రయము	-9.96973
▁తయార	-9.96996
▁ఆక్రమించ	-9.97009
స్వర	-9.97116
▁వుంట	-9.9717
▁సమాచారం	-9.97181
▁తానే	-9.97242
▁పూలు	-9.97299
▁ప్రభుత్వము	-9.97302
▁కనిపిస్త	-9.97321
▁కాం	-9.97475
▁పెట్టిన	-9.9749
▁కొంతభాగ	-9.97503
బ్రహ్మ	-9.97515
▁వర్గాల	-9.97518
శ్రీకాళహస్తీశ్వర	-9.97541
▁కంపెనీల	-9.97548
▁పుణ్యక్షేత్రాలు	-9.97555
ఏ	-9.97559
ులయ్యారు	-9.9757
▁వ్యక్తిగ	-9.97674
షు	-9.97686
▁నియోజకవర్గాల	-9.97708
▁పట్టి	-9.97732
వర్మ	-9.97763
▁గాక	-9.97778
▁స్థాన	-9.97826
▁వ్ర	-9.97836
విధంగా	-9.97841
▁సామ్రాజ్యంలో	-9.97958
కుంట	-9.97966
▁సంప్రదాయము	-9.97984
▁కోపించి	-9.98034
▁ఫ్రెంచ	-9.98042
▁పోత	-9.98131
▁లోకంలో	-9.98193
▁జూల	-9.98214
▁లోయ	-9.98224
▁నిజం	-9.98227
▁నారద	-9.98249
▁శిక్ష	-9.98279
ంలోని	-9.9831
▁వేస్త	-9.98311
టూరు	-9.98331
ంటుంది	-9.98345
ంగారెడ్డి	-9.98369
పట్ల	-9.98457
▁చంద	-9.98507
▁పడ్డ	-9.98508
▁గురించిన	-9.98513
▁పురుష	-9.98537
▁జే	-9.9864
▁కొలను	-9.98653
సేవ	-9.98685
▁విగ్రహాలు	-9.98698
▁సులభ	-9.98717
▁చెప్త	-9.98734
▁ఆలయాల	-9.98817
▁అవతరించి	-9.98874
▁న్యూ	-9.98897
▁రాన	-9.98912
▁శిశు	-9.98963
▁అనువర్తనాల	-9.9897
▁కష్టం	-9.9897
▁లోన	-9.99026
▁స్వయంభువు	-9.99056
▁జనసంఖ్య	-9.99056
▁మున్సీపాలిటీ	-9.99056
▁మ్యూజియం	-9.99056
▁మ్రొక్క	-9.99056
▁రామవరప్పాడు	-9.99056
▁సరస్వతీ	-9.99056
▁విక్రమసింహ	-9.99056
▁నమూనా	-9.99057
▁గ్రేటర్	-9.99057
▁ఎదిరించి	-9.99057
▁అటవీ	-9.99057
▁సోమయాజి	-9.99058
▁కొంచె	-9.99059
▁ఘోర	-9.99059
▁తుల్య	-9.9906
సంగ్రామ	-9.99061
▁మినుములు	-9.99062
▁మనుమడు	-9.99062
▁వనపర్తి	-9.99063
▁పామరుల	-9.99065
▁విజయవాడను	-9.99067
▁అంతర్ముఖ	-9.99067
స్తుంద	-9.9907
▁స్థూలకాయ	-9.99071
▁వెళ్తుంది	-9.99072
▁పిలువబడే	-9.99072
▁ఎర్రాప్రగడ	-9.99073
▁పాండురాజు	-9.99075
▁వంశస్తుల	-9.99076
▁ఆస్తీకు	-9.99078
▁మంగళ	-9.99078
▁సత్యవతి	-9.99081
▁కనీస	-9.99081
▁తిరస్కరించ	-9.99084
▁పార్కు	-9.99092
▁ఒకొక్క	-9.99092
▁పదార్ధము	-9.99093
▁ముగిస	-9.99102
▁రత్నాల	-9.99109
▁పెన్నా	-9.99112
▁వెలువడ	-9.99137
▁జీడి	-9.99139
ుతుందని	-9.99152
▁స్థాపించిన	-9.99156
డరేవు	-9.99168
▁ఉంటాడు	-9.99174
ోద్యమ	-9.99189
▁నిధి	-9.9919
▁అడిగాడు	-9.99234
▁ప్రచారంలో	-9.99269
ుకోవాలి	-9.99303
▁ఫంక్షను	-9.99308
▁సీతమ్మ	-9.99318
▁నీటివం	-9.99323
▁మరణించాడు	-9.99392
▁వంటకాల	-9.99417
▁కలుగుతుంది	-9.99451
▁తరగతి	-9.99452
▁ఈజిప్టు	-9.99453
▁ఊర్	-9.99487
ధర్మ	-9.9953
నానా	-9.99541
▁దశలో	-9.99575
టమి	-9.9958
▁మహానద	-9.99593
▁యక్ష	-9.99629
ుచూ	-9.9963
య్యారు	-9.99633
▁ఎలుగుబంటి	-9.99638
▁సంస్థాన	-9.99647
▁మౌ	-9.99652
▁గట్టు	-9.99684
▁పాముల	-9.99789
▁మధ	-9.99811
ంధ్ర	-9.99824
▁మహాసముద్ర	-9.99872
సాగారు	-10.0004
▁అన్నవర	-10.0004
▁కమల	-10.0005
ాడట	-10.0007
▁అడ్డు	-10.0008
▁పోచ	-10.0013
▁నమ్మకం	-10.0014
▁శర్మ	-10.0032
మల్	-10.0035
▁ప్రబంధము	-10.0036
▁అయ్యల	-10.004
▁నరసింహుడు	-10.0041
▁అనుకున్న	-10.0044
▁ప్రదేశముల	-10.0045
▁ప్రతిపాదించ	-10.0047
తారు	-10.005
య్యాయి	-10.0052
ఆ	-10.0052
▁డబ్బు	-10.0064
రాష్ట్ర	-10.0064
▁శివుడి	-10.0067
▁తీరంలో	-10.0068
స్తున్నారు	-10.0069
▁గ్రంథాలు	-10.007
▁జీవితము	-10.0075
▁రాగి	-10.0084
మణి	-10.0089
▁దేవుడ	-10.0091
▁సెంట	-10.0091
▁వర్గము	-10.0104
▁ప్రాంతములో	-10.0104
స్టి	-10.0109
▁కానుక	-10.0116
▁ఉంటుంద	-10.0118
▁గరి	-10.0119
రాయలు	-10.0132
▁భద్రత	-10.0134
▁చేసినాడు	-10.0141
ర్స్	-10.0145
నంద	-10.0147
▁పద్ధతిలో	-10.0148
▁గోపాలకృష్	-10.0149
▁కాచ	-10.0161
▁వృత్తాంత	-10.0161
▁మూలం	-10.0162
▁నోట	-10.017
▁రాజుకు	-10.018
▁ప్రహ్లాద	-10.0185
ిండి	-10.0186
దుర	-10.0189
▁రాష్ట్రముల	-10.0194
▁రంగుల	-10.0196
ిల్	-10.0198
▁తరలి	-10.0203
▁అధికారిక	-10.0204
▁ఆరంభం	-10.0206
▁నామం	-10.0207
▁కావ్యాల	-10.0208
▁కొండవీ	-10.0209
▁వినియోగం	-10.0211
▁ఆనకట్ట	-10.0214
యగు	-10.0216
▁కేటాయించ	-10.0218
▁చారిత్రిక	-10.0218
▁నమస్కరించ	-10.0218
▁నామధేయ	-10.0218
▁వర్థమానపుర	-10.0218
▁వీరాస్వామయ్య	-10.0218
▁వెంకటరమణయ్య	-10.0218
▁సుసంపన్న	-10.0218
▁ఆఫ్రికా	-10.0218
▁కీచక	-10.0218
▁ధవళ	-10.0218
▁ఎలక్ట్ర	-10.0218
▁విడదీస	-10.0218
▁విడిపించి	-10.0218
▁స్తుతించ	-10.0218
▁తెలీదు	-10.0218
▁నేరేడు	-10.0218
▁తిరుగుతూ	-10.0218
▁మిర్చి	-10.0218
▁కంపైలు	-10.0218
▁ఆచరించ	-10.0218
▁విఠల	-10.0218
▁బొబ్బర్లు	-10.0218
▁కొందరి	-10.0219
▁శత్రు	-10.0219
▁నిడివి	-10.022
▁బౌద్ధమత	-10.022
▁అలంకార	-10.022
▁కలియుగ	-10.022
▁సున్నిత	-10.0221
▁కామారెడ్డి	-10.0222
▁ముంపు	-10.0222
▁నీలగిరి	-10.0222
▁చెప్పింద	-10.0222
▁ఒక్కటే	-10.0223
▁చురు	-10.0225
బాదు	-10.0231
బ్రహ్మేంద్ర	-10.0231
▁ఉండేదని	-10.0233
▁కవితల	-10.0235
▁రాసే	-10.0236
ుతున్నారు	-10.0236
▁నరస	-10.0239
▁మంచు	-10.0239
▁ముద్ద	-10.0243
▁ఉపయోగపడ	-10.0249
▁పెరిగింది	-10.0249
నుబట్టి	-10.0251
▁సిమెంట్	-10.0253
▁నీటిప	-10.0253
▁పాఠకుల	-10.0255
▁వజ్ర	-10.0257
▁నమో	-10.0258
▁ఆపిల్	-10.0258
▁మల్లికార్జున	-10.0259
న్నర	-10.0259
▁ప్రారంభించాడు	-10.0259
▁నామ	-10.0271
పరచ	-10.0277
▁కలిగ	-10.0278
▁విప్ప	-10.0278
▁పాలించాడు	-10.0283
▁గూడ	-10.0292
▁బ్రాహ్మణుల	-10.0299
▁రోహిణి	-10.0313
▁రహదారుల	-10.0313
▁లింగ	-10.0318
▁అనుసంధానం	-10.0329
▁పాటించ	-10.0336
క్వా	-10.0337
▁పిల్ల	-10.0346
▁అందర	-10.0349
▁రాశి	-10.0354
▁ఫర్	-10.0358
▁అచ్చు	-10.0368
▁ద్ర	-10.0384
ుకోవడానిక	-10.0385
▁నోట్	-10.0385
▁బోధ	-10.0387
గోదావరి	-10.0389
▁జిల్ల	-10.0391
▁కట్టి	-10.0396
జన్మ	-10.0401
ుదల	-10.0403
▁ఇంతే	-10.0405
బ్ద	-10.0406
▁న్యాయ	-10.0413
▁తీసుకుంట	-10.0414
▁విభజించ	-10.0419
తరం	-10.0422
▁అడిగి	-10.0422
సేనుడు	-10.0424
▁ఇంద్రుని	-10.0424
▁జరిగినది	-10.0426
▁రావణుడ	-10.0426
▁ఆగ్నేయా	-10.0434
డుతూ	-10.0434
▁కార్యక్రమ	-10.0439
▁చల్లగా	-10.0441
ికా	-10.0443
▁దయ	-10.0446
▁కొండపై	-10.0448
▁సంస్కృతంలో	-10.0448
▁బీర	-10.0452
▁జలము	-10.0452
▁అధి	-10.0454
▁ఫై	-10.0462
▁తగిలి	-10.0464
సాధ	-10.047
▁సామాన్యముగ	-10.0476
▁దొరక	-10.0478
▁శత	-10.0479
▁నృసింహ	-10.048
▁బావి	-10.0482
▁వెలుగులో	-10.0484
ంకార	-10.0487
▁వైకుంఠ	-10.0488
బాల	-10.0493
▁మాస	-10.0497
▁రక్త	-10.05
ికులు	-10.0505
▁కురుక్షేత్రం	-10.051
▁రాఘవ	-10.0516
▁వధించ	-10.052
▁శబ్దము	-10.052
▁వాస	-10.0521
▁జిల్లాల్లో	-10.0522
పాలన	-10.0524
తె	-10.0526
▁జంతు	-10.0529
▁వస్తువు	-10.0535
రిగిన	-10.0535
దాని	-10.0537
▁త్రవ్వ	-10.0537
▁కూడి	-10.0539
కూడదు	-10.0539
▁జ్యోతి	-10.054
▁నివసి	-10.054
▁వృద్ధి	-10.0541
▁ప్రస్తావించ	-10.0541
▁కాబేజీ	-10.0541
▁గేలెక్సీ	-10.0541
▁నాల్గవ	-10.0541
▁పరశురామ	-10.0541
▁యాదర్షి	-10.0541
▁లైబ్రరీ	-10.0541
▁సుప్రభాత	-10.0541
▁హౌరా	-10.0541
▁పరిపూర్ణ	-10.0541
▁కంసుడి	-10.0541
▁పరీక్షిత్తు	-10.0541
▁మంచినీటి	-10.0541
▁వాకిలి	-10.0541
▁పడమర	-10.0541
▁ప్రకారము	-10.0541
▁స్వర్ణ	-10.0541
▁పరిపాలిస్తు	-10.0541
▁నారాయణసూరి	-10.0542
ాదేవి	-10.0543
బోతున్న	-10.0543
▁ప్రభావిత	-10.0543
▁తుంగ	-10.0543
వాణీ	-10.0544
▁మనువు	-10.0545
▁అనొచ్చు	-10.0546
▁భూదేవి	-10.0546
▁నల	-10.0546
దగిన	-10.055
▁నారాయణరెడ్డి	-10.0552
▁ధర్మరాజు	-10.0555
స్తాన	-10.0555
▁ముక్త	-10.0558
▁కాట	-10.0558
▁అయ్యింది	-10.0561
త్తుగా	-10.0562
▁అనువదించారు	-10.0565
ంజలి	-10.0566
▁ఉపదేశించి	-10.0567
▁వాతావరణ	-10.0569
▁కాదని	-10.0569
వారే	-10.057
ముల్	-10.0572
▁ఎవరో	-10.0574
భాషా	-10.0581
జాత	-10.0582
▁యాత్ర	-10.0583
▁తుర	-10.0586
▁ఇన్న	-10.0586
▁నాగయ్య	-10.0587
▁కళ్ళ	-10.0588
ీకరించి	-10.0594
▁వున్నవి	-10.0595
▁సర్ప	-10.0601
▁లక్ష్మణుల	-10.0603
▁మరొకటి	-10.0609
▁నానా	-10.061
వుతాయి	-10.0614
▁కంటి	-10.0619
▁కోరు	-10.0621
గలిగిన	-10.0621
ియన్	-10.0624
▁దక్షిణంగా	-10.0626
క్ష్య	-10.0626
▁పుట్టారు	-10.0629
▁పరిశ్రమల	-10.0635
ింపబడింది	-10.0638
▁నెలలో	-10.0647
▁చేశా	-10.0654
▁సేకరించి	-10.0654
▁గుహల	-10.0656
▁బొమ్మలు	-10.0658
▁వెళుత	-10.0668
▁సంవత్సరంలో	-10.0671
▁పల్ల	-10.0671
▁హస్తాల	-10.0675
తింటే	-10.0678
▁వాడిన	-10.0684
నగ	-10.0685
వంక	-10.0687
కస్	-10.0695
▁పతన	-10.0696
యుడు	-10.0696
▁వాదన	-10.0702
▁లోయలో	-10.0703
▁జిల్లాలోనే	-10.0704
సొ	-10.0706
▁అరుణ	-10.0708
▁బడి	-10.0712
శాఖ	-10.0724
▁పెట్టుక	-10.0726
వీర	-10.0729
ాచల	-10.0731
నాయుడు	-10.0734
జమున	-10.0736
▁దాస	-10.0737
▁రామాలయ	-10.0737
▁అడ్డం	-10.0737
▁ఉపయోగించే	-10.0737
▁మాగ	-10.0745
▁బత	-10.0749
▁లోకానికి	-10.0751
▁రోగ	-10.0756
▁పూర్వకాలం	-10.0757
▁గ్రంథాలయ	-10.0763
▁జయించి	-10.0776
ొచ్చి	-10.0784
ాంబ	-10.0797
▁శిల్పకళ	-10.0805
దండ	-10.0808
▁సౌందర్య	-10.0829
▁కూరగాయ	-10.0833
▁ఏది	-10.0836
▁రామాయణమ	-10.0842
▁మంత్రం	-10.0842
▁లక్షణాలు	-10.0844
▁కుటుంబాల	-10.0851
▁తీరం	-10.0853
▁సదుపాయ	-10.0857
ుకొన్నారు	-10.0858
▁పారి	-10.0863
పాణి	-10.0863
▁ప్రమాణ	-10.0869
రమ్	-10.0873
▁నిశ్చ	-10.0873
▁ఆధ్వర్యంలో	-10.0874
▁ఆపరేటింగ	-10.0874
▁కుంచికపలక	-10.0874
▁కొల్లాపూర్	-10.0874
▁చీకటి	-10.0874
▁జలపాతం	-10.0874
▁టెలిఫోన	-10.0874
▁ప్రయోజన	-10.0874
▁ప్రోగ్రామింగ	-10.0874
▁బుద్దారెడ్డి	-10.0874
▁అభివృద్ది	-10.0874
▁ఐరోపా	-10.0874
▁వెడల్పు	-10.0874
▁వెర్షన్	-10.0874
▁సంయుక్త	-10.0874
▁సస్యశ్యామల	-10.0874
▁కర్నూల్	-10.0874
▁రమణీయ	-10.0874
▁శ్రద్ధ	-10.0874
▁సంవిధాన	-10.0874
▁గడియార	-10.0874
▁అనుగుణ	-10.0874
ారాధన	-10.0874
▁ఆగష్టు	-10.0874
▁రాసాడు	-10.0874
▁పాల్కుర	-10.0875
▁వచ్చారు	-10.0875
▁సగ్గు	-10.0875
▁త్యాగ	-10.0875
▁లాంచీ	-10.0876
▁చీరాల	-10.0879
▁రాజేంద్ర	-10.088
▁వ్యాసుని	-10.0881
ాభి	-10.0881
▁నలుగురు	-10.0882
▁లభిస్తున్నాయి	-10.0883
▁నైన	-10.0883
▁వేరే	-10.0883
▁పీ	-10.0886
▁సంబ	-10.0887
▁ముద్దు	-10.0888
▁మోడ్	-10.0889
▁అనాస	-10.089
▁గమనించవచ్చు	-10.0893
▁జగ్గ	-10.0894
▁గెలుచుక	-10.0896
▁పచ్చిక	-10.0897
▁టొమ	-10.0898
▁వాయువు	-10.0899
▁ఇస్తుంది	-10.0905
▁వెయ్య	-10.0907
▁యాగం	-10.0907
ంగల్	-10.091
ాసన	-10.0913
▁ఇంకో	-10.0914
▁అల్ప	-10.092
నపల్లె	-10.0923
▁లాల్	-10.0927
▁బదులుగా	-10.0929
వచ్చినప్పుడు	-10.0932
▁ఆవిర్భవించ	-10.0935
▁ఈస్ట్	-10.0942
▁అన్నమయ్యకు	-10.0945
▁గన్న	-10.0947
▁తెలుసుకొన	-10.0952
▁చేయి	-10.0953
▁బృంద	-10.0957
మయినది	-10.096
▁అన్నమాచార్యుల	-10.0964
గన్న	-10.0964
▁మోతాదు	-10.0965
▁స్త్రీలు	-10.0966
▁నిర్మించి	-10.0968
ందరిక	-10.0969
ుంటుంది	-10.0978
▁వుండి	-10.0984
▁అడిగ	-10.0987
▁కృష్ణదేవరాయల	-10.0988
త్స	-10.0991
▁భయపడి	-10.0992
శాస్త్రం	-10.1006
▁సమర్పించి	-10.1008
▁ఎన్నిక	-10.1008
▁బంగార	-10.101
▁ఏళ్ళ	-10.101
▁వెంకటేశ్వర	-10.1015
ధులు	-10.1017
▁ఆకాశంలో	-10.1018
▁జంగ	-10.1021
▁రామాలయం	-10.1024
▁చెప్పవచ్చును	-10.1037
▁అశోకు	-10.1039
కూట	-10.1041
▁అశోక	-10.1051
ైంది	-10.1054
▁రామకృష్ణుడ	-10.1055
తనం	-10.1055
ుటచే	-10.106
▁బ్లాక	-10.1064
▁చూచి	-10.1065
▁భద్రా	-10.1068
పెద్ద	-10.1068
▁పల్లవ	-10.107
వ్యవస్థ	-10.1071
▁విస్	-10.1071
▁లాంటిది	-10.1073
▁ఇచ్చ	-10.1075
▁భవన	-10.1076
▁బార	-10.1089
▁క్రీడ	-10.1091
▁రావణ	-10.1097
▁ఉత్సవం	-10.1097
▁నేపథ్యం	-10.1102
▁భయపడ	-10.1105
▁నిదర్శనాలు	-10.1106
▁వేంకట	-10.1108
▁పోవ	-10.1111
గొండ	-10.1114
రచన	-10.1123
▁స్వామికి	-10.1132
ాళి	-10.1144
▁నదిలో	-10.1147
▁అలి	-10.1148
▁గ్రహీత	-10.1155
మామ	-10.1157
▁పైబడి	-10.1157
▁తోడ	-10.1158
▁నిలయ	-10.1167
▁గెలీలి	-10.1169
▁ధర	-10.1189
వచ్చిన	-10.1189
నీరు	-10.1191
▁నల్లని	-10.1192
▁ప్రాముఖ్య	-10.1193
▁సహాయం	-10.1194
▁భీష్మ	-10.1194
ూజు	-10.1198
▁వేయి	-10.12
▁శుద్ధ	-10.1204
▁మాదిరిగా	-10.1205
▁ముల్	-10.1207
▁పనిచేసి	-10.1207
▁పూర్ణ	-10.1208
వింద	-10.1211
▁దాదా	-10.1217
▁కార్బోహైడ్రేట	-10.1219
▁త్రయంబకం	-10.1219
▁చిరునామా	-10.1219
▁ప్రీప్రాసెసర	-10.1219
▁ఫాల్కే	-10.1219
▁వన్యమృగ	-10.1219
▁విద్యాసంస్థల	-10.1219
▁వ్యవహారాల	-10.1219
▁సామర్థ్య	-10.1219
▁అలవాటు	-10.1219
▁పంచాయితీ	-10.1219
▁అరటిపండ్ల	-10.1219
▁ఇరవై	-10.1219
▁కొల్లేరు	-10.1219
▁పదార్ద	-10.1219
▁నాందేడ	-10.1219
▁విభూతి	-10.1219
▁మైత్రి	-10.1219
▁సమావేశ	-10.1219
జీవశాస్త్ర	-10.1219
▁కాశీయాత్ర	-10.122
▁నిర్వచనం	-10.122
▁క్షీర	-10.122
▁దుస్తుల	-10.122
▁ముక్కు	-10.122
▁నో	-10.122
▁సాగిన	-10.1221
▁రాజరాజ	-10.1221
▁మహోన్నత	-10.1221
▁ఎవ్వర	-10.1221
▁ధ్వని	-10.1221
▁గొడవ	-10.1221
▁అరణ్యపర్వములో	-10.1222
▁స్వల్ప	-10.1223
▁నియమించాడు	-10.1223
వనారస	-10.1223
▁వేంగి	-10.1224
▁తేమ	-10.1224
▁దుష్యంతుడు	-10.1226
▁ముదురు	-10.1226
▁భజన	-10.1227
నిర్యాణ	-10.1227
▁నామాల	-10.123
రాబాదు	-10.1233
▁న్యూట	-10.1235
▁వీలైన	-10.1236
▁సమానం	-10.1238
▁మందిరం	-10.124
▁కోరింది	-10.1242
▁రామలింగడు	-10.1256
▁గోవు	-10.1259
▁ఉద్ద	-10.1262
▁తెలిసి	-10.1264
▁బలం	-10.1266
▁ఆలయాలు	-10.1269
▁ఉండేవారు	-10.1273
▁కట్టడాలు	-10.1277
▁నిండిన	-10.1279
నాథ్	-10.1286
▁గుర్తించ	-10.1296
▁దూరమున	-10.13
▁ఆచారాల	-10.1305
▁అంతటి	-10.1305
▁సాధనాల	-10.1305
▁స్థానము	-10.1308
▁పుల	-10.1311
▁స్థాపించ	-10.1318
▁కాంతి	-10.132
▁వస్తూ	-10.1326
▁యజ్ఞము	-10.1335
▁మహాలక్ష్మి	-10.1336
యున్నాడు	-10.1336
▁బ్ల	-10.1349
▁సూచనల	-10.135
▁పదవి	-10.1372
▁విభాగము	-10.1373
్లు	-10.1373
▁చదువ	-10.1376
▁పట్టీ	-10.1383
▁ధర్మము	-10.1387
▁కథా	-10.1388
▁స్టార్చ	-10.139
▁చేయబడ	-10.1394
▁సేవించి	-10.1395
ుకుంటారు	-10.1401
▁స్నాన	-10.1407
▁నవలా	-10.1416
పర్వం	-10.1419
▁అవతర	-10.1421
భూత	-10.1423
▁వాణి	-10.1427
మండలి	-10.1427
▁బూ	-10.1428
దశలో	-10.1435
▁అర్జున	-10.1435
టట్లు	-10.1436
▁పూర	-10.1438
▁నగ	-10.1444
▁పౌర	-10.1448
▁మంచిది	-10.1449
▁పంపిన	-10.1452
▁కార్యాల	-10.1453
▁సమకూర్చ	-10.1468
కళ	-10.148
▁వంద	-10.1481
▁కారణము	-10.1484
▁మహాసముద్రము	-10.1484
▁బాబ	-10.1485
▁దేశాన్ని	-10.1489
▁పిండ	-10.1492
టె	-10.1492
వాక	-10.1493
ార్క	-10.1501
చక్రాలు	-10.1505
▁కొద్ద	-10.1509
ముందు	-10.151
▁రైల్వేస్టేషన్	-10.1512
▁కష్టమ	-10.1516
▁తాలూకాలో	-10.152
క్స్	-10.1533
▁బెండకాయ	-10.1541
ుడికి	-10.1549
▁ఆభరణాలు	-10.1556
▁మొదలై	-10.1561
▁సిద్ధాంతాల	-10.1567
వల్లి	-10.1575
▁స్థూల	-10.1575
తుపవనాల	-10.1576
▁అభయారణ్యం	-10.1576
▁ఏప్రిల్	-10.1576
▁కార్యాచరణ	-10.1576
▁డిజిటల	-10.1576
▁పదకవితా	-10.1576
▁పాల్వంచ	-10.1576
▁పేంజియా	-10.1576
▁పేరొందిన	-10.1576
▁భారతాంధ్రీకరణ	-10.1576
▁మనోహర	-10.1576
▁రూపకల్పన	-10.1576
▁వ్రాశారు	-10.1576
▁కాయగూర	-10.1576
▁కాశ్మీర	-10.1576
▁చిలగడదుంప	-10.1576
▁రుక్మిణీ	-10.1576
▁ఖాళీ	-10.1576
▁స్వీకరిస్త	-10.1576
▁నిర్దిష్ట	-10.1576
▁సంగీతకారులు	-10.1576
▁ప్రతిపాదన	-10.1576
▁నాయకా	-10.1576
▁మేనత్త	-10.1576
▁సంపన్న	-10.1576
▁ఇండో	-10.1576
▁పదార్థాల	-10.1576
▁చిరుతపుల	-10.1576
▁రుక్మిణి	-10.1576
▁సపోట	-10.1577
▁ఏకాదశ	-10.1577
▁సమాధానం	-10.1577
▁నిశ్చయించ	-10.1577
▁పాండురంగ	-10.1577
▁ఆంధ్రరాష్ట్రం	-10.1578
▁సత్రముల	-10.1578
▁నంద్యాల	-10.1578
▁నడుస్తుంది	-10.1578
▁గాంధారి	-10.1579
▁ప్రజాపతి	-10.1579
▁నవాంశ	-10.158
▁అవమాన	-10.1582
▁మిగుల	-10.1583
▁ముసల	-10.1583
▁మూగ	-10.1584
రక్షిత	-10.1584
▁పొలాల	-10.1585
▁అచ్యుత	-10.1585
▁ప్రాధాన్యత	-10.1587
▁వ్యాధుల	-10.1588
▁ఇనుము	-10.1588
▁శంభ	-10.1588
▁యంత్రం	-10.1588
▁సాధు	-10.159
▁మహాభారతము	-10.159
▁ఆవి	-10.1592
▁ఏర్పడ్డాయి	-10.1597
తోంది	-10.16
▁కొండమీద	-10.1602
▁పెరిగ	-10.1602
రూపాలు	-10.1602
▁ఇంటర్	-10.1603
▁అంగీకరించ	-10.1603
▁వేంకటేశ్వరుని	-10.1604
▁మహిమ	-10.1604
▁నగరి	-10.1605
▁వాల్	-10.1606
జ్జ	-10.1609
▁భాగమైన	-10.1612
▁డిసెంబర్	-10.1613
▁సుభద్రా	-10.1617
▁మంజ	-10.1621
▁దక్షిణాది	-10.1624
▁పెట్టింది	-10.1629
▁అంచు	-10.163
▁ఆంధ్రుల	-10.163
జిల్లా	-10.1633
▁పేర్లతో	-10.1633
▁వర్క్	-10.1637
▁వ్యాపించినద	-10.164
▁జప	-10.1641
▁చెప్పటం	-10.1645
▁లైను	-10.1645
▁కుటుంబం	-10.1656
▁అరి	-10.1662
మిచ్చి	-10.1667
▁మార్క	-10.1672
▁జీర్ణం	-10.1674
▁లక్ష్మణ	-10.1678
▁భూమిపై	-10.1684
టర్లు	-10.1685
చోట	-10.1687
▁వసు	-10.1693
▁ప్రాస	-10.1698
రోజు	-10.1709
ిల్లి	-10.1714
▁ఎల్లప్పుడ	-10.1717
▁గమనించ	-10.172
▁తెచ్చ	-10.173
కాలు	-10.1735
▁కుడి	-10.1737
ేస్వర	-10.1739
ేస్	-10.1761
మన్	-10.1761
▁రవి	-10.1763
▁బాష	-10.1764
▁బయటి	-10.1765
య్యాడు	-10.1769
దగ్గ	-10.1769
▁వర్ణము	-10.1771
విధ	-10.1772
▁వచ్చును	-10.178
▁శీతాకాలం	-10.1786
నారాయణ	-10.1795
▁కాయలను	-10.1795
ీరియా	-10.1795
▁కల్గ	-10.1798
ఐ	-10.1799
బాబు	-10.1804
▁కోల	-10.1804
తరహా	-10.1808
▁పంపించ	-10.1808
▁నాద	-10.1811
గురించి	-10.1811
▁ఉందని	-10.1813
▁క్రమణికల	-10.1814
▁వేదాల	-10.1817
మయ్యే	-10.182
ధుడు	-10.182
▁శిల	-10.1828
దళ	-10.1828
▁శాంత	-10.183
ిరెడ్డి	-10.1838
▁ప్రకాశ	-10.1842
▁ప్రమాణం	-10.1844
▁నీవ	-10.1849
▁ఉత్తరమున	-10.185
▁నిర్మించబడిన	-10.1852
▁శివాలయం	-10.186
▁ఇప్ప	-10.1862
ండేవాడు	-10.1867
▁మంత్రాల	-10.1876
ాచార	-10.1881
వహించ	-10.1896
▁తీసుకో	-10.1901
▁వజ్రాల	-10.1901
▁చెయ్యాల	-10.1905
▁పాదం	-10.191
▁లేవ	-10.1913
▁దెబ్బ	-10.1921
మృగ	-10.1924
▁పెను	-10.1927
▁నడప	-10.1931
ుకోవట	-10.1932
కలాపం	-10.1939
▁జంబూ	-10.1946
ొంఠి	-10.1946
▁క్యాబేజీ	-10.1946
▁క్రికెట్	-10.1946
▁గోంగూర	-10.1946
▁ఘటికాచల	-10.1946
▁యాదగిరిగుట్ట	-10.1946
▁సప్తర్షుల	-10.1946
▁అన్నదమ్ముల	-10.1946
▁కొవ్వూరు	-10.1946
▁దుర్వాస	-10.1946
▁వెంకయ్య	-10.1946
▁కవిత్రయం	-10.1946
▁ఉపాధ్యాయ	-10.1946
▁జలాశయ	-10.1946
▁అమోదమ	-10.1946
▁అంటున్నారు	-10.1946
▁ఉపకరణ	-10.1946
▁బొగ్గు	-10.1947
▁సోదరుల	-10.1947
▁హిందూమతం	-10.1947
▁మనుచరిత్ర	-10.1947
▁భస్మ	-10.1947
▁చూశా	-10.1947
▁నిలుస్తున్నాయి	-10.1947
▁యాత్రాచరిత్ర	-10.1948
▁కొట్లో	-10.1948
▁పనిచేస్తుంది	-10.1948
▁మైక్రో	-10.1948
▁విమర్శ	-10.1949
▁జాతర	-10.1949
▁అభయ	-10.195
▁సముద్రతీర	-10.195
▁ఇంటిపేరు	-10.195
▁పెద్దదైన	-10.195
▁వ్యక్తిత్వం	-10.1951
ిపోతాయి	-10.1951
ుప్రక్కల	-10.1951
▁కోపం	-10.1951
▁వెలిగ	-10.1952
▁గాజు	-10.1952
▁నమోదు	-10.1955
▁గాథ	-10.1957
▁స్థిరపడింది	-10.1957
▁అణు	-10.1959
▁వృత్తుల	-10.1961
పాలకుడు	-10.1964
▁సెప్టెంబరు	-10.1969
▁సముద్రము	-10.197
▁పిలువబడుతున్న	-10.197
భై	-10.1971
▁అవుతాయి	-10.1972
▁ప్రకటించారు	-10.1974
▁త్యాగరాజ	-10.1977
▁శిక్షించ	-10.1978
▁విలాస	-10.198
▁రచించిరి	-10.1983
▁అశ్వ	-10.1984
పరమైన	-10.1985
▁ప్రబల	-10.1986
▁ఏతా	-10.1988
▁సులభం	-10.1989
▁భువన	-10.199
▁తీరిన	-10.199
▁బాట	-10.1995
పరిహార	-10.2005
▁మద్ది	-10.2019
▁గోపిక	-10.2021
వధ	-10.2021
ిదప	-10.2021
▁అంశాల	-10.2024
▁కళలు	-10.2029
▁యమున	-10.2033
షధ	-10.2036
▁సౌర	-10.2044
▁వలే	-10.205
▁కుమారులే	-10.2053
▁వినియోగ	-10.2058
▁విను	-10.2059
షియా	-10.206
▁చెప్పగా	-10.2062
▁చిత్రం	-10.207
నై	-10.2073
▁పద్యములు	-10.2078
▁విద్యాధ	-10.2081
▁ఆంధ్రా	-10.2087
▁విల	-10.2094
పతక	-10.2094
బడుతున్న	-10.2096
▁రైతుల	-10.2104
▁ఉడ	-10.2106
▁చెయ్యవచ్చు	-10.2107
▁కృష్ణారావు	-10.2115
ప్రదేశ్	-10.2135
▁రాయలు	-10.214
▁డబ్బ	-10.2141
▁వేయించి	-10.2144
▁పరిమాణ	-10.2145
▁సంస్థానాల	-10.217
రామాయణ	-10.2181
కంఠ	-10.2193
స్థలం	-10.2199
▁పట్టిక	-10.2207
▁దొర	-10.2209
▁వ్యాసాల	-10.221
▁నడుస్త	-10.2213
▁వినియోగించ	-10.2216
ించినారు	-10.2222
▁తెచ్చిన	-10.2224
▁ఉర	-10.2225
బూజ	-10.2228
▁శరీరంలో	-10.223
▁అయిందన	-10.2235
▁శిల్ప	-10.2243
▁రథం	-10.2243
▁హస్త	-10.2255
కెల్ల	-10.2257
▁సందర్శించ	-10.2271
▁వీల	-10.2276
▁గమనించి	-10.2283
▁స్వాతంత్ర	-10.2285
▁వశిష్ట	-10.2288
▁వాడడ	-10.229
▁సహస్ర	-10.2293
▁కడపలో	-10.2295
చెట్ల	-10.2297
▁శివలింగము	-10.2303
క్రిష్	-10.2304
▁పర్వముల	-10.2316
తీగ	-10.2318
వుతారు	-10.232
▁స్థిరపడి	-10.2322
వాహక	-10.233
▁చెల్లెల	-10.2331
▁అంతర్వాహిని	-10.2331
▁కుదరదు	-10.2331
▁గురజాడ	-10.2331
▁జాగీరు	-10.2331
▁తానీషా	-10.2331
▁దృతరాష్ట్రు	-10.2331
▁బృహస్పతి	-10.2331
▁భట్టిప్రోలు	-10.2331
▁వేదవ్యాసు	-10.2331
▁సాక్షాత్త	-10.2331
▁సారూప్య	-10.2331
▁ముగ్గిరి	-10.2331
▁వయస్సు	-10.2331
▁గడ్డపార	-10.2331
▁దాశరాజు	-10.2331
▁నిమిత్త	-10.2331
▁బొప్పాయి	-10.2331
▁రచయత	-10.2331
▁విచిత్ర	-10.2331
▁ఒప్పందం	-10.2331
▁ఇష్టమైన	-10.2331
▁పద్దతి	-10.2331
▁అవిటితన	-10.2331
▁పరిణామ	-10.2331
▁కమీషన	-10.2331
▁తింటారు	-10.2331
▁అప్పట్లో	-10.2331
▁అనువైన	-10.2332
▁అచ్చంపేట	-10.2332
▁నానుడి	-10.2332
▁అధిపతి	-10.2333
▁విపుల	-10.2333
▁తెచ్చిపెట్ట	-10.2333
▁కనుగొనబడ్డాయి	-10.2334
▁బిజ	-10.2334
▁జరుగుతూ	-10.2334
▁ప్రయోగాలున్నాయి	-10.2334
▁శ్రమ	-10.2334
▁గగన	-10.2336
▁పిలవబడ	-10.2336
▁ఒంటి	-10.2336
▁పెడతాడు	-10.2337
▁పాలలో	-10.2337
▁సయ్యద	-10.2338
▁చిల్లర	-10.2338
▁సమయము	-10.2339
▁చల్లార	-10.2339
▁కనుగొన్నారు	-10.2339
▁బావుల	-10.234
▁వచ్చె	-10.2341
▁విభజించి	-10.2341
ండవు	-10.2343
▁ఈనాడు	-10.2345
▁నచ్చ	-10.2345
▁శివుని	-10.2347
▁చెన్నకేశవస్వామి	-10.2347
▁సంస్కృతం	-10.2347
లాండ్	-10.2353
▁శ్రీనాధుడు	-10.2354
కోవ	-10.2358
▁యున్నది	-10.2359
▁ఎఫ్	-10.2364
వచ్చే	-10.2365
▁చేర్చారు	-10.2367
కరమైన	-10.2372
▁ప్రతిభ	-10.2373
▁ఆజ్ఞ	-10.2373
▁సూపర్	-10.2373
▁వేటగా	-10.2376
▁చెయ్యడం	-10.2377
▁వ్యవహరిస్తున్న	-10.2377
▁వస్తాడు	-10.238
▁వరాహ	-10.2382
▁గణాల	-10.2385
▁వండ	-10.2387
▁బోర్	-10.2389
ుడయ్యాడు	-10.2391
▁రాసుకు	-10.2394
▁నమ్మక	-10.2394
▁పొన్న	-10.2398
▁ఉండదు	-10.2399
▁సంస్థానము	-10.24
▁కాసు	-10.2401
▁తోడ్పడ	-10.2401
▁రాస్త	-10.2403
▁వినాయకుని	-10.2403
కూరి	-10.2407
▁విద్యాభ్యాసం	-10.2409
▁మారిన	-10.2409
▁కదల	-10.2413
▁పడింది	-10.2415
▁దాస్య	-10.2415
రాబాద్	-10.2416
▁జీవితంలో	-10.2418
ంటూ	-10.2419
▁శాతవాహన	-10.2419
▁మీడియ	-10.242
▁తుది	-10.2423
▁తపమాచరించ	-10.2424
▁చిట్ట	-10.2424
▁చేప	-10.2427
▁దాచి	-10.243
▁మండలాలుగా	-10.2433
▁దేవర	-10.2435
▁గదా	-10.2437
▁హద్దులు	-10.2439
▁కర్త	-10.2442
▁పట్టుకొ	-10.2447
▁మాధవ	-10.2453
▁పుణ్యక్షేత్రముల	-10.2459
▁వంటల	-10.246
▁సంగ్రహ	-10.246
▁రాణి	-10.2461
▁కడుపు	-10.2461
▁జరిపిన	-10.2462
ివ్	-10.2462
డింగ్	-10.2463
▁క్షేత్రాల	-10.2464
ాలైన	-10.2466
▁బయలుదేరి	-10.2471
▁ఉత్సవాల	-10.2475
ంచెల	-10.2481
▁ఇతిహాస	-10.2482
▁మూడ	-10.2483
▁దీపాల	-10.2489
ల్లారెడ్డి	-10.249
▁ప్రయత్న	-10.2493
▁జీవనం	-10.2493
ాభిరామ	-10.2498
కాని	-10.2498
▁ఇట	-10.25
▁పేరున	-10.2505
▁ప్లా	-10.2513
▁కౌరవుల	-10.2513
▁డా	-10.2513
ోపదేశ	-10.2515
▁జాల	-10.2517
▁భయం	-10.2519
▁నామము	-10.252
▁క్రో	-10.2523
▁ప్రియ	-10.2526
▁చంపి	-10.2528
▁ఇతడి	-10.2529
▁ముప్ప	-10.2531
▁శుకృ	-10.2533
స్థితి	-10.2534
▁కనుమలలో	-10.254
▁అలీ	-10.2541
ఘల్	-10.2546
▁సున్న	-10.2548
▁గుర్తుకు	-10.2554
▁రాజ్యాలు	-10.2555
ొద్దు	-10.2561
▁గ్రంధం	-10.2565
వీడు	-10.258
▁వీర్య	-10.2581
గుమ్మడి	-10.2583
పర్వత	-10.2585
▁జాతీయాలు	-10.2586
▁సూచనలు	-10.2588
ఠ్	-10.2593
▁కచు	-10.2607
యింట్	-10.2607
▁పాదంలో	-10.2608
వలస	-10.2609
▁రేఖాంశం	-10.261
భారత	-10.261
▁అవసర	-10.2624
▁అమెరికాలో	-10.2626
▁సమేత	-10.263
▁మెడ	-10.2632
▁ఎకర	-10.2636
▁బయ	-10.2649
ొడ	-10.2653
▁గవర్నర	-10.2654
డదు	-10.2661
▁కింది	-10.2675
▁క్షత్రియుల	-10.2677
▁వైకుంఠం	-10.2682
▁సాంప్రదాయం	-10.2686
▁ఏర్పరచ	-10.2689
▁అచ్చ	-10.2694
▁లక్షలు	-10.2695
కోశము	-10.2703
▁రావి	-10.2708
▁వసత	-10.2709
▁తనయ	-10.2717
▁ఎత్తుకు	-10.2718
▁మిత్ర	-10.272
▁అర్థాల	-10.2731
▁కార్పోరేషన	-10.2731
▁కాలిబాట	-10.2731
▁జరిగాయి	-10.2731
▁ద్రౌపది	-10.2731
▁బౌద్ధారామాల	-10.2731
▁రైల్వేస్టేషను	-10.2731
▁సంస్థానాధీశుల	-10.2731
▁ఉత్పాద	-10.2731
▁కౌంటరు	-10.2731
▁చెప్పుకోదగ్గ	-10.2731
▁జమ్మలమడుగు	-10.2731
▁తిరిగే	-10.2731
▁పర్యవేక్ష	-10.2731
▁సంప్రదించ	-10.2731
▁హటకేశ్వర	-10.2731
▁చెలిమి	-10.2731
▁దృపదు	-10.2731
▁నిరంకుశ	-10.2731
▁రాయచూరు	-10.2731
▁విభిన్న	-10.2731
▁స్తుతిస్త	-10.2731
▁గావించాడు	-10.2731
▁బస్టాండ	-10.2731
▁మార్కండేయ	-10.2731
▁అంతర్జాలం	-10.2731
▁నరహరి	-10.2731
▁దత్తాంశాల	-10.2731
▁హిందీ	-10.2731
▁లిపి	-10.2731
▁ఇందిరా	-10.2731
▁యురేన	-10.2731
▁ఏకాంత	-10.2731
▁విభజించినారు	-10.2731
▁చితుకు	-10.2731
▁ఫార్మ	-10.2731
▁అలరార	-10.2731
▁గుత్తి	-10.2731
▁పర్వదిన	-10.2732
▁పునాదుల	-10.2732
▁నిలవ	-10.2732
▁మఠం	-10.2732
సెంట్ర	-10.2732
▁తొందర	-10.2732
▁రాహు	-10.2733
▁బాసర	-10.2733
▁చక్కెర	-10.2733
▁జరుపుకుంటారు	-10.2734
▁వైద్యశాల	-10.2734
▁వ్యయ	-10.2734
▁ప్రవేశపెట్ట	-10.2734
బిలము	-10.2735
▁సెల	-10.2735
▁చెరుకు	-10.2735
▁వాయువ్య	-10.2736
▁కల్కి	-10.2736
▁నప్పుల	-10.2738
▁చిన్నతనం	-10.274
▁మారుతుంది	-10.2741
▁సంబంధిత	-10.2743
▁భాగమైంది	-10.2744
▁పెరుగుదల	-10.2745
▁కన్నప్ప	-10.2745
▁అనవచ్చును	-10.2746
▁ఉపనది	-10.2747
▁అంతరాయ	-10.2747
▁నేర్చ	-10.2748
▁కళ్ల	-10.2748
▁వీధుల	-10.2751
పవర్	-10.2759
▁వేదిక	-10.276
▁స్థలపురాణ	-10.2762
▁కటి	-10.2764
▁నున్న	-10.2765
డతారు	-10.2766
పర్తి	-10.277
▁బీజాపూర	-10.2773
▁మహాత్మ్యము	-10.2774
▁సంకీర్తనల	-10.2775
▁చుట్టు	-10.2776
▁నదీ	-10.2778
ాన్స్	-10.2782
▁భీముడు	-10.2785
▁నమ్మే	-10.2786
▁ప్రదాన	-10.279
మతి	-10.2791
▁ఉపదేశ	-10.2795
▁వ్యక్త	-10.28
▁కేంద్రాలు	-10.2802
నేత	-10.2803
▁వాసుదేవ	-10.2812
▁దొంగల	-10.2813
చేసే	-10.2815
▁విహార	-10.2823
▁మతా	-10.2829
▁హరివంశం	-10.2829
▁ఏమిటి	-10.283
▁పర్వతము	-10.2834
▁ఊరు	-10.2838
▁కవ్వ	-10.2839
▁గుంపులు	-10.284
పదార్ధ	-10.2844
▁మధురా	-10.285
▁శుద్ధి	-10.2851
▁త్రేతాయుగ	-10.2852
▁ప్రాకార	-10.2854
▁చేరారు	-10.2859
▁పుష్కర	-10.2863
నెస్	-10.2865
యులా	-10.2874
▁తాతాచార	-10.2876
▁దండయాత్ర	-10.2882
వరించి	-10.2882
▁వేమ	-10.2883
▁జాతులు	-10.2885
▁శతాబ్ధం	-10.2886
▁అనుమతించ	-10.2889
▁చెంచ	-10.2897
▁కనబడ	-10.29
▁తొ	-10.29
▁దానవుల	-10.2903
▁మారన	-10.2904
▁వ్యక్తులు	-10.2907
భాషల	-10.2909
▁నాయకుల	-10.2919
▁నాయుడు	-10.2921
▁తీర్ధ	-10.2923
ించడానిక	-10.2924
▁సోదరుడు	-10.293
రాట్	-10.2942
▁సమర్పించ	-10.2942
▁చిత్రాల	-10.2944
▁యెక్క	-10.2955
▁తెలుసుకున్న	-10.2956
▁కేంద్రమైన	-10.2968
▁సరిహద్దుల	-10.2971
▁వెచ్చ	-10.2971
▁దరి	-10.2972
▁బయలుదేర	-10.2976
▁అమ్	-10.2983
నగరం	-10.299
రేణు	-10.3013
▁జల్ల	-10.3017
▁ఆకార	-10.3019
▁బాల్య	-10.302
▁యన్	-10.3025
▁అన్నా	-10.3032
▁క్రియ	-10.3034
శర్మ	-10.3036
▁మొట్టమొదట	-10.3047
▁పెరిగినద	-10.3048
జిత	-10.3051
లకొండ	-10.3052
▁సింహము	-10.3052
▁తయారుచేసి	-10.3055
ుకుంటున్న	-10.3058
పిల్	-10.306
▁అనుభవం	-10.3063
▁వేదాలు	-10.3066
ీకుల	-10.3068
▁మార్పు	-10.3069
తీయ	-10.3069
▁కట్టించ	-10.3076
▁ఉద్భవించ	-10.3077
▁బఠానీ	-10.3084
పెంట	-10.3086
▁గజేంద్ర	-10.3086
▁వర్క	-10.3087
▁మారుత	-10.309
▁నమ్మ	-10.3093
శాస్త్రమ	-10.3094
▁అద్భుతం	-10.3106
▁పుచ్చ	-10.3113
▁ఫంక్షనుల	-10.3113
▁చేయుచున్న	-10.3117
▁చేమ	-10.3118
▁కందూర	-10.3129
▁పేర్కొన్న	-10.3137
డించి	-10.314
▁సభలో	-10.3143
▁అల్లం	-10.3145
ాకర్షణ	-10.3148
▁ఆధిక్యత	-10.3148
▁ఉత్పత్తుల	-10.3148
▁కందుకూరు	-10.3148
▁కంపైలరు	-10.3148
▁చెప్పుకోదగిన	-10.3148
▁ప్రస్థుత	-10.3148
▁రేణిగుంట	-10.3148
▁పురావస్తు	-10.3148
▁ప్రమాదం	-10.3148
▁ప్రయుక్త	-10.3148
▁విస్తరణ	-10.3148
▁పొటాష	-10.3148
▁ఆలుగడ్డల	-10.3148
▁పిమ్మట	-10.3148
▁వెలుపల	-10.3148
▁మెమరీ	-10.3148
▁లండన్	-10.3148
▁గ్రీసు	-10.3148
▁గుడ్డి	-10.3148
▁సోదరి	-10.3148
▁సేవలందించ	-10.3148
▁మహిళ	-10.3148
▁ప్రపంచములోకెల్ల	-10.3148
▁ప్రెస్	-10.3148
సరస్వతి	-10.3148
▁విద్యార్ధుల	-10.3148
▁పదార్థము	-10.3148
▁పీఠిక	-10.3148
▁విదేశాల	-10.3148
▁ఆఫీస	-10.3148
▁ల్యాం	-10.3148
▁ఇంటర్నెట్	-10.3148
▁పాలియో	-10.3148
▁వదలి	-10.3149
▁నివసించే	-10.3149
▁చమురు	-10.3149
▁బీచ్	-10.315
▁విచార	-10.315
▁ఉపయోగపడ్డ	-10.315
▁మంగళగిరి	-10.315
▁తాండవ	-10.3151
▁నీళ్లు	-10.3151
▁పనిచేసే	-10.3152
▁నిర్ణయం	-10.3152
▁పుత్రుని	-10.3154
▁యార్డ	-10.3155
▁కుంభ	-10.3155
▁గణిత	-10.3156
▁ఎలుక	-10.3156
ికంగా	-10.3158
▁వస్త్రాల	-10.3158
▁త్రవ్వట	-10.3158
▁నన్ను	-10.3159
▁ప్రదె	-10.316
▁అందువలన	-10.3161
▁కొనసాగింది	-10.3162
▁చేసుకున్నారు	-10.3167
▁అవసరాల	-10.3167
▁ఎముక	-10.3167
▁సమర్పించాడు	-10.3168
▁సమాచార	-10.3168
▁నూట	-10.3168
▁కర్ణ	-10.3172
▁జరుగుతున్నాయి	-10.3172
▁పేరుగాంచిన	-10.3173
▁వేలాది	-10.3174
▁తేదీ	-10.3175
▁వాడకం	-10.3176
▁చెబుతాడు	-10.3177
▁కావచ్చును	-10.3177
▁రక్షించడ	-10.3177
▁ప్రయోగాలు	-10.3178
రాజ్యం	-10.3181
▁భీముని	-10.3187
టరాజ	-10.319
▁ఇచ్చింది	-10.3192
▁కందులు	-10.3193
▁పుస్తకాల	-10.3195
▁జరుగుతున్నది	-10.3198
▁మహాముని	-10.3199
▁ప్రచురించారు	-10.3199
ఫీ	-10.3201
▁చెప్పగల	-10.3201
▁తవ్వ	-10.3202
ాగ్ని	-10.3203
▁కుమార్	-10.3209
▁ప్రయోగిస్తుంటార	-10.321
వత్స	-10.3211
ోజీ	-10.3216
▁తలపై	-10.3216
సేన	-10.322
నాట	-10.3221
▁రైల్వేస్టేషన్లు	-10.3223
▁అయ్యాయి	-10.3224
▁షేక	-10.3227
▁అవుతున్న	-10.3229
ధానం	-10.323
▁చెందుత	-10.3231
▁చర్చి	-10.3237
తువుల	-10.3239
తీస్తారు	-10.3241
▁దండెత్త	-10.3242
బీ	-10.3242
▁మూర	-10.3246
▁సుదర్శన	-10.3251
▁మిల్లుల	-10.3252
▁చేరిన	-10.3253
▁మటు	-10.3254
▁వెన్న	-10.3258
▁అరణ్యపర్వ	-10.3259
వేళ	-10.3262
▁శ్రీనాథ	-10.3263
▁అనువాదం	-10.3263
▁బయలుదేరాడు	-10.3264
▁గతం	-10.3264
జిత్తు	-10.3267
▁పున	-10.3271
▁గంట	-10.3272
▁తెలుగుభాష	-10.3281
▁లభించ	-10.3295
▁నిరూపించ	-10.3306
▁ఆక్రమించిన	-10.3307
▁నిదర్శన	-10.3321
▁కార్	-10.3322
▁కూతుర	-10.3323
▁చీలి	-10.3333
▁నల్లగా	-10.3338
సేప	-10.3338
▁దేవాలయాల	-10.3347
▁రచ	-10.3352
▁బ్లాకుల	-10.3353
▁బహ	-10.3356
▁తెలుగ	-10.3356
ర్భంలో	-10.3359
▁ఏళ్ల	-10.3362
▁ఆకాశం	-10.3366
▁విభాగాలు	-10.3368
▁సముద్రం	-10.3377
ుతుంద	-10.3402
▁ఆడే	-10.3407
▁దైవం	-10.3407
ద్ధేశ్వరాలయ	-10.3409
▁శాస్త్రాల	-10.3411
▁సేవల	-10.3412
▁తెలంగాణాలో	-10.3413
▁నిజంగా	-10.3432
బోయ	-10.3433
నిఘంటువు	-10.3435
రాత్రి	-10.3439
పూజ	-10.3443
▁తూ	-10.3444
▁పరికరం	-10.3446
▁గొట్ట	-10.345
▁శరీరం	-10.345
్తాయి	-10.3451
▁మార్చడ	-10.3451
▁కాలేజ	-10.3459
వేంకటేశ్వరస్వామి	-10.3463
ఫలము	-10.3465
▁దీనితో	-10.3471
పోయాడు	-10.3471
▁ఏళ్ళు	-10.3477
▁పన్ను	-10.348
తొక్క	-10.3487
▁సమూహ	-10.3488
▁వూప	-10.3494
▁కళ్యాణం	-10.3494
▁కర్	-10.3503
యోగి	-10.3509
పురాణ	-10.3513
▁ప్రత్యక్ష	-10.3513
▁బ్రహ్మదేవు	-10.3514
▁ఫలక	-10.3527
▁అగ్నిదేవు	-10.3539
▁పెరగ	-10.3548
▁ఎక్క	-10.3549
టరీ	-10.3552
మిత్రుడు	-10.3559
వేశం	-10.356
వాహన	-10.3563
వంతులైన	-10.3563
ాదశ	-10.3564
▁వెళ్త	-10.3565
▁కారణాల	-10.3573
▁పులివెంద	-10.3574
▁ఆపద	-10.3577
▁ప్రతాప	-10.358
▁హైదర	-10.3582
▁అభ్యుదయ	-10.3582
▁ఉధృతం	-10.3582
▁చేరుకుంటాయి	-10.3582
▁జాంబవంతుని	-10.3582
▁జ్యోతిర్లింగాల	-10.3582
▁టెలీస్కోపు	-10.3582
▁ధార్మిక	-10.3582
▁పాత్రికేయు	-10.3582
▁ప్రదక్షిణ	-10.3582
▁బయోటెక్నాలజీ	-10.3582
▁శ్రీనారసింహుడ	-10.3582
▁సత్తెనపల్లి	-10.3582
▁సుదీర్ఘ	-10.3582
▁మునిసిపాలిటీ	-10.3582
▁శకాంతము	-10.3582
▁ఉత్సాహ	-10.3582
▁రామభద్రు	-10.3582
▁మహాత్మా	-10.3582
▁సాయంత్రం	-10.3582
▁పెడుతుంది	-10.3583
▁సాగునీటి	-10.3583
▁చీల్చి	-10.3583
▁దినుసుల	-10.3583
▁మరెక్కడ	-10.3583
▁కాళింది	-10.3583
▁ఉడకబెట్ట	-10.3583
▁గేదె	-10.3583
▁పుట్టినిల్లు	-10.3583
▁తండ్రుల	-10.3583
▁ముంబై	-10.3583
▁అశ్వాసాల	-10.3583
▁పెరుగుతూ	-10.3583
▁కందెన	-10.3583
▁తపసు	-10.3583
▁వరసిద్	-10.3583
▁మౌలిక	-10.3583
భూజ	-10.3583
మయ్యింది	-10.3583
▁రాయబార	-10.3583
▁శాస్త్రజ్ఞులు	-10.3583
▁ఇంగ్ల	-10.3583
▁అదుపు	-10.3583
▁సింహాచల	-10.3583
రెండింటి	-10.3584
▁మంటపం	-10.3584
▁అద్దాల	-10.3584
▁తలుపుల	-10.3584
▁పదార్ధం	-10.3585
ోత్తర	-10.3585
▁పులుపు	-10.3585
ండియా	-10.3585
▁ఖర్చు	-10.3586
▁సొల	-10.3588
▁సంసార	-10.3588
▁పాలసముద్ర	-10.3588
▁ఇన్ఫ	-10.3588
▁పోటీచేయ	-10.3588
▁వినిపించ	-10.3588
స్ఫూర్తి	-10.3589
▁కృష్ణాజిల్లా	-10.3589
▁కోణాల	-10.359
▁ఫలాల	-10.3592
▁లింక	-10.3592
▁నాలుగో	-10.3592
▁వానర	-10.3595
▁ఆదికవి	-10.3595
▁యాస	-10.3595
పోవటం	-10.3596
▁వాడుతారు	-10.3597
▁అనువర్తన	-10.3598
▁మందిరము	-10.3599
▁ప్రాచీనమైనది	-10.36
▁ఉంచాలి	-10.3602
▁క్రమ	-10.3602
దత్తుడ	-10.3604
మినేట	-10.3606
▁ఇచ్చారు	-10.3609
▁మేనేజ్	-10.3609
▁భాషీయ	-10.3609
▁విభజించారు	-10.361
▁నిలిచింది	-10.361
▁సరస	-10.3613
▁తిను	-10.3615
క్సీ	-10.3615
▁ఉండినది	-10.3616
▁కోసి	-10.3617
▁చేసుకోవడ	-10.362
▁పోతూ	-10.3621
▁గంగమ్మ	-10.3621
▁మాతా	-10.3622
ేశ్వరస్వామి	-10.3623
▁పోషక	-10.3624
▁పళ్ళ	-10.3627
▁చక్కటి	-10.3627
▁బలవంత	-10.3629
▁ఇచ్చట	-10.3629
▁కలశ	-10.363
▁గద్య	-10.3632
▁సందర్భంగా	-10.3636
▁నిర్వహించాడు	-10.3639
▁ఉపయోగించవచ్చు	-10.3639
▁వధించి	-10.3641
▁మన్మ	-10.3645
డపా	-10.3648
▁బఠానీలు	-10.365
▁ఉపయోగిస్త	-10.3651
చోడ	-10.3652
▁నటుడ	-10.3667
▁దగ్గరకు	-10.367
▁గుండె	-10.3671
బిళ్ళ	-10.3678
▁సినిమాల్లో	-10.368
▁రామయ్య	-10.3685
ుడనే	-10.3689
▁ప్రభావము	-10.3695
▁దగ్గరి	-10.3699
▁చెవి	-10.3699
▁పొగ	-10.3699
▁వాసన	-10.37
▁చర్మం	-10.3704
▁సైకి	-10.3708
పచ్చడి	-10.371
▁నారదుడ	-10.3711
▁జాహ	-10.3712
▁సముద్రంలో	-10.3714
▁నక్క	-10.3718
▁అభిన	-10.3721
టిక్	-10.3725
ప్రసాదు	-10.3727
▁అన్నింటి	-10.3729
▁చంద్రుడు	-10.373
▁భూలోక	-10.3731
▁విధానాల	-10.3745
▁ఆహ్వానించ	-10.375
▁విలువలు	-10.3757
▁క్షణాల	-10.3758
▁కవిత్వ	-10.3764
▁సిద్ధమైన	-10.3767
▁లక్ష్మణుడ	-10.3768
▁సోమనాథు	-10.377
గ్రీ	-10.3771
▁తిరువ	-10.3778
▁తడి	-10.378
▁అష్టమ	-10.3783
▁వ్యాపించిన	-10.3786
▁కష్ట	-10.3787
▁ఆటలు	-10.379
▁ఎవరికి	-10.3792
కైనా	-10.3793
▁మడి	-10.38
▁అవసరమ	-10.3804
▁అందుచే	-10.3808
▁మామ	-10.3814
▁శిఖరం	-10.3817
▁నిఘంటువులు	-10.383
▁మల్లేశ్వర	-10.3831
▁చారు	-10.3836
▁తాన	-10.384
▁యమునా	-10.3847
▁తిని	-10.3847
▁యస్	-10.3859
▁ధాన్యము	-10.386
▁తగల	-10.3866
▁బాల్యం	-10.3866
లువ	-10.3871
▁వృక్షాల	-10.3874
▁యుద్ధాల	-10.3878
▁అనుభవించ	-10.388
▁నారసింహ	-10.3887
మాత్ర	-10.3887
▁దీవి	-10.3889
సమయంలో	-10.389
సంఘ	-10.3907
▁ప్రతిపాదించి	-10.3918
రోజుల	-10.3919
▁ప్రతిష్ఠ	-10.3921
▁వేదాంత	-10.3941
▁నువ్వుల	-10.3943
జో	-10.3946
ెన్స్	-10.3954
▁నియంత్ర	-10.3959
▁శతాబ్దిలో	-10.3962
ార్థం	-10.3973
▁వ్యవస్థాపించ	-10.3975
▁రాత్ర	-10.3977
▁శైల	-10.3982
▁మధ్యమ	-10.3991
▁ధ్యాన	-10.3995
ినప్పటిక	-10.4006
▁నేర	-10.401
▁వండి	-10.4013
ౌతుంది	-10.4014
ేపల్లి	-10.4015
▁విస	-10.4017
▁కార్పొరే	-10.4022
ుద్దీన్	-10.4031
జీర	-10.4034
ేమో	-10.4034
▁ఉసిరి	-10.4037
▁ఫాల్గుణ	-10.4037
▁ఇబ్బందుల	-10.4037
▁చెప్పుకోవచ్చు	-10.4037
▁జలపాతాలు	-10.4037
▁ద్రోణుడ	-10.4037
▁ద్రోణుని	-10.4037
▁నందనవనం	-10.4037
▁నరసరావుపేట	-10.4037
▁నారాయాణయ్య	-10.4037
▁పాకిస్తాన్	-10.4037
▁వేంకటరమణయ్య	-10.4037
▁సామర్ధ్య	-10.4037
▁సాయుధపోరాట	-10.4037
▁స్వయాంభు	-10.4037
▁కేటలాగు	-10.4037
▁చెలికత్తె	-10.4037
▁బంధువులు	-10.4037
▁మిక్కిలి	-10.4037
▁వేములవాడ	-10.4037
▁మసీదు	-10.4037
▁కోస్టా	-10.4037
▁అకాడమ	-10.4037
▁పరిగణిస్త	-10.4037
ాంజనేయ	-10.4037
▁కేరళ	-10.4037
▁సిస్టమ	-10.4037
▁శిశుపాలుని	-10.4037
▁అప్పారావు	-10.4037
▁చింతలమ్మ	-10.4037
నుయాయుల	-10.4037
▁మాతృ	-10.4037
▁ఖాతా	-10.4037
▁నికోల	-10.4037
▁వేంకటాచల	-10.4038
▁రాష్ట్రకూటుల	-10.4038
▁కొన్నాళ్ళ	-10.4038
▁తెప్పించ	-10.4038
▁దీక్షితుల	-10.4038
▁వంగవోలు	-10.4038
▁గొల్లపూడి	-10.4038
▁వినిపిస్తుంది	-10.4038
▁అరుదు	-10.4038
▁విరాట	-10.4039
▁ద్వి	-10.404
▁మంజీర	-10.404
▁ఆసక్తి	-10.4041
▁విధాలుగా	-10.4041
▁స్వభావ	-10.4041
▁గ్రూప	-10.4042
▁మార్చబడింది	-10.4042
▁రాజ్యపాలన	-10.4042
▁కిరణ	-10.4042
▁నరసింహావతారము	-10.4043
▁విరసం	-10.4043
▁బుద్ధు	-10.4044
▁ఎపి	-10.4045
▁కార్యాలయం	-10.4045
▁బాణము	-10.4045
్రాప్రగడ	-10.4046
స్తాను	-10.4047
▁లభిస్తాయి	-10.4047
▁చేపట్టిన	-10.4048
▁యొక	-10.4048
గుప్తు	-10.4048
▁మరువ	-10.4049
▁ఎక్స్	-10.405
▁ఇల్లాలు	-10.4053
▁దక్షిన	-10.4055
న్నె	-10.4056
▁తమిళం	-10.4058
▁కేంద్రప్రభుత్వ	-10.4058
▁పునర్	-10.4059
▁మూడో	-10.406
▁కలిగిస్తుంది	-10.4066
▁గదిలో	-10.4067
▁అనువదించాడు	-10.4071
▁వెళ్లారు	-10.4072
▁బుధ	-10.4073
▁వెబ్	-10.4073
▁హంప	-10.4073
▁తొలగించ	-10.4073
▁రూ	-10.4074
▁మారాయి	-10.4075
▁సమీపాన	-10.4075
▁చెప్పుకున్న	-10.4077
▁రావచ్చు	-10.4078
▁ఘనం	-10.4082
▁గార్లపా	-10.4083
▁నలుమూలల	-10.4083
ాలజీ	-10.4083
▁అజయ	-10.4088
▁రాక్షసుడ	-10.4089
▁కావలి	-10.4089
▁నృత్యరీతి	-10.4089
▁గర్వ	-10.4094
▁అనుకోవచ్చు	-10.4094
యెడల	-10.4101
క్రమం	-10.4103
▁పర్వతాలు	-10.4103
్రాంతి	-10.4104
▁జన్మించినారు	-10.4106
▁జాడ	-10.4115
▁గ్రహీతలు	-10.4123
హుండ	-10.4123
▁శాలి	-10.4124
▁సిరి	-10.4126
▁కలిసింది	-10.413
▁శివాలయ	-10.4136
▁మాములు	-10.4138
ంచెను	-10.4148
▁నైరుతి	-10.4148
▁సీతాఫల	-10.4153
▁పులుల	-10.4156
ాదులను	-10.4161
▁పొందినాడు	-10.4164
▁చేయబడిన	-10.4167
▁మహమ్మదీయుల	-10.4167
▁శ్రీరాముడ	-10.4175
పదార్థం	-10.418
▁ఆర్యులు	-10.4184
▁విధముగా	-10.4189
▁మనుగడ	-10.4207
▁కానుకల	-10.4207
▁మెప్పించ	-10.4209
▁తినడానిక	-10.4209
▁రింగు	-10.4211
▁కులాల	-10.4219
▁పర్వతముల	-10.4224
▁కలసిన	-10.4225
▁పద్యంలో	-10.4226
మన్ను	-10.4236
▁భవనం	-10.4242
▁బావిలో	-10.4246
▁చూపించ	-10.4255
▁ఇంద్రుడ	-10.4256
▁సాధ్యమ	-10.4259
▁చిన్నన్న	-10.4259
▁ఊరగాయలను	-10.4271
▁భార	-10.4273
మెట్టు	-10.4278
▁పడవ	-10.4279
▁సోదరుడ	-10.4281
▁అహోబల	-10.4283
▁ఖర్	-10.4285
▁ఆదిలాబాద	-10.4286
▁వ్యాఖ్య	-10.4291
▁చిత్రీకర	-10.4294
▁మొత్త	-10.4296
▁చిత్రాలు	-10.4299
▁ద్వీపం	-10.4299
▁సరోవర	-10.4302
▁ఇప్పటికి	-10.4303
ోత్	-10.4313
నాథుడు	-10.4324
▁బాధ్యతల	-10.4325
పత్రాల	-10.4338
వారీ	-10.4341
▁నడి	-10.4345
▁రాసి	-10.4349
▁పెరుగుతున్న	-10.4357
పేరి	-10.4369
▁ఏవ	-10.4372
పీఠం	-10.4375
గీత	-10.4375
నిర్ణయ	-10.4375
▁మెక్	-10.4385
▁కొడ	-10.4389
▁ఆలోచించి	-10.4394
చిలుక	-10.4395
ాయె	-10.4395
▁చేయగల	-10.4402
యాత్ర	-10.4403
కేంద్రమైన	-10.4403
ాబాద్	-10.4407
▁సంబంధించి	-10.441
డివి	-10.4415
రోగ	-10.4438
▁ఆసియాలో	-10.4446
▁మకరం	-10.445
పొందారు	-10.4464
వారందర	-10.4469
▁పారిజాత	-10.4472
▁అంతర	-10.4477
▁పంపిణ	-10.4488
చున్నవి	-10.4492
గతులను	-10.4495
▁కూడుకున	-10.4498
▁తిరగ	-10.4499
▁హరిహర	-10.4499
▁జనమేజయ	-10.4501
▁వంశాల	-10.4506
▁సత్రాజిత్తు	-10.4511
▁అనుబంధం	-10.4513
▁ఎగుమతుల	-10.4513
▁కాళీయు	-10.4513
▁కింపురుష	-10.4513
▁కీరదో	-10.4513
▁కృతజ్ఞత	-10.4513
▁గుజరాత	-10.4513
▁చిహ్న	-10.4513
▁చైతన్య	-10.4513
▁నిర్వచించ	-10.4513
▁నిష్పత్తి	-10.4513
▁పరిశీలిస్తే	-10.4513
▁పర్యావరణ	-10.4513
▁వహిస్తున్నది	-10.4513
▁శౌనక	-10.4513
▁గాంగేయు	-10.4513
▁దొరికాయి	-10.4513
▁వ్రేపల్లె	-10.4513
▁పుష్కరిణి	-10.4513
▁మిశ్రమ	-10.4513
▁పరిజ్ఞానము	-10.4513
▁వాయవ్య	-10.4513
▁అత్తవారి	-10.4513
▁తత్త్వ	-10.4513
▁దొరికే	-10.4513
▁పంచదార	-10.4513
▁తుర్లపా	-10.4513
▁నైపుణ్య	-10.4513
▁పరిశీలన	-10.4513
▁నాణేల	-10.4513
▁ఆత్మకూరు	-10.4513
▁పరిషత్	-10.4513
▁పాక్షిక	-10.4513
▁సంచార	-10.4513
▁వాకేత	-10.4514
▁ఉంటున్న	-10.4514
▁ఐతిహ	-10.4514
ుపురుగుల	-10.4514
▁చెందినవాడే	-10.4514
▁ప్రార్ధన	-10.4514
ాధీన	-10.4514
▁బూర్గు	-10.4514
▁ఘాట్	-10.4514
▁చెప్తాను	-10.4514
▁నడుపుతూ	-10.4515
▁మహానంది	-10.4515
▁శాస్త్రవేత్త	-10.4515
▁నానబెట్ట	-10.4515
▁చాటి	-10.4515
▁నెలకొన్న	-10.4516
▁లభించును	-10.4516
▁మీటల	-10.4516
▁పరిపాలించబడినది	-10.4516
▁కోదండ	-10.4516
▁సీడీ	-10.4516
▁వర్షాకాల	-10.4517
▁ఉంటూ	-10.4517
▁రాజవంశ	-10.4519
▁పశు	-10.4519
▁దుంపకూర	-10.452
▁మైక్	-10.4521
▁అధారాల	-10.4521
▁సంకలన	-10.4522
▁సాక్షి	-10.4523
▁పులివెందుల	-10.4523
వోలు	-10.4523
▁పంపబడిన	-10.4523
▁సంజీవ	-10.4524
▁తగ్గుతుంది	-10.4527
▁సంతోషించి	-10.4527
▁చంద్రగిరి	-10.4528
▁లభించాయి	-10.4528
▁కార్పొరేట	-10.4529
▁స్థానములో	-10.4529
▁వెంకటరావు	-10.4529
▁స్వాతి	-10.4531
▁బంగాళాఖాతమ	-10.4531
▁కుటుంబరావు	-10.4531
▁దర్శి	-10.4532
▁చేపట్టాడు	-10.4533
▁అంబిక	-10.4533
▁భానుమ	-10.4533
▁అనుకో	-10.4534
కృష్	-10.4539
ర్సు	-10.454
▁స్థాపించారు	-10.4541
ిలిపి	-10.4541
▁పెక్కు	-10.4542
▁చుక్క	-10.4544
▁గంధ	-10.4549
▁ముద్రించ	-10.4549
▁వ్యాపించింది	-10.455
▁నిర్మించింది	-10.4551
రాఘవాచార	-10.4551
▁చేయబడినది	-10.4554
ాదర్	-10.4554
▁మెత్త	-10.4556
ప్పుడ	-10.4557
తాపహరణ	-10.4557
▁మళ్ల	-10.4567
స్థంభ	-10.457
▁రూపాంతరం	-10.4574
▁నిర్వహించారు	-10.4575
▁జరుగుతోంద	-10.4576
▁పోసి	-10.4577
న్నింటి	-10.4578
▁పాపం	-10.458
ిణీ	-10.4584
▁నిలయం	-10.4592
▁కుమార	-10.4597
▁తనపై	-10.4599
▁వృత్తాంతము	-10.4602
▁గవర్నర్	-10.4606
▁పేజీ	-10.4607
▁చర్చ	-10.4611
▁పంపర	-10.4621
▁రూపాల	-10.4624
▁కాలనీ	-10.4628
▁సింగన్	-10.4629
▁చెక్కబడి	-10.4635
▁పాదముల	-10.4637
▁కాలేజి	-10.4638
▁చెప్పుటకు	-10.464
▁ఐశ్వర్యవంత	-10.4641
▁క్రీడా	-10.4646
ఫెర	-10.4646
▁వ్రాసినాడ	-10.4652
▁సాగించే	-10.4652
▁సంఘటనల	-10.4653
▁ప్రమాణాల	-10.4654
▁పొందాయి	-10.4655
▁తాలూకాలు	-10.4656
▁అరణ్యపర్వమున	-10.4659
▁వ్యవసాయాధారిత	-10.4662
▁పోలు	-10.4662
▁ప్రారంభించిన	-10.4666
▁నిర్వహిస్తున్న	-10.4668
దుల్	-10.4668
రాశి	-10.467
▁భారతదేశములో	-10.4677
▁పరిపాలించాడ	-10.4682
▁పాగ	-10.4684
ురాను	-10.4695
గుట	-10.4696
▁ప్రబంధాలు	-10.4703
▁బ్రహ్మోత్సవ	-10.4706
▁ఉన్నట్టు	-10.4712
▁గడ్డి	-10.4714
ేశ్వరాలయం	-10.4715
▁కూరగాయల	-10.4716
▁నాయకుడ	-10.4718
▁కధన	-10.4722
▁నియోగి	-10.4722
▁జరిగినట్లు	-10.4728
▁సరోవరం	-10.4729
రీతి	-10.4734
▁వన్	-10.4736
▁సురవర	-10.4736
▁పూర్తికా	-10.4742
▁తీర్ధమ	-10.4752
▁వ్రాస	-10.4768
▁విశేషాలు	-10.477
▁అమ్మవార	-10.4773
▁వాడతా	-10.4779
స్సీ	-10.4782
▁నిమిష	-10.4787
ిక్కి	-10.4787
దర్శనం	-10.4788
▁బాలుని	-10.479
▁చేసుకొన్న	-10.4791
▁పిలువబడిన	-10.4799
▁ద్వారం	-10.4804
చార్యుల	-10.4809
▁వేడుక	-10.4815
▁పరిస్థితులను	-10.4817
▁వివరించి	-10.4822
▁అండాల	-10.4823
▁మెప్పించి	-10.4828
రేఖా	-10.4829
▁క్రీడల	-10.483
్లి	-10.4833
▁పత్ర	-10.4849
▁సిగ	-10.485
▁తప్పకుండ	-10.4854
▁లింగాల	-10.4862
▁త్రేతాయుగం	-10.4864
పథం	-10.4864
ద్వీప	-10.4864
శైలి	-10.4865
నాట్యం	-10.4868
ీకృతమై	-10.4875
▁జీర్ణ	-10.4876
ముక్కలు	-10.4877
▁చేపట్ట	-10.4883
▁అనువాద	-10.49
▁వైర	-10.4911
బోధ	-10.4913
▁స్వీకరించి	-10.4915
▁బాగుగ	-10.4924
▁మార్కెట	-10.4925
దర్శనము	-10.4928
▁మిగిలి	-10.4932
స్వామివారి	-10.4932
ధూ	-10.4935
▁సమస్	-10.4939
▁కారు	-10.4954
▁మహాత్మ్య	-10.4959
▁పండ్లను	-10.4959
▁సారంగ	-10.4965
▁అయోధ్య	-10.4966
యాగ	-10.4968
▁ద్రావిడ	-10.4972
▁రాశిలో	-10.4973
బడుచున్న	-10.4976
వెంట	-10.4985
▁సింహాల	-10.4987
▁విశ్వామిత్ర	-10.4991
▁ఏమిట	-10.4995
▁విగ్రహాన్న	-10.5
▁అవసరాలక	-10.5001
స్తంభం	-10.5003
▁పర్యాయ	-10.5012
▁శ్లోకముల	-10.5013
▁సమృద్ధి	-10.5013
రామశ్చ	-10.5013
▁అశ్వత్థామ	-10.5013
▁ఆర్యసమాజ	-10.5013
▁ఎంబెడెడ	-10.5013
▁కాలినడక	-10.5013
▁గరుత్మంతు	-10.5013
▁చేరుకుంటాడు	-10.5013
▁నవనారసింహ	-10.5013
▁పరమశివుడ	-10.5013
▁పేరంటాలపల్లి	-10.5013
▁ప్రత్యామ్నాయ	-10.5013
▁ప్రాంగణము	-10.5013
▁మృదులాంగ	-10.5013
▁వికటకవి	-10.5013
▁శమంతక	-10.5013
▁సారస్వత	-10.5013
▁స్మరిస్తార	-10.5013
▁హైకోర్టు	-10.5013
▁ఆధీనం	-10.5013
▁తాత్కాలిక	-10.5013
▁తిక్కనసోమయాజ	-10.5013
▁నౌకాశ్రయ	-10.5013
▁పరికర్మరి	-10.5013
▁పాలకొల్లు	-10.5013
▁ప్రవర్తించ	-10.5013
▁విఖ్యాత	-10.5013
▁సంహరిస్తా	-10.5013
▁అధ్యాయ	-10.5013
▁డైరెక్టీవు	-10.5013
▁సముద్రమట్ట	-10.5013
▁గర్భగుడి	-10.5013
▁జనసాంద్	-10.5013
▁దిగంబర	-10.5013
▁సమాఖ్య	-10.5013
▁సైన్సెస్	-10.5013
▁ఎంపిక	-10.5013
▁మేఘాలు	-10.5013
▁దేవదేవుని	-10.5013
▁శ్రీవేంకటేశ్వర	-10.5013
▁సాగుబడికి	-10.5013
▁వేర్వేరు	-10.5013
▁ఆదరణ	-10.5013
▁తప్పనిసరి	-10.5013
▁రద్దీ	-10.5013
▁ప్రొద్దుటూరు	-10.5013
సాదారణ	-10.5013
▁లగ్న	-10.5013
▁మెదడు	-10.5013
▁తెనుగు	-10.5014
▁పక్వ	-10.5014
గూర్చి	-10.5014
▁తాడేపల్లిగూడెం	-10.5014
▁యూరోప	-10.5014
▁అర్చన	-10.5014
▁నడిపే	-10.5015
▁కృప	-10.5015
▁రాకెట్	-10.5015
▁నిర్వాహక	-10.5015
▁చింతాకు	-10.5015
▁ఆడియో	-10.5016
▁కాలమునాటి	-10.5016
▁ప్రతాపరెడ్డి	-10.5016
▁సైజు	-10.5016
▁దర్గా	-10.5016
▁తెలియుచున్నది	-10.5016
▁మూట	-10.5017
నొప్పి	-10.5017
▁సింహపురి	-10.5017
▁బ్రతికి	-10.5017
▁బాపట్ల	-10.5017
▁పునాది	-10.5017
▁అయిపోయింది	-10.5017
▁రామలింగారెడ్డి	-10.5018
▁నిర్మించబడ్డాయి	-10.5018
▁ములగ	-10.5018
▁మగవారి	-10.5019
▁రసాయన	-10.5019
▁ఎండాకాల	-10.5019
▁తరుణ	-10.502
▁రెడ్డిరాజుల	-10.5021
▁రాజ్యసభ	-10.5021
▁అబ్	-10.5022
▁ఈనాటి	-10.5022
▁ఆరాధ్య	-10.5022
▁చేసుకోవాల	-10.5024
▁మన్నించ	-10.5027
నీయమైన	-10.5028
▁మూర్తుల	-10.503
జాక్	-10.5031
▁ఆవిరి	-10.5031
▁భగవానుడు	-10.5031
ుకుందాం	-10.5033
▁తూగు	-10.5033
ెడద	-10.5033
▁పొర	-10.5034
▁ప్రయత్నాలు	-10.5035
▁అంతటా	-10.5042
▁సాగించారు	-10.5042
▁తేజ	-10.5043
▁మెదల	-10.5045
▁రూపుదిద్దుక	-10.505
▁చోదక	-10.5051
▁గుంట	-10.5051
స్థానం	-10.5051
▁రాల్చ	-10.5051
▁కాశి	-10.5054
▁తప్పులను	-10.5056
▁చెందాయి	-10.5059
▁ఉంటాయ	-10.5061
▁మండలాలతో	-10.5062
▁పనిచేసిన	-10.5064
▁కూర్చో	-10.5066
▁గిరిజన	-10.5072
▁వడ్డ	-10.5072
▁హోల్	-10.5072
▁ఉపస్థిత	-10.5073
సికో	-10.5078
పెచ్చు	-10.5078
▁ప్రోసెస	-10.508
లంక	-10.5081
టెడ్	-10.5081
▁కాలాల్లో	-10.5081
▁సౌందర్యం	-10.5082
ండేది	-10.5085
▁ఎంతగాన	-10.5087
▁ముళ్ళ	-10.5089
▁నారా	-10.5089
నాథుల	-10.5094
▁పెంచబడు	-10.5094
ించటం	-10.5094
▁ఆశ్చర్యకర	-10.5097
▁కార్యముల	-10.5098
▁చేరుకున	-10.5102
▁వారాల	-10.5103
▁మామూలుగా	-10.5111
▁ఉడికి	-10.5114
▁అధ్యయనము	-10.5117
ెందుకు	-10.5118
ోత్సవాల	-10.5119
▁ప్రపంచములో	-10.5119
▁జీవించ	-10.5121
▁సమూహం	-10.5124
▁చీలిక	-10.5128
▁సమయమున	-10.5128
ెంక	-10.5133
▁చేరుకొన	-10.5134
ుడూ	-10.5134
▁తగిలించ	-10.5135
▁చర్యల	-10.5136
▁చాటువులు	-10.5138
▁అడ్డ	-10.5139
▁ఆలోచించ	-10.514
▁పోతే	-10.5141
▁చేరుకోవడ	-10.5146
▁అడగ	-10.5147
▁వైశంపాయ	-10.515
▁ఇల్ల	-10.5151
▁ఉండడంతో	-10.5154
▁రంజ	-10.5154
▁ద్వారకా	-10.5159
ాంతరము	-10.5159
యిక్	-10.5175
ాసిక్	-10.5176
▁పదకొండు	-10.5178
చడంలో	-10.5189
▁రచనలలో	-10.5203
▁చెడు	-10.5211
▁అనుకుంట	-10.5215
ుచున్నారు	-10.5217
▁నీడ	-10.5221
▁నేర్చుకున	-10.5227
▁మొర	-10.5227
▁కట్టె	-10.5229
▁పాండు	-10.5234
▁చెరలో	-10.5236
▁నిమిషాల	-10.5236
▁వేటూర	-10.5237
▁నాప	-10.524
ణుగ	-10.5247
▁సర్వీసు	-10.5248
▁కనిపించడం	-10.5255
▁తాలుకాల	-10.526
▁కలిగే	-10.5261
▁భాషలలో	-10.5261
పర్వము	-10.5265
▁సరళ	-10.5266
ములందు	-10.5273
▁నిర్మ	-10.5273
▁కోలు	-10.5286
▁సంగీతము	-10.5294
▁దర్శ	-10.5297
▁ఉపయోగించిన	-10.5299
▁గాధలు	-10.53
ుకుంటా	-10.5301
నాధుని	-10.5303
న్నచో	-10.5309
ాక్షి	-10.5309
ప్రవహిస్తున్నాయి	-10.531
▁భగవంతుడ	-10.531
▁నిర్ధారించి	-10.532
▁అర్చించ	-10.5325
▁తేద	-10.5328
▁శతాబ్ధ	-10.5339
▁తల్లికి	-10.534
▁కుండలాల	-10.5345
▁శాస్త్రి	-10.5345
▁తెలంగాణలో	-10.5346
▁ఉత్త	-10.5357
▁కలవ	-10.5364
▁కడుపులో	-10.5365
▁విస్తరించ	-10.5366
నేసి	-10.5372
కదా	-10.5377
సముద్ర	-10.5381
సంఘాల	-10.5382
▁చేసినారు	-10.5384
ీకృత	-10.5388
▁కట్టించాడ	-10.5388
▁విద్యల	-10.5389
నిర్మాణ	-10.5391
కారణంగా	-10.5392
▁హద్దు	-10.5395
▁అధికమైన	-10.5399
చంద్ర	-10.54
శబ్ద	-10.5403
భుజ	-10.5405
▁అవతారములు	-10.5407
పద్యం	-10.5407
▁ఇస్	-10.5409
కానీ	-10.5414
ింపబడిన	-10.5424
్రాఫిక్	-10.5425
▁జయం	-10.5426
▁సాగించ	-10.5436
జింక	-10.5445
▁ఫలం	-10.5447
ప్రాంతంలో	-10.5455
పంటలు	-10.5456
▁సుఖమ	-10.5457
▁రూపముల	-10.5459
▁తరాల	-10.5464
▁విభాగాల	-10.5468
▁శిష్యుడ	-10.549
▁వ్యవస్థలలో	-10.5497
▁ఎత్త	-10.5501
▁సేవించ	-10.5504
▁ఆగ్రహించ	-10.5504
▁కట్టిన	-10.5507
▁ఏమ	-10.5507
▁పోల్చి	-10.5509
▁విస్తృత	-10.5511
▁తెలిపి	-10.5514
▁తుద	-10.5517
▁మహానుభావు	-10.5518
▁సైన్య	-10.5519
▁నొక్క	-10.5521
ాక్రమం	-10.5521
కృష్ణారావు	-10.5525
ినట్టు	-10.5525
▁సాయం	-10.5533
▁బంధించ	-10.5534
నాయకుని	-10.5534
త్పత్తి	-10.5536
ిగాంచిన	-10.5538
▁తాడేపల్లి	-10.5539
▁ధైర్య	-10.5539
▁ఆరాధన	-10.5539
▁డైరెక్ట	-10.5539
▁కలగలుపు	-10.5539
▁దోహదం	-10.5539
డబ్ల్యు	-10.554
▁ఆముక్తమాల్యద	-10.554
▁ఆమోదించారు	-10.554
▁గిద్దలూరు	-10.554
▁గోడకుర్చీ	-10.554
▁జాంబవతి	-10.554
▁జ్ఞాపక	-10.554
▁టోకెన్	-10.554
▁నిక్షేపాల	-10.554
▁నిపుణులు	-10.554
▁పేరెన్నిక	-10.554
▁రజాకార్ల	-10.554
▁ఒంటిమిట్ట	-10.554
▁నిర్వర్తించ	-10.554
▁గోపాలక్రిష్ణ	-10.554
▁మాండవ్య	-10.554
▁వెలిసిన	-10.554
▁స్వేచ్ఛ	-10.554
▁తోడ్పడుతున్నాయి	-10.554
▁అండాశయ	-10.554
▁ఇబ్బంది	-10.554
▁సమ్మతించ	-10.554
▁నిర్దేశించిన	-10.554
▁పన్నెండ	-10.554
ానంతరము	-10.554
▁శపించాడు	-10.554
▁పురస్కార	-10.554
▁పరిశీలించ	-10.554
▁పెంపుడు	-10.554
▁జేరిన	-10.554
▁రాశారు	-10.554
▁విశాలమైన	-10.554
▁ఆడపిల్ల	-10.554
▁కొలువై	-10.554
▁మన్రో	-10.554
▁ద్వితీయ	-10.554
▁బాగుంటుంది	-10.554
▁దుకాణ	-10.554
▁సిటీ	-10.554
వింశత	-10.554
▁రురుడు	-10.554
▁ఆటంకాల	-10.554
▁యాదాద్రి	-10.5541
▁ఉక్కు	-10.5541
▁ఆదరించ	-10.5541
▁ప్రతాపరుద్రుని	-10.5541
▁సెనగ	-10.5541
▁ప్రచురితమ	-10.5541
▁వాటర్	-10.5542
▁ఇదొక	-10.5542
రుగల్లు	-10.5542
▁కలుస్తుంది	-10.5542
▁కల్చ	-10.5542
▁మరియొక	-10.5543
▁విదురుడ	-10.5543
▁రావణుని	-10.5544
▁మొదలయిన	-10.5544
▁అనుమతిస్తుంది	-10.5544
▁తొండమ	-10.5544
▁ఒకదాని	-10.5545
▁అరణ్యాల	-10.5545
▁ఎదుట	-10.5546
▁విద్యుత్తు	-10.5546
▁పశ్చిమగోదావరి	-10.5546
▁సమకూరుస్తు	-10.5547
▁వేరుశనగపప్పు	-10.5547
▁యేట	-10.5547
▁బాలుర	-10.5548
▁ఆఫ్ఘ	-10.555
▁సబ్	-10.555
▁కృష్ణుడ	-10.5551
▁నివసిస్తున్నాయి	-10.5551
హరణ	-10.5551
▁ఆస్థానములో	-10.5554
▁సార్వ	-10.5554
జాగ్	-10.5555
▁చెట్టి	-10.5559
▁కేతు	-10.556
▁పెరువ	-10.5561
▁వడ్ల	-10.5563
▁పనిచేస్త	-10.5564
▁విత్తనాలు	-10.5564
▁తెలియజేస	-10.5565
▁శ్లోకం	-10.5565
▁జనపద	-10.5566
▁అనుసరిస్త	-10.5567
▁విధము	-10.5567
▁ఉనికి	-10.5568
▁అక్	-10.5569
▁సైనిక	-10.557
నేమి	-10.557
▁ఏర్పరచిన	-10.557
▁మంత్రుల	-10.5571
▁కావేర	-10.5571
▁చెపుత	-10.5571
▁జింకల	-10.5572
▁చెక్కి	-10.5572
▁ఆభరణ	-10.5574
▁నిలిచ	-10.5575
▁రాజమహేంద్రవర	-10.5577
ల్బర్	-10.5579
▁అయినప్పటిక	-10.558
▁కూర్చొన	-10.5581
▁సాయంతో	-10.5581
▁సామంతరాజ	-10.5583
▁సమీపములో	-10.5588
▁మద్ద	-10.5589
▁శిష్యుడైన	-10.559
▁సంకీర్తనా	-10.5591
▁చరణ	-10.5593
▁లక్ష్మీదేవి	-10.5593
▁నిరాహ	-10.5595
షియ	-10.5596
జ్జల	-10.5598
▁స్ఫ	-10.5599
యోగం	-10.5599
పంట	-10.56
▁మలచ	-10.5601
▁బారేజ	-10.5606
వాగు	-10.5608
▁అందురు	-10.5608
▁పాడిన	-10.5614
▁పల్లకి	-10.5615
ిడుగు	-10.5619
▁నర్సాపూర	-10.5622
▁అన్నయ్య	-10.5626
▁పంచమ	-10.5631
మనగా	-10.5639
▁శాసనాలు	-10.5642
ంచుకోవడ	-10.5643
▁కలుపుకున్నా	-10.5643
▁చేసేవారు	-10.5643
▁ఆయి	-10.5643
▁ఆకులతో	-10.5654
▁ఎకే	-10.5656
▁రఘునా	-10.5659
చరిత	-10.5661
▁లోపు	-10.5662
▁ప్రతిమల	-10.5663
▁ప్రకటించిన	-10.5664
▁చెప్పబడిన	-10.5665
▁ఉద్యోగం	-10.5668
▁కథకు	-10.5671
రాణి	-10.5671
▁అయ్యారు	-10.5672
▁చర్చల	-10.568
▁సంపుటి	-10.5681
▁సాంప్రదాయాల	-10.5686
▁ఫలించ	-10.5686
▁లభించడం	-10.5688
న్నింటిలో	-10.5693
▁బాపు	-10.5698
ాక్ట్	-10.5699
▁లీల	-10.5704
▁నాంది	-10.5707
నృసింహావతార	-10.571
▁బీజప	-10.5711
▁చేసుకొంట	-10.5713
▁నేపథ్య	-10.5722
▁నగరములు	-10.5738
ాతరం	-10.5738
▁సంభవించిన	-10.5755
▁అనుసరించ	-10.5757
▁చర్చించ	-10.5763
▁గొప్పతన	-10.5774
్వర	-10.578
▁నవీ	-10.5781
▁కనిపించిన	-10.5785
▁పింగ	-10.5788
▁ప్రసాదించ	-10.5792
▁చెవు	-10.5797
▁ప్రసాదించాడ	-10.5802
ించేవారు	-10.5804
▁లీలల	-10.5804
▁భాగములు	-10.5808
▁సేయ	-10.5827
▁ఉండడమ	-10.5831
▁నామముల	-10.5832
▁ఇప్పుడ	-10.5833
▁క్లబ్	-10.5835
▁దశావతారముల	-10.5837
గీతోపదేశ	-10.5838
▁సర్వీసులు	-10.5839
▁విద	-10.5851
▁పోయిందన	-10.5868
▁పూజిస్త	-10.5873
▁సందేశ	-10.5874
▁తొలగి	-10.5875
▁వ్యాకరణము	-10.5877
▁మైదా	-10.5877
▁ఉంటా	-10.5893
▁రాజకీయాల	-10.5902
▁వైశంపాయు	-10.5902
▁గ్రహముల	-10.5906
▁జయించ	-10.5917
▁అయిద	-10.5919
▁యిత	-10.5924
▁వారీ	-10.5935
కోశ	-10.5936
▁పఠి	-10.5941
▁విశిష్ట	-10.5943
ఒ	-10.5947
శరీర	-10.5947
▁గుంపు	-10.5948
చెందిన	-10.595
▁ఈస్ట	-10.5963
▁మందుల	-10.5964
వీధి	-10.5965
▁ఆచారం	-10.5985
▁చేసుకున్న	-10.5985
▁పాండ	-10.6002
▁బదులు	-10.6005
▁చతుర	-10.6005
ంధర	-10.6018
వంతుల	-10.6026
▁కన్నుల	-10.603
▁సుభద్ర	-10.6031
▁వేసవిలో	-10.6033
▁చేసేవాడ	-10.6035
▁ఇద్దరిన	-10.6036
గంధి	-10.6037
▁ఎక్కి	-10.6047
▁కలిగించే	-10.605
▁చంపిన	-10.6051
ోవడము	-10.6051
▁ఆశ్రమము	-10.6055
ొప్పు	-10.6067
▁చెస	-10.6069
▁ధాన్యాల	-10.6075
▁చాటు	-10.6086
▁అమ్మక	-10.6087
▁అనారోగ్య	-10.6095
▁రక్తపోటు	-10.6095
▁రామ్మోహన	-10.6095
▁అసంపూర్ణ	-10.6095
▁ఊహించబడుతున్నది	-10.6095
▁ఎదుర్కొంటున్న	-10.6095
▁కార్యకలాపాల	-10.6095
▁గోదావరీ	-10.6095
▁గోనబుద్దారెడ్డి	-10.6095
▁జర్నలిస్ట	-10.6095
▁దశాబ్దంలో	-10.6095
▁ధూర్జటి	-10.6095
▁పరిమితమైనా	-10.6095
▁పాపక్షమాపణ	-10.6095
▁ప్రభాకరశాస్త్రి	-10.6095
▁ప్రాతినిధ్యం	-10.6095
▁బాదంపప్పు	-10.6095
▁మనుమసిధ్ది	-10.6095
▁మార్గదర్శక	-10.6095
▁వ్యావహారిక	-10.6095
▁అష్టదిగ్గజముల	-10.6095
▁కనకదుర్గ	-10.6095
▁చిటికె	-10.6095
▁దశరథ	-10.6095
▁పౌరాణిక	-10.6095
▁ప్రావీణ్య	-10.6095
▁ముత్తాత	-10.6095
▁లూయీ	-10.6095
▁అగ్రహారం	-10.6095
▁నివేదించ	-10.6095
▁మిరియాల	-10.6095
▁దోమకొండ	-10.6095
▁నౌకా	-10.6095
▁పేరుపొందింది	-10.6095
▁అప్పగించి	-10.6095
▁బహిరంగ	-10.6095
▁ఇటాలియన	-10.6095
▁వారిరువురి	-10.6095
▁అపహరించ	-10.6095
▁నైజాం	-10.6095
▁నిలబడి	-10.6095
▁చేస్తాడు	-10.6095
▁షుమారు	-10.6095
▁పాండిత్య	-10.6095
▁తీసుకురావ	-10.6095
▁శరభ	-10.6095
▁విసురుత	-10.6095
▁తరగతుల	-10.6095
▁బాగుండవు	-10.6095
▁నక్షత్రకూటమ	-10.6095
▁ఎదులా	-10.6096
▁అర్దము	-10.6096
▁పొలంలో	-10.6096
▁సమర్థ	-10.6096
రాగమాలిక	-10.6096
▁కవచ	-10.6096
▁చక్రాయుధ	-10.6096
▁ఇటుకల	-10.6097
▁సాగుభూమి	-10.6097
మాత్యుడు	-10.6097
▁వేంకటేశ	-10.6097
▁మారిపోయింది	-10.6097
▁కలెక్టర	-10.6097
▁విశ్లేషణ	-10.6097
▁ప్రసిద్ధిగాంచిన	-10.6097
▁యాత్రికుడ	-10.6098
▁చదివిన	-10.6098
▁వరదరాజ	-10.6098
▁పూతన	-10.6099
▁పిస్తా	-10.6099
▁గడిపేవా	-10.61
▁తీసివేసి	-10.61
▁రామగుండం	-10.61
▁సీమాంధ్ర	-10.61
▁కోయిల	-10.61
▁కశిపు	-10.61
▁వైశ్య	-10.6101
▁ప్రబోధ	-10.6101
▁నిషా	-10.6101
▁ఆద్యుడ	-10.6102
▁ద్రోణాచ	-10.6102
▁చేయాల్సిన	-10.6103
▁నందికొండ	-10.6104
▁ఇమిడ	-10.6104
▁కొనసాగుతుంది	-10.6104
▁గురుకుల	-10.6105
▁ఒక్కసారి	-10.6106
▁లేఖ	-10.6108
▁నైష	-10.6108
▁శకము	-10.6109
▁పావన	-10.611
▁ప్రోలయ	-10.611
▁ఖనిజాలు	-10.6111
▁దశకం	-10.6111
▁శాసనాలలో	-10.6112
▁అంబ	-10.6113
ెత్తి	-10.6115
▁జాతక	-10.6115
▁మన్యం	-10.6117
▁ధరించ	-10.6118
▁వ్రాస్త	-10.6119
▁మాదిరి	-10.6119
▁ప్రారంభించినారు	-10.612
▁ఎవరిక	-10.6122
వుతాడు	-10.6123
▁ఏర్పరచారు	-10.6124
▁సదుపాయాలు	-10.6124
▁గణము	-10.6124
▁నిట	-10.6127
▁పోల్చ	-10.6128
▁ఫ్రేమ్	-10.6129
▁పైపుల	-10.6132
▁ప్రయాణికుల	-10.6135
▁చదవడ	-10.6136
ాప్త	-10.6138
▁కొండవీడు	-10.614
▁విద్యాలయాల	-10.614
▁మెల్ల	-10.614
▁నటించ	-10.6142
▁మేనక	-10.6154
▁రాష్త్రం	-10.6155
▁జోరు	-10.6156
▁పికిల్సు	-10.6159
▁ఐరాల	-10.6161
▁ముసు	-10.6161
ోహాన్	-10.6163
▁పవిత్రమైన	-10.6165
▁ప్రాజెక్ట	-10.6166
▁ఆగ్రహ	-10.6169
▁చెప్పాలి	-10.617
▁లభిస్తున్న	-10.6172
▁బాగు	-10.6176
▁వెళ్ళడ	-10.6182
▁అర్ధాల	-10.6186
▁మున్న	-10.6187
▁బిడ్డల	-10.6187
▁మయ	-10.6188
▁నుండు	-10.6189
▁పాయ	-10.6203
▁భాగమ	-10.6203
▁అందించిన	-10.6212
▁గ్రంథాలలో	-10.6215
▁భూపతి	-10.6216
▁మోక్షము	-10.6216
▁నవ్వ	-10.6226
▁సర్పయాగ	-10.6229
▁గడిచి	-10.6231
నియన్	-10.6236
▁వచన	-10.624
▁సవర	-10.6241
▁వరస	-10.6242
▁తీసుకున్న	-10.6247
▁క్రైస్తవ	-10.6256
ాణాలు	-10.6257
▁విభజించవచ్చు	-10.6258
యోధులు	-10.6262
రిటీ	-10.6267
▁వేదాలను	-10.6275
▁కోల్పోయి	-10.6276
▁ధీ	-10.6276
▁యూర	-10.6278
▁గోపురాల	-10.6283
ెస్స	-10.6285
▁ప్రసిద్ధుడు	-10.6289
▁చెప్పుకొ	-10.6294
నాంబ	-10.6302
▁బ్రహ్మోత్సవాల	-10.6303
▁పరమేశ్వరుడ	-10.6305
రకము	-10.6307
ట్టించి	-10.6308
▁అవిశ	-10.631
▁పొందినది	-10.631
▁జీవించి	-10.631
▁దాహ	-10.6313
▁సామంతుల	-10.6314
▁లక్ష్యం	-10.6314
న్నింటికంట	-10.6342
▁తృ	-10.6342
ంబులై	-10.6349
ాడె	-10.6356
▁మీన	-10.6357
▁విమానాశ్రయ	-10.6365
▁పనికిరా	-10.6368
▁చెప్పరు	-10.6371
▁అహోబలం	-10.6372
డితే	-10.638
కపోవడం	-10.639
▁చూచ	-10.6393
▁రాసినది	-10.6395
▁శక్తివంతమ	-10.6398
▁కట్టబడిన	-10.6401
▁ఆస్థానకవ	-10.6402
▁సర్వసాధారణం	-10.6402
▁నాచ	-10.6402
▁కొండపైన	-10.6424
▁దేశమంతట	-10.643
▁తాడి	-10.643
▁సరే	-10.6443
▁మునిగిపోయ	-10.6446
▁ఆకర్ష	-10.6452
▁ఐర	-10.6456
షెల్	-10.6461
▁కేబ	-10.6473
▁గుర్తులు	-10.6476
ిక్కన	-10.6478
▁వ్యాపించ	-10.648
▁పెరుగుతాయ	-10.648
బాటు	-10.648
▁లక్ష్య	-10.6482
▁నరేంద్ర	-10.6492
▁చెరువులు	-10.6498
▁గ్రహించ	-10.6501
▁కుచ్చ	-10.6511
▁కోల్పో	-10.6515
శుద్ధ	-10.6532
గ్రంధ	-10.6534
గ్రంథము	-10.6535
కిలోమీటర్ల	-10.6536
▁దేవస్థాన	-10.6538
కాంతి	-10.6538
▁తపమాచరించి	-10.6542
▁ప్రయోగించ	-10.6543
జీవి	-10.6555
ఉంది	-10.6568
▁జ్ఞానము	-10.6577
▁ఏద	-10.6577
యుండును	-10.6581
ెక్షన్	-10.6583
▁వర్ణింప	-10.6587
▁మహాభారతములో	-10.6587
▁కర్ర	-10.6589
చుకున్నారు	-10.6589
▁చెప్పబడ	-10.659
▁ముట్	-10.6592
▁సమర	-10.6593
▁ఖమ్మ	-10.6594
▁వ్యక్తుల	-10.6611
దాసు	-10.6614
▁బీన్స	-10.6615
ుంటాడు	-10.6623
ాయుధ	-10.6627
▁గ్రంధము	-10.6629
▁చూపించి	-10.6639
▁చోదకాల	-10.664
▁తాక	-10.6641
▁జరుపుత	-10.6644
▁రూపుదిద్దుకున్న	-10.6644
ోత్తమ	-10.6644
▁విత్తన	-10.6657
▁రంగాచార్య	-10.6662
▁అపార	-10.6664
▁ఖనిజ	-10.6671
▁ఏర్పడడం	-10.6674
ేఖర	-10.668
▁మెరుగుపర	-10.6681
▁తుని	-10.6682
▁చికిత్స	-10.6682
▁బృహత్	-10.6682
▁సువర్ణ	-10.6683
▁చినగంజాం	-10.6683
▁డిటెక్ట	-10.6683
▁ధాన్యకటక	-10.6683
ండ్వానా	-10.6683
▁అంకితమిచ్చాడు	-10.6683
▁ఊటుకూరు	-10.6683
▁గమనార్హం	-10.6683
▁గుండ్లకమ్మ	-10.6683
▁జలక్రీడ	-10.6683
▁జాంబవంతుడ	-10.6683
▁తితిదే	-10.6683
▁తెనిగించిన	-10.6683
▁తెలుస్తున్నది	-10.6683
▁పనిచేసారు	-10.6683
▁పాశుపతాస్త్ర	-10.6683
▁ప్రసిధ్	-10.6683
▁మున్సిప	-10.6683
▁ముస్లిముల	-10.6683
▁రికార్డు	-10.6683
▁లంకమల్లేశ్వర	-10.6683
▁వెలిశాయి	-10.6683
▁శ్వేతాం	-10.6683
▁సూర్యాపీట	-10.6683
▁తీర్చిదిద్ద	-10.6683
▁నివశించ	-10.6683
▁ప్రార్ధించాడు	-10.6683
▁బయటపడ్డాయి	-10.6683
▁సంపర్క	-10.6683
▁సహజీవన	-10.6683
▁స్టాండు	-10.6683
ోపేత	-10.6683
▁కుంకుమ	-10.6683
▁ఇంగ్లాండు	-10.6683
▁ఒంటరిగ	-10.6683
▁పరస్పర	-10.6683
▁ధృవ	-10.6683
▁స్వయంభూ	-10.6683
▁బచ్చలి	-10.6683
రిక్	-10.6683
▁మోడె	-10.6683
▁మోదుగు	-10.6683
▁లిఫ్ట	-10.6683
▁శిథిల	-10.6683
▁బ్రోచే	-10.6683
▁పితృ	-10.6683
▁స్వరపరచి	-10.6683
▁వేరువేరు	-10.6683
▁వ్యాపారకేంద్రం	-10.6683
▁ముమ్మడి	-10.6683
▁భక్తజనుల	-10.6683
▁కచేరీ	-10.6683
▁మొసలి	-10.6683
▁వర్తక	-10.6683
▁అంతర్గత	-10.6683
▁శాపవిమోచన	-10.6683
▁వేశాయి	-10.6683
▁సిద్ధిపేట	-10.6683
▁భాజపా	-10.6683
▁భూభార	-10.6684
▁ఆతుకూర	-10.6684
▁ఫలితాల	-10.6684
▁వహించారు	-10.6684
▁స్మరించ	-10.6684
▁రాయిచూర	-10.6684
ధాతువు	-10.6684
▁గమ్య	-10.6684
▁కంభం	-10.6684
▁మరుత్త	-10.6684
▁కనుగొనడ	-10.6685
బాహ్య	-10.6685
▁కలిగిస్తున్నాయి	-10.6685
తొడపై	-10.6685
▁వారసుల	-10.6685
▁శిలాశాసన	-10.6685
▁గావించి	-10.6685
▁చతుర్ముఖ	-10.6686
▁నందలూరు	-10.6686
▁ఎదుటివార	-10.6686
నిస్తాన్	-10.6686
▁వంటివాటి	-10.6687
▁ధరణి	-10.6687
▁లవంగ	-10.6687
▁చిప్స	-10.6687
▁నేన	-10.6687
▁విద్యాలయం	-10.6687
▁చూడదగిన	-10.6687
▁రీతుల	-10.6687
▁మట్టం	-10.6688
▁జన్యుపర	-10.6688
హింస	-10.6688
▁ఆంగ్లేయుడ	-10.6688
▁సాగిస్తున్నారు	-10.6689
▁వాడుతున్నారు	-10.6689
▁వర్గీకరణ	-10.6689
▁దోసపప్పు	-10.669
▁చిగురు	-10.669
▁లారీల	-10.6691
▁మీసాల	-10.6691
▁కల్పిత	-10.6691
▁బయటపడింది	-10.6692
డెంట్	-10.6692
▁సారపప్పు	-10.6693
▁స్వరూపము	-10.6693
▁అన్నమాట	-10.6695
▁భద్రగిరి	-10.6695
▁గడిచింది	-10.6695
▁యుద్ద	-10.6695
▁అమర్చ	-10.6696
▁ఆనకట్టల	-10.6696
▁బుగ్గ	-10.6697
▁పిట్ట	-10.6697
▁జగన్నాథుని	-10.6698
▁మిల్క	-10.6698
▁ఉల్లి	-10.6699
▁అమలులోకి	-10.67
▁పాడుతూ	-10.6701
▁డోల	-10.6702
▁ఊదా	-10.6702
▁మళ్ళి	-10.6703
▁తిండి	-10.6705
▁నటించారు	-10.6705
▁శకుని	-10.6706
▁మహానుభావుడు	-10.6708
▁ిత్ర	-10.6708
▁గోత్ర	-10.6709
▁ఇండ్ల	-10.671
▁స్పైస	-10.6713
▁నోరు	-10.6714
▁ఉచ్చ	-10.6715
▁పొత్త	-10.6719
▁ప్రభావ	-10.6722
▁సైన్యం	-10.6722
▁దక్షిణమున	-10.6722
▁నడుస్తూ	-10.6723
▁దెబ్బతిన	-10.6724
▁వస్తువ	-10.6725
▁బాదా	-10.6728
▁దేరి	-10.6728
ఉండాలని	-10.6728
▁విషయమే	-10.6728
▁కుశ	-10.6734
ండేవి	-10.6736
▁పామ	-10.674
▁చంపడం	-10.6741
సహస్రనామ	-10.6743
▁చూడటం	-10.6744
మవుతుంది	-10.6744
▁సాధించారు	-10.6744
▁అంతకుముంద	-10.6745
ినల్	-10.6749
▁వశిష్టుడ	-10.675
▁మార్చారు	-10.6755
▁పదున	-10.6755
దానం	-10.6759
▁చేరడానికి	-10.676
▁వేడ	-10.6764
▁మధురానగర	-10.677
ంజల్	-10.6773
▁సమరయోధు	-10.6775
▁పొది	-10.6776
▁బల్ల	-10.6785
▁చాప	-10.6786
▁లోపాల	-10.6789
▁నివార	-10.6792
▁ముగిసే	-10.6792
▁తీవ్రంగా	-10.6793
▁ఈశ్వరున	-10.6794
▁పెట్టారు	-10.6795
▁చెప్తున్నా	-10.6797
నెట్	-10.68
▁రసాల	-10.6802
▁చేరింది	-10.6804
▁ఊరగాయలక	-10.6807
▁చారిత్రకంగా	-10.6808
▁ప్రాంతమే	-10.681
▁ఆవుపాల	-10.6817
▁చీరల	-10.682
▁పనిచేస్తున్న	-10.683
పూట	-10.6835
▁హరిత	-10.6838
▁చూస్తూ	-10.6845
దీనా	-10.6847
▁కారులు	-10.6849
ప్రతి	-10.6851
పిస్తున్నది	-10.6851
▁ఫిల	-10.6854
▁రాముడి	-10.6858
▁నండ	-10.6863
▁దానిమ్మ	-10.6868
▁అబ్బ	-10.6884
▁పోతున్న	-10.6884
▁మనుష్యుల	-10.6887
▁స్థలము	-10.691
▁శిలా	-10.6919
ెత్తు	-10.6921
పరుచ	-10.6922
కేశుల	-10.6922
▁న్యాయము	-10.6924
▁పిలువబడ	-10.6929
▁చేరుకొన్న	-10.6936
▁వేప	-10.6937
▁ప్రగతి	-10.6941
▁మరణించి	-10.6941
▁వాడైన	-10.6949
▁విసర	-10.6954
పురాణం	-10.6955
▁స్తంభము	-10.6959
ోక్తుల	-10.6971
▁త్రాగించ	-10.6972
▁పిన్	-10.6973
▁పర్యటించ	-10.6975
చింత	-10.6982
▁మండపాల	-10.6986
▁పర్యట	-10.7002
▁ఆర్య	-10.701
▁బ్రమ	-10.7015
▁సేవిస్త	-10.703
▁తట్టుకోలే	-10.7034
▁రచించెన	-10.7037
▁ట్రాక్	-10.704
▁సంస్కృతుల	-10.7044
▁మల్లార	-10.7046
▁మహారాజ	-10.7059
▁భగవాన	-10.7064
▁ప్రోల	-10.7071
▁జాతుల	-10.709
దిగిన	-10.711
▁మాధవర	-10.7115
▁సీతారాముల	-10.7117
▁బస్సుల	-10.7129
▁క్రైస్తవుల	-10.7129
ప్రభుత్వం	-10.7131
సూరి	-10.7138
▁దానవ	-10.7138
▁పొడవ	-10.7145
▁దిద్ద	-10.7148
లక్ష్మీనరసింహ	-10.716
బియ్యం	-10.716
▁యున్న	-10.716
▁గ్రంథాల	-10.7165
▁గౌర	-10.7176
చెట్టు	-10.7177
పొడి	-10.7177
▁కిన్నర	-10.718
బడుతున్నాయి	-10.7181
దేశాల్లో	-10.7196
▁అనుగ్రహించ	-10.7198
▁లభిస్త	-10.7207
రక్షించాడు	-10.721
▁సంకీర్తన	-10.722
▁శివుడ	-10.723
ాంతంలో	-10.7231
శకం	-10.7241
▁సూపర	-10.7246
▁కలపడానిక	-10.7249
▁విషయమై	-10.7264
▁రాకపో	-10.7264
▁నివసిస్తున్న	-10.7276
లెక్ట	-10.7283
మేమిట	-10.7284
▁అనుకూలం	-10.7287
నుసరించి	-10.729
▁రచించబడి	-10.7294
▁తీరాన	-10.7297
▁శుక్ర	-10.7298
▁కనుక్క	-10.7299
▁గోళ	-10.7299
ంధ్రప్రదేశ్	-10.7303
▁అప్సర	-10.7306
హ్వ	-10.7307
▁గురుదక్షిణ	-10.7308
▁జలాశ్రయ	-10.7308
▁ఫ్యాక్టరీ	-10.7308
▁వ్యవస్త	-10.7308
▁సౌరకుటుంబ	-10.7308
▁ఇండస్ట్రీ	-10.7308
▁ఉట్టిపడుతుంది	-10.7308
▁ఉపద్రష్ట	-10.7308
▁కఠినాంగం	-10.7308
▁క్యాన్సర్	-10.7308
▁గణతంత్ర	-10.7308
▁తండోపతండ	-10.7308
▁పురూరవుని	-10.7308
▁పోస్టాఫీసు	-10.7308
▁భ్రమరాంబ	-10.7308
▁మార్క్సిజ	-10.7308
▁రామలక్ష్మణుల	-10.7308
▁శిష్యుల	-10.7308
▁శూరసేన	-10.7308
▁శ్రీమదాంధ్ర	-10.7308
టెక్నిక్	-10.7308
▁అపరిమిత	-10.7308
▁అశ్వమేధ	-10.7308
▁తిరువయ్యూరు	-10.7308
▁పరిగణించ	-10.7308
▁భార్గవ	-10.7308
▁వీటన్నిటి	-10.7308
▁వెలిబుచ్చ	-10.7308
▁వ్యర్థ	-10.7308
▁శ్లేష	-10.7308
▁సాఫ్టువేర్	-10.7308
▁అనుసంధించ	-10.7308
▁ఆపరేషన్	-10.7308
▁కేలరీల	-10.7308
▁కళకళలాడుత	-10.7308
▁గెలుపొంది	-10.7308
▁వాయుదేవుడి	-10.7308
▁సృజించ	-10.7308
▁గాంచింది	-10.7308
▁ద్రాక్షారామ	-10.7308
ధేనువు	-10.7308
▁దోహదపడ	-10.7308
▁పేరుమీదుగా	-10.7308
▁అలంకరించ	-10.7308
▁వార్షిక	-10.7308
పరిరక్షణ	-10.7308
▁సర్వస్వం	-10.7308
▁స్వాధీనం	-10.7308
▁అవుసర	-10.7308
▁పెండ్లి	-10.7308
▁అరవై	-10.7308
▁ఉద్ధవు	-10.7308
▁ధన్యులన	-10.7308
▁రాయచోటి	-10.7308
▁జర్నల	-10.7308
▁కదులుత	-10.7309
▁గేయాల	-10.7309
▁రమణమ్మ	-10.7309
▁కుంతీ	-10.7309
▁అపూర్వ	-10.7309
▁విశ్వాసం	-10.7309
ోదాహరణ	-10.7309
▁విష్ణుచిత్తుడ	-10.7309
▁సంశయ	-10.7309
▁మారీచ	-10.7309
▁పెండల	-10.7309
▁సమర్ధ	-10.7309
▁విశ్వాసాల	-10.7309
▁కాళోజ	-10.7309
▁తయారవుతుంది	-10.731
▁కరివేప	-10.731
▁మసాలా	-10.731
▁జుట్టు	-10.731
▁ప్రింట	-10.731
▁మొదలవుతుంది	-10.731
▁రాజోలు	-10.731
▁త్రొక్క	-10.731
▁నగరపాలక	-10.731
ఘోష	-10.731
▁వృష	-10.731
▁తెరిచి	-10.7311
ోచిత	-10.7311
▁త్రిలింగ	-10.7311
▁వేంకటపతి	-10.7311
▁చూసుకున్నాడు	-10.7311
▁కదిలి	-10.7311
▁పూవులు	-10.7311
▁ఉదంకుడ	-10.7311
▁గిత్త	-10.7311
▁యూనిట్	-10.7312
▁సిద్దేంద్ర	-10.7312
▁విత్తు	-10.7312
▁ప్రారంభమైంది	-10.7312
▁ముగలాయ	-10.7312
▁సూచించే	-10.7312
▁అడ్డగించ	-10.7312
▁చంద్రవంక	-10.7313
▁జూరాల	-10.7313
▁వెదక	-10.7314
▁పాసయ్యా	-10.7314
▁నిప్పు	-10.7314
▁ఎదుగు	-10.7315
భోధ	-10.7315
▁త్రాగునీటి	-10.7315
▁వైరసు	-10.7316
▁ఉరికి	-10.7317
▁క్రూర	-10.7319
▁పుత్రిక	-10.732
▁సహితం	-10.7321
▁నిలిపి	-10.7322
▁నేపాల	-10.7322
▁ప్రసిద్ధమైనది	-10.7328
▁యువతి	-10.7329
▁మొదలైంది	-10.733
▁పొడుగు	-10.733
▁నేర్చుకున్నాడు	-10.7331
▁కొబ్బరికాయల	-10.7332
▁గురై	-10.7335
విరామం	-10.7335
ాజ్య	-10.7336
▁జంతుశాస్త్ర	-10.7337
▁సాగుతుంది	-10.7337
▁పరీక్షించడ	-10.7338
▁అందిస్తుంది	-10.734
▁ప్రశ్నల	-10.7341
లచంద	-10.7342
▁ప్రతిజ్ఞ	-10.7342
▁పాటూరు	-10.7344
ుచుండి	-10.7344
▁స్థాపించాడు	-10.7345
▁చిత్రీకరింపబడి	-10.7347
▁ఇంకొకర	-10.7349
▁తవ్వకాల	-10.7351
▁నెబ్	-10.7351
ాకృతి	-10.7352
▁కనిపించింది	-10.7352
▁నక్షత్రాదుల	-10.7352
▁లాభ	-10.7353
▁టైపు	-10.7353
▁వూరి	-10.7354
▁కలుపుకుంట	-10.7354
ెగాళ్ళ	-10.7355
ొట్టి	-10.7357
▁పెరగడం	-10.7359
▁వేస్తారు	-10.736
▁వర్జ	-10.7363
▁గలవాడ	-10.7364
నొసగ	-10.7364
▁పందుల	-10.7365
వాళ్లు	-10.7366
▁మువ్వ	-10.7366
▁మారారు	-10.7366
▁నియమిత	-10.7367
▁చెప్పబడే	-10.7374
▁నాణ్యత	-10.7375
▁రాకుండా	-10.7375
గ్వేద	-10.7377
▁వస్త్ర	-10.7377
ుయ్యాల	-10.7377
▁పంచకం	-10.7378
▁చెంత	-10.738
▁మహిమతో	-10.7382
▁సూతు	-10.7384
▁మాట్లాడుత	-10.7384
▁కావ్యముల	-10.7385
ేషాలు	-10.7389
జన్యు	-10.7389
▁ఆహ్లాదకర	-10.739
▁ప్రసార	-10.7393
ాపర్వము	-10.7393
▁చేస్తాన	-10.7394
▁అనూర	-10.7398
▁వివరించాడు	-10.7401
▁మండిపో	-10.7402
▁ఆరోగ్యానిక	-10.7406
▁ఒక్కటి	-10.7416
▁ప్రవహిస్తున్న	-10.7417
కవుల	-10.7419
▁చేసుకోవట	-10.742
▁ఎంతటి	-10.742
▁టైగ	-10.7425
▁రిఫ	-10.7433
▁నాగుల	-10.744
▁కాలేదు	-10.744
▁తెలుగువాళ్ళు	-10.7441
▁శిల్పకళా	-10.7441
ిచ్చాడు	-10.7443
▁వెలుగు	-10.7444
▁దైవత్వ	-10.7445
▁సముద్రాలు	-10.7449
▁శ్రీకృష్ణుడికి	-10.7452
▁పాపాల	-10.7458
▁వేధ	-10.7462
నోటిలో	-10.7464
▁నష్ట	-10.747
▁మించిన	-10.7472
▁జీవించిన	-10.7476
జేసి	-10.7476
▁జగద్గురువ	-10.7483
▁విశిష్టమైన	-10.7483
గతిన	-10.7487
▁వేటగాడ	-10.7497
▁తాతగార	-10.7497
▁రాష్ట్రానిక	-10.7499
▁వింత	-10.7509
▁సహకరి	-10.7511
▁నీవా	-10.7539
పూరిత	-10.7541
▁ఉపయోగించడం	-10.7545
డిచ్	-10.7545
▁సాగుతున్న	-10.7548
▁కార్యక్రమాల	-10.7553
▁ఖండముల	-10.7553
▁వృషపర్వుడ	-10.7562
▁ప్రవర్తిస్తున్న	-10.7583
▁దుష్టులన	-10.7584
▁కమ్యూనిస్టుల	-10.7588
▁విలసిల్లిన	-10.7591
▁నేర్చుకున్నా	-10.7593
▁చూస్తున్న	-10.7595
▁సంతరించుక	-10.7601
▁గృహాల	-10.7606
▁పరిరక్షించ	-10.7607
▁తిక్క	-10.7614
ట్టుకోడానికి	-10.7616
▁గౌరవించ	-10.7632
ందేమ	-10.7633
కముంద	-10.7636
▁కనిపిస్తున్న	-10.7665
▁ఇద	-10.7669
▁లోకాల	-10.7691
▁లాక	-10.7694
రామచంద్రాపుర	-10.7711
▁పేద	-10.7713
▁సాంబ	-10.7721
▁భావాలన	-10.7728
▁వెలగ	-10.7737
▁పరమేశ్వరు	-10.7737
దంతా	-10.774
▁ప్రైవేట	-10.7746
ియోగ	-10.7748
ామిక	-10.7756
▁కూర్మావతార	-10.7763
▁పుణ్యక్షేత్రాల	-10.777
▁విభాగ	-10.7775
▁రోడ్ల	-10.7784
క్కడ	-10.7784
▁నందుడ	-10.7792
▁కప్	-10.7792
▁చీర	-10.7816
మీడియ	-10.7826
సంబంధ	-10.7826
బ్రాహ్మణ	-10.7828
▁విడిపో	-10.783
రోడ్డు	-10.7832
▁కాస్తా	-10.7841
పూలు	-10.7842
మదగ్	-10.7846
▁జాడల	-10.7846
▁గోడల	-10.7849
త్యాగరాజస్వామి	-10.7851
మహాలక్ష్మి	-10.7852
▁మార్గముల	-10.7854
▁కలుస్త	-10.7856
వెండి	-10.7865
▁కష్టాల	-10.787
రేజి	-10.7895
మోహన్	-10.7899
▁ఇళ్ళ	-10.7905
▁పురాత	-10.7906
▁సిమెంట	-10.7906
దర్భ	-10.7913
▁మార్పుల	-10.7916
▁జగన్	-10.7928
ర్మరాజు	-10.7932
▁అద్దం	-10.7935
రేగడ	-10.7937
▁నాస్తిక	-10.7939
▁దండెత్తిన	-10.794
ందువల్ల	-10.7942
▁రింగ	-10.7942
▁దీన్న	-10.7946
▁శ్రీమహా	-10.7949
▁అరస	-10.7953
టికల్	-10.7953
▁మేల	-10.7955
▁ఆంద్ర	-10.7956
వసత	-10.796
▁యుక్త	-10.7961
▁నలుగు	-10.7962
▁కృష్ణార్జునుల	-10.7975
▁చత్తీస్	-10.7975
▁మంత్రముగ్ధుల	-10.7975
▁మృతిచెంద	-10.7975
▁స్నేహితుల	-10.7975
▁అష్టదిగ్గజాల	-10.7975
▁అష్టమహిషుల	-10.7975
▁అహోబిళం	-10.7975
▁ఆంధ్రజ్యోతి	-10.7975
▁ఆటవెలది	-10.7975
▁కల్పవృక్ష	-10.7975
▁గ్రాంధిక	-10.7975
▁చమత్కార	-10.7975
▁జనబాహుళ్యంలో	-10.7975
▁దేవవ్రతుడ	-10.7975
▁దౌర్జన్య	-10.7975
▁ధర్మశాస్త్రాల	-10.7975
▁నిడదవోలు	-10.7975
▁నిబంధన	-10.7975
▁నైవేద్య	-10.7975
▁పనిచేసాడు	-10.7975
▁పాశ్చాత్య	-10.7975
▁పేదరికం	-10.7975
▁ప్రారంబించ	-10.7975
▁భద్రపరిచిన	-10.7975
▁మహోత్సవ	-10.7975
▁మృతసంజీవ	-10.7975
▁రాంప్రసాద్	-10.7975
▁వేణుగాన	-10.7975
▁వేయిస్తంభ	-10.7975
▁షెడ్యూల్	-10.7975
▁సందర్బ	-10.7975
▁సముదాయమ	-10.7975
▁సింగరాయకొండ	-10.7975
▁సెంటీగ్రేడ	-10.7975
▁స్టేడియం	-10.7975
▁కాల్పనిక	-10.7975
▁ఖజానా	-10.7975
▁గోహత్యాపాతక	-10.7975
▁తెలుసుకుందాము	-10.7975
▁మరికొంత	-10.7975
▁మునిసిపల	-10.7975
▁సౌలభ్య	-10.7975
▁అభిరుచి	-10.7975
▁కావల్సి	-10.7975
▁దీర్ఘ	-10.7975
▁వీడియో	-10.7975
▁సంప్రదింపు	-10.7975
▁వర్షాధార	-10.7975
▁పోలీస్	-10.7975
▁ముదిరిన	-10.7975
▁విదేశీమారక	-10.7975
▁సాగనంపు	-10.7975
▁హెచ్చిన	-10.7975
▁క్రతువు	-10.7975
▁పోగొట్ట	-10.7975
▁భాష్యకార	-10.7975
▁పదిహేన	-10.7975
▁వెల్లుల్లి	-10.7975
▁ఇంగువ	-10.7975
▁చెబుతుంటారు	-10.7975
▁కత్తిరిం	-10.7975
▁పిందె	-10.7975
▁మెసలి	-10.7975
▁సమకాలికు	-10.7975
▁ఏడాది	-10.7975
▁పరవళ్ళు	-10.7975
▁వాడుకొనే	-10.7975
▁ఆగస్టు	-10.7975
ాల్సిందే	-10.7975
▁స్రావ	-10.7975
▁గిన్నె	-10.7975
▁వూరే	-10.7975
▁ప్రతిపక్ష	-10.7975
▁బాలసుబ్ర	-10.7975
▁కలిగివుంది	-10.7975
▁పొట్నాల	-10.7975
▁పనిముట్లు	-10.7975
▁ఎర్రగుంట	-10.7975
▁రెండిటి	-10.7975
▁ఘట్టాల	-10.7975
▁పురుషోత్తమ	-10.7976
▁నరసింహారావు	-10.7976
▁హెర్	-10.7976
▁రాసారు	-10.7976
▁గినియా	-10.7976
▁సిద్ధేంద్రయోగి	-10.7976
▁గడువు	-10.7976
▁ప్రాసెస	-10.7976
ద్రోహ	-10.7976
▁ఇనుమడింప	-10.7976
▁మడుగు	-10.7976
▁పరిణయ	-10.7976
▁జబ్బుల	-10.7976
▁నార్త	-10.7977
▁ఎస్సీవ	-10.7977
▁ఆమ్ల	-10.7977
▁కాల్చి	-10.7977
▁విభజించబడినది	-10.7977
▁శ్రుత	-10.7977
▁పర్యాయపద	-10.7977
▁భవనాశ	-10.7977
▁శకారంభ	-10.7977
▁వెళతా	-10.7977
▁అష్టభాషా	-10.7977
▁పరంపర	-10.7977
▁మృద	-10.7977
భిక్షం	-10.7978
▁సాహస	-10.7978
▁రీజ	-10.7978
▁రావణాసురు	-10.7978
▁పెనవేస	-10.7978
▁పెట్టాడట	-10.7978
▁వేమారెడ్డి	-10.7978
ముచ్చట	-10.7978
▁గర్భాలయం	-10.7979
▁గ్రామస్థుల	-10.7979
▁వేసుకునే	-10.798
▁నిర్మాత	-10.7981
▁సరుకుల	-10.7981
▁వివరిస్తాడు	-10.7981
▁భీకర	-10.7981
్మానం	-10.7981
▁ఉదయగిరి	-10.7981
▁పల్లవరాజు	-10.7982
▁వెలువరించారు	-10.7982
▁చిమ్ముత	-10.7982
▁గ్రామస్తుల	-10.7982
▁రాసుకొన	-10.7982
▁మాట్లాడుకునే	-10.7983
▁మొదలగున్నవ	-10.7983
ిభ్రమిస్తున్నాయన	-10.7983
▁హంస	-10.7983
▁మొరపెట్టుక	-10.7984
▁పెట్టుకునే	-10.7984
▁సంసిద్ధ	-10.7984
విరుద్ధ	-10.7986
▁పోర్ట	-10.7988
▁కలిగిఉన్న	-10.799
▁మాత్రా	-10.799
▁స్వస్థ	-10.799
▁చేసినట్లుగా	-10.7991
▁దేశీయ	-10.7992
▁సైటు	-10.7992
▁ఆదిశేషుడు	-10.7994
▁పరిస్థితుల్లో	-10.7995
▁గార్డెన్	-10.7996
▁వెళ్తున్న	-10.7998
▁విశ్వేశ్వర	-10.7999
ెక్ట్ర	-10.8001
గూడ	-10.8002
▁యల్లా	-10.8005
▁తొలగించాడు	-10.8005
▁అవతరించిన	-10.8005
▁శబర	-10.8006
రాధ్య	-10.8008
▁సమర్పించారు	-10.8008
▁శాసనాల్లో	-10.8009
▁తెలుప	-10.8009
▁చీమ	-10.8012
▁ప్రసాదించిన	-10.8013
▁అణచ	-10.8013
▁మహమ్మద	-10.8013
▁పొడిగించ	-10.8014
స్కోప	-10.8015
▁ఆదర్శ	-10.8015
▁పురాణముల	-10.8018
పరిసరాల	-10.802
▁భామా	-10.8023
▁బ్రహ	-10.8029
▁దోసకాయ	-10.8029
▁మిరపకాయల	-10.8033
▁గ్రంధాలు	-10.8036
▁నేర్చుకోవడ	-10.8038
▁విమానాశ్రయము	-10.804
▁అసత్య	-10.8043
హారతి	-10.8046
ించబడిన	-10.8051
▁లావు	-10.8054
▁వ్యాప	-10.8058
రహర	-10.8062
▁గుమ్మ	-10.8068
▁కవిమిత్ర	-10.8071
▁జంట	-10.8078
▁ఆయుర	-10.8083
▁కలిగించడ	-10.8086
జ్ఞులు	-10.8092
▁అల్లూర	-10.8096
▁విష్ణుపురాణ	-10.8103
▁అనుగ్రహ	-10.8113
ెరిగి	-10.8114
▁సైబ	-10.8118
▁కొరత	-10.8125
▁ఏర్పాటై	-10.8131
▁ఒక్కస్థాన	-10.8132
▁అయిజ	-10.8134
▁అబ్జ	-10.8143
▁ధరిస్తుం	-10.8147
▁ప్రతిష్ఠించ	-10.8149
క్రియ	-10.8153
▁అదన	-10.8169
▁లొన	-10.8182
▁పన్నుల	-10.8185
▁కూర్మావతారము	-10.8192
▁ఒడ్డు	-10.8192
▁ముస్లింల	-10.8198
▁రచించబడిన	-10.8202
▁పోరాటాల	-10.8212
▁యాద	-10.8213
▁పుట్టుక	-10.8214
ొండ	-10.8215
గుండం	-10.8218
వరణల	-10.8219
▁కాణిపాక	-10.8221
▁గడిపాడ	-10.8225
▁పండితుడ	-10.8227
▁వర్ణించిన	-10.823
▁ఖండించ	-10.8238
పూర్వక	-10.8249
▁భాగమై	-10.8255
▁నిర్ధారించ	-10.8269
▁తీరము	-10.8269
▁పదవ	-10.8272
ించుచున్నారు	-10.8277
భాస్కరుని	-10.828
▁నడుస్తున్న	-10.8284
ందువలన	-10.8293
▁ఏర్పాట	-10.8295
ేయగా	-10.8296
▁వినయ	-10.8327
పోతారు	-10.8336
బాహుడు	-10.8341
▁తెచ్చుకున్న	-10.8342
▁సంగ్రహాలయ	-10.8342
లేకపోయ	-10.8368
▁కొరియ	-10.838
కాంతల	-10.8384
బోధించే	-10.8387
లోపల	-10.839
ూర్తి	-10.8395
శనగపప్పు	-10.8402
▁చెబుతున్న	-10.8405
▁ప్రయోగముల	-10.8421
▁సాహిత్యమున	-10.8424
▁ప్రతిబింబిస్తు	-10.8435
్రాంత	-10.8445
▁కవిత్రయమ	-10.8458
▁పుత్రుల	-10.8462
▁మతాల	-10.847
▁పదకొండ	-10.8483
▁భ్రమ	-10.8486
ముఖ్యమైన	-10.8495
▁సన్మాన	-10.8497
కాలమందు	-10.8502
డిపోవడం	-10.8505
వచనం	-10.8507
▁హిరణ్యాక్షుడ	-10.851
▁అపరా	-10.8515
ండవలెను	-10.8521
▁చనిపో	-10.8523
శిక్షణ	-10.8541
వైద్య	-10.8541
▁పనిచేస్తాయ	-10.8542
కోవడానిక	-10.8544
లేకపోవడం	-10.8549
▁ఎలుగుబంట	-10.8551
లక్షణ	-10.8559
▁చెబుతుం	-10.856
▁నడకల	-10.8561
▁మొత్తానిక	-10.8572
▁బీజ	-10.8572
ాభివృద్ధి	-10.8573
పాత్ర	-10.8581
▁నడుప	-10.8586
ేవారట	-10.8587
రంజక	-10.859
▁వెల్లడ	-10.8591
త్తున	-10.8593
▁తేలిక	-10.8597
▁గౌతముడ	-10.8603
జీవిత	-10.8605
▁చిట్	-10.8605
▁గిరిజనుల	-10.8609
▁ుండ	-10.8612
▁డిసెంబర	-10.8614
▁ఆకర్షించ	-10.8617
కొత్త	-10.862
▁క్షణ	-10.8621
▁అభ్యర్థి	-10.8644
నూనె	-10.8647
▁మాటిచ్చ	-10.8658
▁మెచ్చ	-10.8669
▁పోషించ	-10.867
▁నర్స	-10.8674
▁ఆధ్యాత్మ	-10.8678
▁ఒప్ప	-10.8678
▁పాండుసుతుల	-10.8689
▁ఉద్యానవన	-10.8689
▁కీరదోసకాయ	-10.8689
▁జరాసంధు	-10.8689
▁జాలస్థలి	-10.8689
▁జోగిపేట	-10.8689
▁దుర్మార్గ	-10.8689
▁పంక్తి	-10.8689
▁పర్గెటరీ	-10.8689
▁పెట్టుబడుల	-10.8689
▁యూనివర్సిటీ	-10.8689
▁సన్నివేశా	-10.8689
▁సైదాపేట	-10.8689
▁సొసైటీ	-10.8689
▁స్కంధాల	-10.8689
▁అఖిల	-10.8689
▁అవతరించడాన్ని	-10.8689
▁ఆశీర్వచన	-10.8689
▁ఆసుపత్రుల	-10.8689
▁ఆస్ట్రేలియా	-10.8689
▁ఇంజినీరింగ	-10.8689
▁కణ్వమహర్షి	-10.8689
▁కుతూహల	-10.8689
▁కులోత్తుంగ	-10.8689
▁కెమెరా	-10.8689
▁క్లుప్త	-10.8689
▁గతించిరి	-10.8689
▁గోనబుద్ధారెడ్డి	-10.8689
▁చౌరస్తా	-10.8689
▁ప్యాకేజీ	-10.8689
▁ప్రప్రథమ	-10.8689
▁ప్రోగ్రామర్	-10.8689
▁ఫలదీకరణ	-10.8689
▁ముసద్దీ	-10.8689
▁మొహియుద్దీన్	-10.8689
▁వర్థన్	-10.8689
▁విడదీయ	-10.8689
▁వృథా	-10.8689
▁శ్రీమద్భాగవత	-10.8689
▁సాన్నిహిత్య	-10.8689
▁సామ్రాజ్యాధినేత	-10.8689
▁సిర్కార్	-10.8689
▁హాలాహల	-10.8689
▁ఉలవలు	-10.8689
▁పక్షపాత	-10.8689
▁సుపరిచితమైన	-10.8689
▁ఏకలవ్యు	-10.8689
▁చదలవాడ	-10.8689
▁నాడీమండల	-10.8689
▁మునివాటం	-10.8689
▁విస్తరిస్తున్న	-10.8689
▁వేరొక	-10.8689
▁నిర్ణయిస్తారు	-10.8689
▁సిలికాన	-10.8689
ానుసారము	-10.8689
▁రంగనాయక	-10.8689
▁కణ్వ	-10.8689
▁వెలశారు	-10.8689
▁సూర్యాపేట	-10.8689
▁చేయుట	-10.8689
▁నరసింగ	-10.8689
▁స్తాపించ	-10.8689
▁పొందుపరచ	-10.8689
▁బదిలీ	-10.8689
▁కుంతల	-10.869
▁డ్రైవ	-10.869
▁యోజన	-10.869
▁సంపాదక	-10.869
▁ఆరాధనోత్సవాల	-10.869
▁వెంబడి	-10.869
▁ఉద్యమకారుల	-10.869
▁నడుపుతున్నారు	-10.869
▁మనదేశంలో	-10.869
▁సర్కారుల	-10.869
▁కోనేరు	-10.869
▁ప్రార్థన	-10.869
▁జీర్ణించుకున	-10.869
▁శ్రీమద్	-10.869
▁తిరుగుబాటు	-10.869
▁తులసి	-10.869
▁ఉన్నవాటి	-10.869
▁కాగిత	-10.869
▁ఫలితము	-10.869
▁బొటన	-10.869
ురంధరుడు	-10.869
▁ఎదురై	-10.869
▁బృహత్తర	-10.869
▁పెంకుల	-10.869
ాధిపతి	-10.869
▁కార్బో	-10.8691
వర్ష	-10.8691
▁తెలుసుకోవచ్చు	-10.8691
▁రిజర్వాయర	-10.8691
▁స్థూప	-10.8691
▁విజయవంతం	-10.8691
▁కోపగించ	-10.8692
▁వాసుకి	-10.8692
▁ప్రసక్తి	-10.8692
▁సుదూర	-10.8692
▁క్లిష్ట	-10.8692
▁వామనుడ	-10.8692
▁గిరిరాజ	-10.8692
వ్రేలి	-10.8693
▁చేత్తో	-10.8693
▁దేశభక్తు	-10.8693
▁శీతల	-10.8693
▁స్థాపించబడింది	-10.8693
▁చోడుల	-10.8693
▁సూర్యనారాయణ	-10.8693
▁డెస్క	-10.8694
▁కడిగ	-10.8694
▁గలవు	-10.8694
▁పొడుగున	-10.8694
▁చేస్తోంది	-10.8695
▁శేఖర	-10.8695
▁ఒకచోట	-10.8695
▁మధ్యాహ్న	-10.8695
▁రష్య	-10.8696
▁నడిచింది	-10.8696
▁కలకత్తా	-10.8697
▁విడత	-10.8697
▁కొనసాగుతూ	-10.8697
▁అడుగుపెట్ట	-10.8697
▁హాయిగా	-10.8697
▁అధిష్ట	-10.8697
▁చేరుకున్నారు	-10.8697
▁సుగర్	-10.8697
▁రాజరాజనరేంద్రు	-10.8697
▁ఆరుగురు	-10.8698
▁పలుకులు	-10.8698
▁క్రమము	-10.8699
▁ఆలస	-10.8699
▁బీదర	-10.8699
▁జూదమ	-10.87
▁టూరి	-10.8701
▁రాజస్థాన	-10.8701
▁సాఫ్	-10.8701
▁రాజుగారి	-10.8702
▁యవ్వనంలో	-10.8703
ెద్ది	-10.8703
▁అనుకొంటారు	-10.8704
▁శ్రీనివాసరావు	-10.8704
▁ప్రతిబింబ	-10.8706
▁నిలుప	-10.8706
ేత్రుడయ్య	-10.8707
▁చనిపోయిన	-10.8707
▁సాయిబ	-10.8708
▁జక్కన	-10.8708
▁యుక్తమైన	-10.8709
▁చేరువ	-10.8709
▁నాస్తికులు	-10.871
▁జగద	-10.871
▁పదహార	-10.8711
▁తురుష	-10.8711
▁పద్యములతో	-10.8711
▁బ్రాహ్మణుని	-10.8711
▁సంతతి	-10.8713
▁నివసిస్తున్నారు	-10.8714
▁ఇందలి	-10.8717
▁పటిక	-10.8718
ీరాంజ	-10.8718
ెందర	-10.872
▁మొట్ట	-10.872
▁ఏమిటో	-10.8721
▁మేలైన	-10.8721
▁వెళ్ళాలి	-10.8721
▁విశ్వామిత్రుడు	-10.8721
▁విస్తృతంగా	-10.8728
▁ఇంద్రలోకా	-10.873
భావించబడుతున్నది	-10.8733
▁సాగింది	-10.8739
▁పెద్దాపురం	-10.874
▁మారుతూ	-10.8741
▁అగస్	-10.875
▁వృక్షశాస్త్ర	-10.8752
▁కొమర	-10.8752
▁జట్టు	-10.8758
▁నీచ	-10.8763
▁స్పూన	-10.8767
▁మరొకరిక	-10.8771
గ్నీ	-10.8772
▁రోడ్డుమార్గముల	-10.8786
▁బెండకాయల	-10.8798
▁వన్యప్రాణ	-10.8799
▁పిలువబడేద	-10.8806
▁ఎర్రచ	-10.8808
▁మూత	-10.8821
ితుడై	-10.8823
రెనస	-10.8831
ణానిక	-10.8835
▁కొమ్మల	-10.8835
గ్రాఫ్	-10.8845
▁రామకృష్ణుల	-10.8855
▁జరుప	-10.8864
బుక్కు	-10.8881
▁సుధా	-10.8882
చేశాయి	-10.8882
▁స్థాపించబడిన	-10.8892
▁నిలుస్తు	-10.8896
▁పలనా	-10.891
▁డేవ	-10.8912
▁విడుదలైన	-10.8917
▁పురుషుని	-10.8918
పరిచర	-10.893
▁ప్రతిబింబించ	-10.8932
▁బాధపడేవార	-10.8937
లీలావతార	-10.8945
▁వైద	-10.8948
యుగాన	-10.8961
ియమ్	-10.8964
్తుని	-10.8968
▁విధుల	-10.8977
కాపరి	-10.899
నోళ్ళ	-10.9006
▁పరిపాట	-10.9018
▁ఎన్నికల	-10.9022
▁ఛాల	-10.903
▁శిఖరాల	-10.9038
▁ఆస్ట	-10.9041
▁పేదవా	-10.9044
▁వైభవం	-10.9045
కాళహస్తీశ్వరా	-10.9064
స్వాములు	-10.9066
వీరుడయిన	-10.9067
▁అనుసంధాన	-10.9071
గర్బ	-10.908
▁స్టార్	-10.9084
▁వేళ్ళ	-10.9094
మహాఖండము	-10.9103
▁నృత్యాల	-10.9107
మింట	-10.911
▁ప్రవర్తిస్త	-10.9129
▁పూరించ	-10.9145
కెక్కారు	-10.9151
మిగిలినవ	-10.9153
▁యంత్రమ	-10.9175
గణముల	-10.9184
▁నిర్వహిస్త	-10.919
▁నరక	-10.9207
▁సరళమైన	-10.924
▁సౌకర్య	-10.9246
▁రాలేద	-10.9252
▁అక్షాంశ	-10.9254
తండ్రి	-10.9259
▁ఆస్ట్ర	-10.9263
▁వేస్తున్న	-10.9271
▁నడిచ	-10.928
▁కుండల	-10.93
▁పలుకుత	-10.9303
భూపతి	-10.9307
ాలున్నవి	-10.9307
పేజీ	-10.9309
▁మామూలు	-10.9309
దర్శన	-10.931
మహారాజు	-10.9311
▁గుండ్ర	-10.9311
▁తయారయి	-10.9312
▁వివిద	-10.9316
▁పూనుకొన	-10.9318
▁భరతుని	-10.9321
శాతం	-10.9323
▁కలపబడి	-10.9323
సూత్రాల	-10.933
గొన	-10.933
డమనే	-10.9337
గలిగి	-10.9339
ిన్నగా	-10.934
▁వన్యప్రాణుల	-10.9341
▁నింద	-10.9348
ికన్నామ	-10.936
్రాల్	-10.9376
శీత	-10.9381
▁విజృంభించా	-10.9384
▁నాణ్య	-10.9389
▁వస్తుంద	-10.9396
దరుడు	-10.94
▁పట్టుకున	-10.9404
▁నక్షత్రాదు	-10.9409
▁ఇంకొక	-10.9411
▁దశావతార	-10.9418
రాయడం	-10.9422
▁ఆదిశేషు	-10.9427
సంఖ్యాక	-10.9435
ెంట్	-10.9436
▁లొక	-10.9443
రసింహావతారము	-10.9448
▁బొమ్మారె	-10.9449
ెడతాడు	-10.9452
▁నెరవేర	-10.9452
జువు	-10.9456
▁కాణిప	-10.9456
ంపజేస్త	-10.9457
ిఘంటు	-10.9458
▁ఆదిశంకర	-10.9458
▁ఆబాలగోపాలాన	-10.9458
▁నిషేధ	-10.9458
▁ప్రజాస్వామ్య	-10.9458
▁సంకీర్ణ	-10.9458
▁అప్పజెప్ప	-10.9458
▁అప్రమత్త	-10.9458
▁అల్లకల్లోల	-10.9458
▁కంట్రోల	-10.9458
▁కిన్నెర	-10.9458
▁చెలరేగ	-10.9458
▁జనసామాన్య	-10.9458
▁డిక్షనరీ	-10.9458
▁తమలపాకు	-10.9458
▁తాబేలు	-10.9458
▁దేవదాసీల	-10.9458
▁పరిపక్వ	-10.9458
▁పాంచజన్య	-10.9458
▁పాదముద్రలు	-10.9458
▁పారామెడికల	-10.9458
▁పాల్గొన్నారు	-10.9458
▁భాషాప్రయుక్త	-10.9458
▁భిక్షువ	-10.9458
▁మరికొందర	-10.9458
▁మొగల్రాజపుర	-10.9458
▁యమధర్మరాజు	-10.9458
▁వజ్రహస్తు	-10.9458
▁విద్వాంసుడు	-10.9458
▁విభూది	-10.9458
▁శిక్షావిధుల	-10.9458
▁శ్రీశంకర	-10.9458
▁సంస్కరణల	-10.9458
▁సవిస్తర	-10.9458
▁సుబ్బారావు	-10.9458
▁స్థిరపడ్డారు	-10.9458
▁హుస్సేన	-10.9458
▁హెక్టేర్ల	-10.9458
▁అలంకరణ	-10.9458
▁కుబేర	-10.9458
▁క్రియాశీల	-10.9458
▁తొంభై	-10.9458
▁నిముషాల	-10.9458
▁మహాకావ్యమ	-10.9458
▁విరాజిల్ల	-10.9458
▁వృక్షసంపద	-10.9458
▁వేదవేదాంగ	-10.9458
▁సాళ్వ	-10.9458
▁చింతలపూడి	-10.9458
▁శుక్రాచార్యుడు	-10.9458
▁హెచ్చు	-10.9458
▁పట్టించుకో	-10.9459
▁పాతాళగంగ	-10.9459
▁బురుజు	-10.9459
▁సముచిత	-10.9459
▁బంగ్లా	-10.9459
పరిశరాలలో	-10.9459
▁ఆర్యభట్ట	-10.9459
▁తొలినాళ్ళ	-10.9459
▁ఆచరణ	-10.9459
▁దాల్చి	-10.9459
కవీంద్రు	-10.9459
▁ఉపగ్రహముల	-10.9459
▁ఉపనదుల	-10.9459
ధీశుడ	-10.9459
వాహిక	-10.9459
▁విచ్చేసి	-10.9459
▁దుర్భ	-10.9459
▁అలవాట్ల	-10.9459
▁మాచర్ల	-10.9459
▁తప్పించుకొన	-10.9459
▁దసరా	-10.9459
▁గోవర్ధన	-10.9459
▁వినగర్లో	-10.9459
▁ధ్వజ	-10.9459
▁సమర్పిస్తా	-10.9459
▁సెంట్రల్	-10.9459
ీర్ణత	-10.9459
▁కొలువుతీరి	-10.9459
▁సాహితీవేత్తల	-10.9459
స్పోర్ట్	-10.9459
▁కొలెస్ట	-10.9459
▁మన్ననల	-10.9459
▁విద్యాబుద్	-10.9459
▁సంధర్భంలో	-10.9459
▁నర్సాపురం	-10.9459
▁చారలు	-10.9459
▁మహంతుల	-10.946
▁సీతానగరం	-10.946
తాభ్	-10.946
▁కళంకార	-10.946
▁బహిర్	-10.946
▁చదువుకుంటున్న	-10.946
▁పవార్	-10.946
▁ఎడ్ల	-10.946
▁చిరుత	-10.9461
▁ఆకలి	-10.9461
▁ఎలుగు	-10.9461
▁నంజుకు	-10.9461
▁వాషింగ	-10.9461
▁కేశవ	-10.9461
▁బయటపడి	-10.9461
▁శల్య	-10.9461
▁పరిశుద్ధ	-10.9462
▁వినియోగిస్తారు	-10.9462
▁రాజీవ	-10.9462
▁వర్ధిల్లింది	-10.9462
▁బ్రతుక	-10.9462
▁ఎటునుండ	-10.9462
▁ఐక్య	-10.9463
▁జ్యూస	-10.9463
▁టిప్ప	-10.9463
▁గియ్య	-10.9463
యుండుట	-10.9463
▁అంకెల	-10.9463
▁ప్రవర్తన	-10.9464
▁సేద్య	-10.9464
▁వెళ్ళుచున్నది	-10.9464
▁మాసాలలో	-10.9464
▁నెరవేర్చ	-10.9465
▁పర్యటనల	-10.9465
▁హల్లుల	-10.9465
▁మున్సీపాలటీ	-10.9465
▁శతకం	-10.9465
▁భీష్ముని	-10.9465
▁తొండం	-10.9465
▁సంధ్యా	-10.9465
▁శత్రువుల	-10.9466
▁పదిమంది	-10.9467
▁సాంద్ర	-10.9467
▁నాటకీయ	-10.9467
▁ఈపేరు	-10.9467
▁కేతన	-10.9467
▁మహేంద్ర	-10.9468
▁రాశుల	-10.9468
లేసియ	-10.9468
▁పిలువబడింది	-10.9468
▁సమస్యలన్నీ	-10.9468
▁ప్రదర్శనశాల	-10.9468
చకిత	-10.9469
▁అన్నాడట	-10.9469
▁గాయకుడు	-10.9469
▁భ్రమరాల	-10.9469
▁రాజలాం	-10.9469
▁చిన్నదైన	-10.9469
ఫ్ఫ	-10.9469
▁రీడింగ	-10.947
▁మూత్ర	-10.947
▁నటన	-10.9471
▁ముందంజ	-10.9471
▁పలనాటి	-10.9471
▁భూటాన	-10.9471
▁వ్రాత	-10.9471
▁అచట	-10.9472
▁దూరదర్శ	-10.9473
▁ఇరువదవ	-10.9475
ప్పుదు	-10.9475
▁ఊళ్ళ	-10.9475
▁సరిపడ	-10.9476
మంటపము	-10.9477
▁ఆడవారి	-10.9478
త్రాగే	-10.9478
▁కత్తుల	-10.9479
▁నాస్తికత్వ	-10.9479
▁జారీ	-10.948
▁చెప్పబడుతుంది	-10.9481
▁ఐదే	-10.9481
▁సాంప్రదాయిక	-10.9482
▁సంవాద	-10.9482
▁ఉంటారన	-10.9483
▁మెచ్చుకొన	-10.9487
▁ఉగ్రశ్రవసువు	-10.9487
▁హింసిం	-10.9489
▁చూపిస్త	-10.9489
▁కృష్ణదేవ	-10.9491
ాయకుడు	-10.9491
కర్ణి	-10.9493
దీవుల	-10.9496
▁దివి	-10.9499
▁శంకరాచార్యుల	-10.95
▁సమగ్ర	-10.95
▁వ్యవస్థాప	-10.95
▁మేష	-10.9501
▁సత్యసు	-10.9502
▁ఇముడ	-10.9503
▁అంతవరకూ	-10.9505
▁పిచ్చి	-10.9506
▁పల్లెటూర	-10.9509
▁ఎక్కించ	-10.951
లమొ	-10.9511
▁వీక్ష	-10.9512
▁చూడాలి	-10.9513
చేస్తున్న	-10.9514
▁రుచికర	-10.9516
▁అత్రి	-10.9517
▁పూజించిన	-10.9521
▁మూక	-10.9525
▁లౌ	-10.9532
నవసరం	-10.9534
ఫోర్	-10.9542
▁ఆలవాలమై	-10.9542
▁ప్రియమైన	-10.9546
▁ఆడి	-10.955
గుర్రం	-10.9553
మాచ	-10.9556
▁ప్రాచీనకాలం	-10.9562
▁జరుపుతున్న	-10.9563
▁పొగడ	-10.9564
వర్తన	-10.9566
▁కైలాస	-10.9569
ీలియో	-10.9573
▁గజేంద్రుడ	-10.9578
▁ఫైళ్ళ	-10.9581
▁కావాల్సి	-10.9584
పరిశ్రమాభివృద్ధి	-10.9585
క్రితమ	-10.9587
ార్చన	-10.959
ప్రసరణ	-10.9594
జ్వల	-10.9597
▁తెలిస	-10.9598
▁భయంకర	-10.9599
▁ఆయిల	-10.96
▁పెట్టేర	-10.9602
▁తోచ	-10.9608
గుండా	-10.962
▁కనుమల	-10.9628
▁చెప్పినట్లు	-10.9645
▁శ్రీనాధున	-10.9648
▁కావడంచే	-10.9651
▁సమేతుడై	-10.9662
▁సాగించడం	-10.9664
▁బొత్తా	-10.9666
▁టెం	-10.9669
ించబడింది	-10.9673
▁కృష్ణమాచార్యుల	-10.9684
▁వాహనా	-10.9685
▁మునిగిపోతుంద	-10.9691
▁స్థాపించడం	-10.9698
▁కారిన	-10.97
ందనము	-10.9717
▁బిరుద	-10.972
వసాయ	-10.9733
▁ప్రసిద్ధికెక్క	-10.9777
నీయవ	-10.9788
▁నిర్మింపబడ	-10.9792
ేర్పాటు	-10.9802
▁అనుసంధానించబడి	-10.9807
▁కడపజిల్ల	-10.9808
ాంఘ	-10.981
▁అర్చిం	-10.9812
▁విష్ణుకుండినుల	-10.9814
▁చెప్పుకొంట	-10.9833
▁చదవాల	-10.9834
▁వివరముల	-10.9848
క్కువ	-10.985
▁జరిపించ	-10.9885
▁భగవద	-10.9905
▁జలాల	-10.9909
వాసుల	-10.9935
ింపజేసి	-10.994
▁వేరుశనగల	-10.9949
▁రాయలవారి	-10.995
▁ఆస్తాన	-10.9955
▁సంభవించ	-10.9957
ేరియన	-10.9972
వ్యాప్తం	-10.9977
▁దండయాత్రల	-10.9981
▁మనుగడక	-10.9983
బియా	-10.9994
ముప్పై	-11
క్షేత్రమని	-11.0005
ంధీ	-11.0019
వులందర	-11.0019
▁టైమ	-11.0019
కపోవడ	-11.0023
▁వినాల	-11.0027
ెత్తన	-11.0042
▁డ్ర	-11.0049
స్తుంటాయి	-11.0052
▁కమండల	-11.006
▁పండగ	-11.0066
▁ఆర్యుల	-11.007
మహర్ష	-11.0077
▁హరివంశ	-11.0091
గమనం	-11.0102
▁నేదు	-11.0103
▁వర్షపాత	-11.0108
మండలము	-11.0111
▁వర్షాల	-11.0117
▁ఆవిర్భవించినప్ప	-11.012
▁విద్యాభ్యాస	-11.0121
▁వాసుదేవుడ	-11.0122
▁కుంచ	-11.0134
ఊరగాయ	-11.0143
▁పూడిప	-11.0143
మహిమ	-11.0144
సంవత్సరం	-11.0144
ొన్నాడు	-11.0144
దైవ	-11.0145
చెప్పి	-11.0148
వనవాస	-11.0151
పిల్లల	-11.0156
▁ఉద్దేశ	-11.0165
రీత్యా	-11.0179
బ్రమ	-11.0183
సిద్ధాంతము	-11.0185
శునక	-11.0206
▁మూతపడ	-11.0208
ధర్మాల	-11.0214
ురాలి	-11.0221
▁విశ్వవిద్యాలయ	-11.0237
▁కలుగుతుంద	-11.0249
దేమో	-11.0251
▁సవివ	-11.0264
▁ఎనుమ	-11.0267
▁శ్రీనివాసుడ	-11.0267
సంగీతానిక	-11.0273
ర్పణం	-11.028
▁లెక్కపెట్ట	-11.0291
రెసిడెన్సీ	-11.0292
▁చత్తీసుగ	-11.0292
▁అష్టభార్యల	-11.0292
▁వివాదాస్పద	-11.0292
▁ఆంధ్రమహాసభ	-11.0292
▁కమ్యూని	-11.0292
▁కాంప్లెక్స	-11.0292
▁కోలాహల	-11.0292
▁చాటుపద్యాల	-11.0292
▁దుర్యోధన	-11.0292
▁పశ్చాత్తాప	-11.0292
▁శుక్రాచార్యుని	-11.0292
నిరాశ్రయులయ్యారు	-11.0292
సత్యప్రమాణాల	-11.0292
▁అంగీరసు	-11.0292
▁అగ్రికల్చర	-11.0292
▁అత్యవసర	-11.0292
▁అప్లికేషన్	-11.0292
▁అభ్యర్థన	-11.0292
▁ఆళ్వారుల	-11.0292
▁ఇరువైపుల	-11.0292
▁ఉపసంహరించ	-11.0292
▁ఎడుకొండలు	-11.0292
▁ఏర్పరిచ	-11.0292
▁ఏర్పరుచుకున్న	-11.0292
▁ఒకానొక	-11.0292
▁కెఫె	-11.0292
▁కొనుక్కో	-11.0292
▁కొనుగోలు	-11.0292
▁చేరుకుంటుంది	-11.0292
▁థియేటర్	-11.0292
▁దుమ్ముగూడెం	-11.0292
▁దేవకీవసుదేవుల	-11.0292
▁ద్వారపాలకు	-11.0292
▁నివేదిక	-11.0292
▁పరవశించి	-11.0292
▁పీఠభూమి	-11.0292
▁పొన్నగంటికూర	-11.0292
▁ప్రోటీన	-11.0292
▁ఫాజిలు	-11.0292
▁బహూకరించ	-11.0292
▁మజ్జిగ	-11.0292
▁మార్పిడి	-11.0292
▁మాస్టర్	-11.0292
▁యుగపురుషులు	-11.0292
▁విడమర్చి	-11.0292
▁విస్తరిస్తోంది	-11.0292
▁శకటాసుర	-11.0292
▁శత్రుఘ్ను	-11.0292
▁శూర్పణ	-11.0292
▁శ్రవణ	-11.0292
▁సంబందించిన	-11.0292
▁సత్రయాగ	-11.0292
▁సాఫ్టువేరు	-11.0292
▁సెంటీమీటర్ల	-11.0292
▁హేతువ	-11.0292
▁ఉదహరించ	-11.0292
▁గిజరు	-11.0292
▁జనావాసాల	-11.0292
▁నెలకొల్ప	-11.0292
▁పోలీసు	-11.0292
▁బూదరాజు	-11.0292
▁బ్రంహ్మ	-11.0292
▁యథాతథ	-11.0292
▁వెలమరాజుల	-11.0292
మురళీ	-11.0292
▁ఆక్రమణ	-11.0292
▁ఆయుధాల	-11.0292
▁కబంధ	-11.0292
▁కాటేజీ	-11.0292
▁నిపుణుడ	-11.0292
▁పరిమితం	-11.0292
▁ఫోటో	-11.0292
▁బ్లేజు	-11.0292
▁బళ్ళారి	-11.0292
▁మిగిలే	-11.0292
▁సహాయపడు	-11.0292
▁అగ్రహారమ	-11.0292
▁అమూల్య	-11.0292
▁ఆర్టీస	-11.0292
▁జనార్దన	-11.0292
▁న్యూట్రినో	-11.0292
▁సారమేయుడ	-11.0292
త్విక్కుల	-11.0292
▁బెంజి	-11.0292
▁వాడుకోవచ్చు	-11.0292
▁వికసించి	-11.0292
▁గెలిచిన	-11.0292
▁పరిమితి	-11.0292
▁మురుగునీర	-11.0292
▁గాడిద	-11.0292
▁సాఫ్ట్వేర్	-11.0292
▁అనుచానం	-11.0292
▁కుంజర	-11.0292
▁భోజు	-11.0292
▁మురిపించ	-11.0292
▁కావలిసిన	-11.0292
▁వేంటనే	-11.0292
▁శ్రేష్టమ	-11.0292
▁చెంచురెడ్డి	-11.0292
▁అంతర్భాగాల	-11.0292
▁బ్రహ్మాస్త్ర	-11.0292
▁సిస్టం	-11.0292
▁చురుకైన	-11.0292
▁వృద్ధిచెంద	-11.0292
▁ఎనభై	-11.0292
▁చైత్ర	-11.0292
▁వసతిగృహ	-11.0292
▁ధారావాహిక	-11.0292
శ్ఛి	-11.0292
▁కోవెల	-11.0292
▁వసుదేవుల	-11.0292
▁కస్తూరి	-11.0292
హేళన	-11.0292
▁తురిమి	-11.0292
వృద్ధుల	-11.0292
▁ఈవిడ	-11.0292
▁సెకండ	-11.0292
▁చెప్పుదురు	-11.0292
▁స్కూల్	-11.0292
▁ఇచట	-11.0292
▁జంబూద్వీప	-11.0292
▁త్రిపుర	-11.0292
▁వికాస	-11.0292
▁చవితి	-11.0292
▁రాధాకృష్ణ	-11.0292
▁జరుగుతుంట	-11.0293
▁స్పష్టమైన	-11.0293
▁ఉష్ణమండల	-11.0293
▁హిమాలయ	-11.0293
▁పచ్చడిగ	-11.0293
▁విస్తరింప	-11.0293
▁సంగతి	-11.0293
▁విక్రమ	-11.0293
▁సామవ	-11.0293
▁దశరధు	-11.0293
▁శరణు	-11.0293
▁స్తంబ	-11.0293
▁సెల్యుల	-11.0293
ానికొస్త	-11.0293
▁యెల్లారెడ్డి	-11.0293
స్తాపన	-11.0293
▁మహాసభల	-11.0293
▁ప్రార్థించ	-11.0293
▁సహాయక	-11.0294
▁వివాదాల	-11.0294
▁భరిత	-11.0294
▁స్టేట్	-11.0294
▁నిరాకరించిన	-11.0294
▁స్థావరం	-11.0294
▁సుప్రఖ్యాత	-11.0294
▁తయారయ్యే	-11.0294
▁లవణ	-11.0295
ధ్యాయుల	-11.0295
▁తెలుపుతూ	-11.0295
▁రమ్మని	-11.0295
▁దీనుల	-11.0295
▁మెంతి	-11.0295
▁నటులు	-11.0295
▁ఆకర్షిస్తుంది	-11.0295
▁కలహించ	-11.0295
▁నిలిచిపోయింది	-11.0295
▁తీసికొని	-11.0295
▁గలవారు	-11.0296
▁అంటాం	-11.0296
▁గెలుచుకోవ	-11.0296
▁నందవరీకు	-11.0296
▁కఠార	-11.0296
ుండటం	-11.0296
▁మాట్లాడతారు	-11.0296
▁అమిత	-11.0296
▁ఉత్తర్వు	-11.0297
▁దర్శనార్ధ	-11.0297
▁పల్నాడ	-11.0297
▁ఇతిహాసమ	-11.0298
▁వాడుతుంటారు	-11.0298
▁విడిచిపెట్టి	-11.0298
త్మాల	-11.0299
▁నిలిచినాడు	-11.0299
▁ఏమాత్ర	-11.03
▁నశించ	-11.03
▁రైల్వేశాఖ	-11.03
ుచుండగా	-11.03
▁లెక్కపెట్టడం	-11.0301
▁సిక్కు	-11.0302
▁పితామహుల	-11.0302
▁దన్ను	-11.0302
▁కథనము	-11.0303
▁కోరుకో	-11.0303
▁తాజా	-11.0303
▁భద్రాద్రి	-11.0303
▁వహిస్తా	-11.0304
▁పలువుర	-11.0304
▁స్థంభాల	-11.0306
▁పొడుగున్న	-11.0306
▁శిలల	-11.0307
▁కర్నల	-11.0307
▁మానవీయ	-11.0307
▁అందాం	-11.0308
▁పక్రియ	-11.0308
▁వలయ	-11.0308
ానేక	-11.0308
▁తీసివే	-11.0308
▁కలుపుతుంది	-11.0309
▁పగలు	-11.0309
స్థావర	-11.031
▁సద్గత	-11.031
యౌగ	-11.031
▁భామాకలాప	-11.0311
▁ప్రతిష్ఠించిన	-11.0313
▁రాధా	-11.0314
▁గీతములు	-11.0316
▁దర్శించుకొన	-11.0316
▁నివారించ	-11.0317
▁బౌద్ధుల	-11.0319
▁పెట్టుకొని	-11.032
▁లాటిన	-11.0321
న్వంతర	-11.0322
▁తెలియకుండా	-11.0324
▁సమాస	-11.0324
పొయ	-11.0326
▁హేమ	-11.0326
▁మల్లిఖార్జును	-11.0326
▁నంబర	-11.0327
▁మాగాయ	-11.0327
▁పొగిడ	-11.0331
ూల్చి	-11.0335
▁నియోజకవర్గ	-11.0337
▁సాధించెన	-11.0338
▁భీత	-11.0344
▁అభ్యర్థించ	-11.0347
▁శ్రీనాథుని	-11.035
▁కరణం	-11.0354
▁వైశంపాయనుడ	-11.0358
▁సమకూర	-11.0358
▁ద్రావిడుల	-11.0362
▁సులువ	-11.0362
▁బుడమ	-11.0364
ల్లాంటివి	-11.0367
బడుతాయి	-11.0368
▁వడ్డె	-11.0388
▁దేవలుడ	-11.0398
▁స్వరముల	-11.0408
దర్శి	-11.0412
ంకితమిచ్చిన	-11.0414
యునై	-11.0424
▁పాఠకుడ	-11.043
▁రాముడ	-11.0436
హ్మదీయ	-11.0437
▁నడుపబడ	-11.0439
ాభరణ	-11.0441
ముండద	-11.0442
▁పేర్కొనబడిన	-11.0446
▁ఉద్దేశించి	-11.0454
▁మహాఖం	-11.0456
నప్పటికి	-11.0457
▁కాకపోయిన	-11.0457
త్తుక	-11.0467
▁నిరోధించ	-11.0468
ేషను	-11.0474
▁అవతరించార	-11.0492
▁కీల	-11.0496
▁ధారా	-11.0513
▁ఇవ్వబడిన	-11.052
▁పడుతున్న	-11.052
▁ప్రేమించ	-11.0525
▁సన్మానాల	-11.0525
వాటిక	-11.0553
▁యేడ	-11.0558
లింగేశ్వర	-11.0565
▁ప్రోత్సహించ	-11.0579
▁పురాతనమైనద	-11.0583
▁సమయానిక	-11.0584
చుకుంటూ	-11.0598
▁వినిపిస్త	-11.0627
▁వాక్యముల	-11.0628
లేనప్పుడు	-11.0629
ప్రోలు	-11.063
▁పెంచబడుతున్నాయ	-11.0633
▁కూర్చున్న	-11.0643
▁తెలిసింద	-11.0653
▁మూసుకు	-11.0655
▁తినవచ్చు	-11.0657
రెడ్ల	-11.0671
▁వేడుకల	-11.0679
▁ప్రభువ	-11.0683
▁ఇట్ల	-11.0691
▁ప్రదర్శిస్త	-11.0713
▁రోజుకొక	-11.0716
▁సుబాహు	-11.0716
ుకొంటు	-11.0738
▁ధర్మముల	-11.0751
దివో	-11.0756
▁పొందవచ్చ	-11.0758
▁కౌరవ	-11.0773
పడినాయి	-11.0776
మయ్యె	-11.0778
పారంప	-11.0781
▁మోహించ	-11.0785
▁విశేషాల	-11.0791
▁నిర్మించాడ	-11.0795
▁బ్రహ్మదేవుడ	-11.0797
రాతియుగ	-11.0817
▁ఇతిహాసాల	-11.0838
▁తాలుక	-11.0847
▁వేడుకున్న	-11.0855
▁విద్యుద	-11.0861
కాపాడి	-11.0872
ామోదం	-11.0875
లోచన	-11.0882
▁చూస్తార	-11.0888
రావణ	-11.0923
▁కులప్ర	-11.0933
▁మహమ్మదీయ	-11.0941
▁జగద్గురు	-11.0949
▁సరిపోవ	-11.0954
▁తేన	-11.0962
▁సంపుట	-11.0967
▁తంజావూర	-11.0971
▁నాలుగ	-11.0988
▁రఘు	-11.0996
▁చుడ	-11.1003
లక్ష్మి	-11.101
పంచాయతీలు	-11.1013
▁వెస్త	-11.1019
▁రాజ్యాభిష	-11.103
బడెను	-11.1031
▁సాధిస్త	-11.1036
▁కోతుల	-11.1043
▁ఆశ్చర్య	-11.1048
వాతావరణ	-11.1051
భూమి	-11.1052
▁ఉపయోగాల	-11.1053
రహదారి	-11.1054
కావ్యాల	-11.1055
▁పంచాయత	-11.1069
ఎగర	-11.1074
పువ్వు	-11.1078
▁డివిజన	-11.1095
స్థలము	-11.1097
▁దృష్ట	-11.11
▁ఇచ్చాడ	-11.1116
నారంభించ	-11.1122
రికె	-11.1127
▁రాజమహేంద్ర	-11.1136
ంతరించి	-11.114
▁మారింద	-11.1151
▁కర్ణాట	-11.116
▁సాంకేతి	-11.1164
▁భౌగోళిక	-11.1173
▁ప్రాధాన్య	-11.1173
▁తీసేస	-11.1181
నుకొంటారు	-11.1182
▁కనుగొన్న	-11.119
స్కరించిన	-11.1192
▁పిలిచే	-11.1195
▁త్రేతా	-11.12
▁ఉష్ణ	-11.12
▁శ్రీరామనవమి	-11.1201
▁స్వారోచిష	-11.1201
ాభిప్రాయాలు	-11.1201
▁అధీనంలో	-11.1201
▁అహ్లాద	-11.1201
▁ఉపోద్ఘాతం	-11.1201
▁ఊరేగింపు	-11.1201
▁ఎసిడిటీ	-11.1201
▁కలనయంత్రాల	-11.1201
▁చ్యవనుని	-11.1201
▁తుడిచిపెట్ట	-11.1201
▁నిర్వచనాల	-11.1201
▁మరుక్షణం	-11.1201
▁మహాశివరాత్రి	-11.1201
▁శాపవిముక్త	-11.1201
మవసనిసి	-11.1201
యస్కాంత	-11.1201
▁అమోఘమైన	-11.1201
▁అవశేషాలు	-11.1201
▁ఆశీర్వదించ	-11.1201
▁కొండగుట్టలమ	-11.1201
▁చూద్దామ	-11.1201
▁తాత్త్విక	-11.1201
▁తాళ్లపాక	-11.1201
▁తెలుగుసాహిత్య	-11.1201
▁దశకుమార	-11.1201
▁దారితీసింది	-11.1201
▁ధృతరాష్ట్రు	-11.1201
▁నైసర్గిక	-11.1201
▁పునరుద్ధరణ	-11.1201
▁ప్రవహించటం	-11.1201
▁ప్రొఫెసర	-11.1201
▁ఫిలిప్పీన్స్	-11.1201
▁మహావిస్ఫోట	-11.1201
▁యతిమైత్రి	-11.1201
▁లాక్షణికు	-11.1201
▁విచక్షణ	-11.1201
▁విఠోబా	-11.1201
▁విరోచన	-11.1201
▁వ్యత్యాసం	-11.1201
▁వ్యత్యాసాల	-11.1201
▁శారీరక	-11.1201
▁సంక్రమించ	-11.1201
▁స్నేహితుడ	-11.1201
▁అధిగమించ	-11.1201
▁అభ్యసించ	-11.1201
▁ఉద్భటుడ	-11.1201
▁తీసుకొంట	-11.1201
▁తృప్తిప	-11.1201
▁దేరుతాడు	-11.1201
▁పారద్రోల	-11.1201
▁పిల్చేవారు	-11.1201
▁పురోహిత	-11.1201
▁పులస్త్యు	-11.1201
▁పైకప్పు	-11.1201
▁ప్రకటన	-11.1201
▁ప్రయానించ	-11.1201
▁ప్రాంగణం	-11.1201
▁ముగింపు	-11.1201
▁కలగజేయ	-11.1201
▁గురువైయ్య	-11.1201
▁తత్పరు	-11.1201
▁మారుమ్రోగ	-11.1201
▁ముల్లంగి	-11.1201
▁మెరుగుపరిచిన	-11.1201
▁మేళవించ	-11.1201
▁కుబ్జ	-11.1201
▁మూర్ఖుడ	-11.1201
▁లభ్యం	-11.1201
▁ఆన్లైన్	-11.1201
▁సర్వభక్ష	-11.1201
▁మామిడికోరు	-11.1201
▁నృత్యనాటిక	-11.1201
▁అదిలాబాద్	-11.1201
▁పళ్లేల	-11.1201
▁నందీశ్వరుడ	-11.1201
▁స్మార్త	-11.1201
▁దర్శనమిచ్చాడ	-11.1201
▁శూద్ర	-11.1201
▁ప్రసవించ	-11.1201
▁ముంబాయి	-11.1201
▁ఫిషర	-11.1201
▁తేల్చ	-11.1201
▁సోమకాసు	-11.1201
▁స్కూలు	-11.1201
▁ఖాతం	-11.1201
▁సారథియై	-11.1201
▁చైనీస	-11.1201
▁డిస్కుల	-11.1201
▁ఏలుబడి	-11.1201
▁తిసుకొన	-11.1201
▁వశపరచుక	-11.1201
▁చూడలేము	-11.1201
▁పరిజ్ఞానం	-11.1201
▁మంచిర్యాల	-11.1201
▁సమాధానాల	-11.1201
▁కటకం	-11.1201
▁విండో	-11.1202
▁మెలికల	-11.1202
▁ఆరాధించ	-11.1202
▁గ్రీన్	-11.1202
▁పొయ్యి	-11.1202
▁శ్లోకాల	-11.1202
▁ఛిన్న	-11.1202
▁యుండవలెను	-11.1202
▁సిబ్బంద	-11.1202
▁పద్మావత	-11.1202
▁సౌకర్యవంత	-11.1202
▁విఘ్నేశ్వర	-11.1202
▁ఉండుటయ	-11.1202
▁ప్రతినిధి	-11.1202
▁ప్రపంచదేశాల	-11.1202
▁నదీతీర	-11.1203
ోపాయ	-11.1203
▁ముచిక	-11.1203
▁కనిగిరి	-11.1203
▁అటుకులు	-11.1203
▁ఆటోనగర్	-11.1204
▁నరసాపురం	-11.1204
వలంబించి	-11.1204
▁స్వర్ణయుగ	-11.1204
వ్యవస్థీకరించారు	-11.1204
▁పీటల	-11.1204
బీజాల	-11.1204
▁కోమల	-11.1204
▁రమ్య	-11.1204
▁గంగాధర	-11.1204
▁గర్భవతి	-11.1204
▁అనువుగా	-11.1205
▁డ్యామ	-11.1205
▁పికిలు	-11.1205
▁బూరుగు	-11.1205
మిటంటే	-11.1206
▁వేషం	-11.1206
▁ఆంధ్రదేశమం	-11.1206
▁తినేటప్పుడు	-11.1207
కటాక్ష	-11.1207
▁అనుమతిపద	-11.1208
▁దానమిచ్చ	-11.1208
▁కనిపించుచున్నది	-11.1208
▁బిన్న	-11.1208
▁ప్రాకృత	-11.1208
▁ఆదుకున	-11.1209
▁సూర్యవంశ	-11.1209
▁వారందరిన	-11.1209
▁మాలిక్	-11.1209
▁పాండ్య	-11.121
▁జగముల	-11.121
▁వెదురు	-11.121
▁వేశ్య	-11.121
▁నాట్యశాస్త్ర	-11.1211
▁కొనసాగించాడు	-11.1211
▁న్యూట్ర	-11.1211
▁నేత్ర	-11.1212
▁మిషన్	-11.1212
▁ఎలాగైన	-11.1212
▁సంతరించుకొ	-11.1212
▁లభించలేదు	-11.1212
▁గ్రంధాలలో	-11.1212
▁ప్రొద్దు	-11.1213
▁కనుక్కొ	-11.1213
▁వివరిస్తుంది	-11.1215
▁బ్రహ్మానంద	-11.1215
▁బొబ్బ	-11.1216
▁మార్చుటకు	-11.1216
▁మఠాల	-11.1217
▁శ్రీరామగిరి	-11.1218
▁ఇవ్వబడింది	-11.1219
▁కళ్యాణోత్సవ	-11.1222
▁మ్రు	-11.1222
▁మాన్య	-11.1224
▁అనుకుంటున్నా	-11.123
గలుగుతా	-11.1231
పిలవడం	-11.1231
▁దితి	-11.1234
ెస్ట్	-11.1234
ీటర్	-11.1235
కుందామ	-11.1236
▁పొగడట	-11.1237
▁అసురు	-11.1239
▁రొద	-11.124
▁రూపాంతర	-11.1241
▁శతకాల	-11.1241
▁ధావ	-11.1242
▁అక్రమ	-11.1244
▁సక్రమ	-11.1248
▁సుగంధ	-11.1249
▁తమ్ముల	-11.1254
్వేల్	-11.1266
ుర్వేదం	-11.1266
▁చవక	-11.1273
నంతటిన	-11.1301
▁లక్ష్మణుని	-11.1311
▁సోమవార	-11.1322
కృష్ణుడికి	-11.1322
చుకున్నవా	-11.1368
▁నడక	-11.1371
▁నిర్వహిం	-11.1374
▁కలుగుతాయ	-11.138
▁గ్రాఫిక	-11.1389
▁చదివేవా	-11.1393
▁కులాలవార	-11.1397
▁తాళ్ళ	-11.1402
▁యువరాజ	-11.141
▁గేల	-11.141
ళ్లూర	-11.1426
▁సొమ్మ	-11.1428
సైట్	-11.143
▁దర్శించుకోవడ	-11.1433
వేదం	-11.1442
ాంతమున	-11.1446
▁పండగల	-11.1456
▁వేంపల్ల	-11.1462
▁మరునా	-11.1491
నారసింహుని	-11.1516
▁తయారుచేశ	-11.152
▁అందుకున్న	-11.1542
▁క్రమణిక	-11.1543
▁కిచ్చ	-11.1544
వాంగ్	-11.1581
▁దేశమంత	-11.16
▁శీతాకాల	-11.1618
ుకోవాలన	-11.1622
▁నలుప	-11.1634
▁రకాన్న	-11.1636
▁సాగుచేయబడ	-11.1668
▁తిర	-11.1677
వ్యాఖ్యాన	-11.1677
▁భావించబడ	-11.1678
▁నగరముల	-11.1699
ెరుగుదల	-11.1751
▁విశ్వవిద్యాలయాల	-11.1754
▁విస్తరించార	-11.1764
▁వివరింపబడి	-11.1797
▁పుష్కరాల	-11.1869
ియున్నారు	-11.1884
▁శ్రావ	-11.1893
▁ప్రశస్త	-11.1896
కుమారి	-11.1922
▁లక్షణముల	-11.195
▁చెందడమ	-11.1952
▁బయలుదేరాడ	-11.1975
▁బాహు	-11.201
ఖాతము	-11.2014
్రెగ	-11.2024
▁తెరుచుక	-11.2024
▁తయారుచేస	-11.2024
▁అహ్మద	-11.2028
శాసనం	-11.205
గణాంకాల	-11.2052
వైదిక	-11.2053
పరిశోధనల	-11.2053
తెలుగు	-11.2054
పాండవుల	-11.2056
మార్పుల	-11.2068
▁పంచుకుంట	-11.2068
చేరుతూ	-11.2092
▁మలేషియా	-11.2094
▁సూచిస్త	-11.2095
▁ప్రబలమై	-11.2099
వివేక	-11.2108
ాభార	-11.2135
రాగతా	-11.2144
▁చెడిపో	-11.2155
మల్లిఖార్జున	-11.216
వర్గము	-11.2161
ించేవాళ్	-11.2174
▁దుష్యంతు	-11.218
క్షరాస్యత	-11.2182
▁యవ్వన	-11.2182
▁తిరుగుతున్న	-11.2196
▁ప్రతాపరుద్ర	-11.2198
రరాఘవ	-11.22
▁గ్రామశక్త	-11.22
వర్ధనం	-11.2201
▁ఉచ్ఛైశ్	-11.2201
▁శరణాగత	-11.2201
▁కంప్యుట	-11.2201
▁డాక్టరు	-11.2201
▁ద్వేష	-11.2201
▁విముక్తుల	-11.2201
ప్రాయపడుతున్నార	-11.2201
వెలుగొందుతున్నది	-11.2201
▁అభిప్రాయాల	-11.2201
▁ఆంధృల	-11.2201
▁ఆక్సిడెంట్	-11.2201
▁ఆధిఖ్య	-11.2201
▁ఆయువుపట్టు	-11.2201
▁ఇండోనేసియా	-11.2201
▁ఉపపర్వాల	-11.2201
▁కఠినమైన	-11.2201
▁కాంగ్రేసు	-11.2201
▁కాబేజి	-11.2201
▁కైంకర్య	-11.2201
▁గణనయంత్ర	-11.2201
▁గుర్తించతగిన	-11.2201
▁ఘనవిష్ణు	-11.2201
▁చదరంగం	-11.2201
▁చెన్నకేశవు	-11.2201
▁చేరుకోవచ్చు	-11.2201
▁జగిత్యాల	-11.2201
▁జలపాతము	-11.2201
▁తపమాచరిస్తున్న	-11.2201
▁తిరువయ్యూర్	-11.2201
▁తీసుకువెళ్ల	-11.2201
▁తెనాలిరామలింగడ	-11.2201
▁నిక్షిప్త	-11.2201
▁నిర్దేశిత	-11.2201
▁ప్రాబల్య	-11.2201
▁ప్రోత్సాహ	-11.2201
▁భధ్రాచలం	-11.2201
▁మధ్వాచార్యు	-11.2201
▁రామానుజాచార్యుల	-11.2201
▁రామావతారము	-11.2201
▁లావాదేవీల	-11.2201
▁వర్ధమాన	-11.2201
▁వస్త్రధారణ	-11.2201
▁విట్ఠల	-11.2201
▁విడగొట్ట	-11.2201
▁వీరశైవ	-11.2201
▁సంక్షేమ	-11.2201
▁సందర్శకుల	-11.2201
▁సందిగ్ధ	-11.2201
▁సేకరిస్తారు	-11.2201
▁స్ధిరపడ్డారన	-11.2201
▁హెలికాప్టర్	-11.2201
▁అభివర్ణించ	-11.2201
▁ఆళ్లగడ్డ	-11.2201
▁త్యజించాడ	-11.2201
▁పుత్రకామేష్	-11.2201
▁భవిష్యత్తులో	-11.2201
▁వ్యవహారం	-11.2201
▁అంగీకరిస్త	-11.2201
▁గుర్రపు	-11.2201
▁మహాభీషు	-11.2201
▁మూడడుగుల	-11.2201
▁వంతెన	-11.2201
▁సోయగాలు	-11.2201
▁అవయవాల	-11.2201
▁గొర్రెల	-11.2201
▁పోషించినారు	-11.2201
▁రక్తనాళాల	-11.2201
▁వ్యాఖ్యానించారు	-11.2201
▁ఐరావత	-11.2201
▁కొడవలి	-11.2201
▁క్వారీల	-11.2201
▁తక్షకుని	-11.2201
▁దిగుమతి	-11.2201
▁దివ్యధామ	-11.2201
▁బహుకరించి	-11.2201
▁విసిరుతా	-11.2201
▁స్థాపక	-11.2201
▁అంబాలిక	-11.2201
▁వరూధిన	-11.2201
▁సుగ్రీవు	-11.2201
▁అట్లాంటిక	-11.2201
కోట్టై	-11.2201
మౌతాయి	-11.2201
▁స్మరణ	-11.2201
ఆక్రమిస్తున్నాయి	-11.2201
▁తత్సమ	-11.2201
▁కోఠీ	-11.2201
▁సంస్క్ర	-11.2201
ోమెట్ర	-11.2201
▁పల్నాటి	-11.2201
▁కథానాయకుడ	-11.2201
▁చక్కదిద్ద	-11.2201
▁ధర్మపత్న	-11.2201
▁వెలుగొండ	-11.2201
▁కవీశ్వరుల	-11.2201
▁నివసించుచున్నా	-11.2201
▁ప్రభాసుని	-11.2201
▁శూన్య	-11.2201
▁పుష్య	-11.2201
▁స్పర్శ	-11.2201
▁హాజరు	-11.2201
▁శాపవశ	-11.2201
▁గుజ్జు	-11.2201
▁రుద్రాక్ష	-11.2201
▁మధ్యవర్తి	-11.2201
▁గెడ్డ	-11.2201
▁కుంకుడు	-11.2201
▁చవిచూసి	-11.2201
▁సరోజ	-11.2201
▁సర్కిల్	-11.2201
▁దక్షిణామూర్తి	-11.2201
▁అర్హత	-11.2201
▁వింధ్యపర్వత	-11.2201
▁తప్పించుకు	-11.2201
▁వంశస్ధుల	-11.2201
▁టెలి	-11.2201
▁మత్స్యకారుల	-11.2201
▁పానీయ	-11.2201
▁యాదవకులం	-11.2201
▁సంకెళ్ళ	-11.2201
▁విహరిస్త	-11.2201
▁కధానాయకు	-11.2201
▁కాళేశ్వర	-11.2201
▁నడచి	-11.2201
▁బ్రెడ్డు	-11.2201
▁విధేయు	-11.2202
▁నన్నయభట్ట	-11.2202
ైర్యసాహసాల	-11.2202
▁దారిగుండా	-11.2202
▁క్షేమ	-11.2202
▁కమిలి	-11.2202
▁అంతస్తున	-11.2202
▁ప్రళయకాలంలో	-11.2202
▁దారితీస్తు	-11.2202
▁నాయనా	-11.2202
▁సూరన	-11.2202
పారంగతుడ	-11.2202
ానుభూతి	-11.2202
▁తపోశక్త	-11.2202
▁ఆలపించ	-11.2202
▁బ్రహ్మాండపురాణం	-11.2202
▁సుగుణ	-11.2202
▁ఆపత్కాల	-11.2202
▁నామమాత్ర	-11.2202
▁బొల్ల	-11.2202
▁ఏలకులు	-11.2202
▁కరిగిపోయి	-11.2202
▁సింహాసనం	-11.2203
▁మచిలీపట్	-11.2203
▁రాసుకున్నాడు	-11.2203
▁దొరుకుతుంది	-11.2203
▁త్రికూట	-11.2203
▁సెపిత	-11.2203
▁వసుచరిత్ర	-11.2203
▁శ్రీరామచంద్రు	-11.2203
్కటే	-11.2203
▁పిలవబడుతున్నది	-11.2203
▁జీవనశైలి	-11.2203
▁నివసించార	-11.2203
ప్రయాసల	-11.2203
▁బొరుగుల	-11.2203
▁కనిపిస్తోంది	-11.2204
▁దేశస్థుల	-11.2204
▁చెక్కెర	-11.2204
▁ధిక్క	-11.2204
▁ప్రాతాల	-11.2204
టీవీ	-11.2204
▁చదును	-11.2204
▁అప్సరసల	-11.2205
రిఅయిన	-11.2205
▁యాగశాల	-11.2205
▁సహితము	-11.2205
▁చూపుతున్నారు	-11.2205
▁అధర్మం	-11.2206
▁నడిపి	-11.2206
డీఎ	-11.2206
▁గుర్తించబడింది	-11.2207
▁నింపి	-11.2207
ింపబడుతున్నాయి	-11.2207
▁బొడ్డు	-11.2207
స్పష్టత	-11.2207
కచక	-11.2208
ప్రాయమున	-11.2208
▁నప్పున	-11.2208
▁ఉప్పల	-11.2208
మేధావ	-11.2209
▁కంపుట	-11.221
▁ప్రపంచవ్యాప్త	-11.2211
▁వ్యాసభగవాను	-11.2211
▁స్వస్థలం	-11.2212
▁సన్నుత	-11.2212
▁ఆముద	-11.2212
ాక్షరాల	-11.2213
▁బాగం	-11.2213
ింఛి	-11.2214
▁పాల్గొన	-11.2214
▁స్టోర	-11.2218
▁గ్రాఫిక్స	-11.2219
▁పార్క్	-11.2219
▁కలవాడ	-11.2219
▁షాప	-11.2222
▁పరుగుల	-11.2222
▁వేటాడ	-11.2225
▁కంసా	-11.223
▁దింపి	-11.223
▁ట్రేడ	-11.2232
మోపి	-11.2233
చొర	-11.2233
చబడినవి	-11.2233
▁శుక్రవార	-11.224
▁పొమ్మన	-11.2244
▁వెన్నెల	-11.225
▁అధారం	-11.2252
▁చెడిపోతుంద	-11.2254
▁అనవసర	-11.226
సగస	-11.2267
బిట్	-11.227
▁ఉండటమ	-11.2275
▁శిలీం	-11.2285
▁ధ్యానించ	-11.2299
▁కాసే	-11.2307
▁పూరిస్తాడ	-11.2313
ఘాట	-11.2316
బళ్ల	-11.2327
▁అవుతుంద	-11.2338
▁విడిపోయి	-11.2339
▁కష్టపడ	-11.2344
▁వాయిస్త	-11.2346
▁కవిసార్వభౌముడ	-11.2369
భవాని	-11.2378
బాహువు	-11.2399
▁గుండ్రముగ	-11.2425
రెక	-11.2432
లుకుబడి	-11.2432
▁కొలుస్త	-11.2437
▁భరించలే	-11.244
జిల	-11.2461
్యాద్ర	-11.2471
తరింపచే	-11.2471
▁దిద్దుకొన	-11.2481
▁ఆక్రమించుకున్నా	-11.2524
▁లెక్కచేయక	-11.2558
▁ఉద్ధరి	-11.2583
▁చెప్పటానిక	-11.2594
▁వేయించాడ	-11.2604
▁దేవరాయల	-11.2608
ింపబడుత	-11.261
ల్యూమ	-11.2618
బడుతోంద	-11.2621
▁ఆగిపోత	-11.2645
▁చేయలేద	-11.2657
▁తట్టుకో	-11.2688
▁పదకోశ	-11.2688
▁కేంద్రీకరి	-11.2757
▁తెలకప	-11.2766
▁మనుష్య	-11.2768
▁సంతరించుకున్న	-11.2787
▁సాధ్యమవుతు	-11.2792
శ్రీకృష్ణదేవరాయల	-11.28
డనుట	-11.2807
సరమ	-11.2826
▁యమునానద	-11.2827
గతిశీల	-11.2835
▁పెంచుతుంద	-11.2841
▁పండించబడ	-11.2874
▁వెళుతుంద	-11.2876
▁ఆహ్వాన	-11.2881
వేసుకొన	-11.2887
కోబడ	-11.29
▁కమలాపుర	-11.2903
చేయబడుతున్నది	-11.2913
▁రంగరించ	-11.2917
▁స్వరాల	-11.2923
▁ఆశ్రయ	-11.2929
▁భద్రుడ	-11.2954
▁తరచ	-11.2959
▁అనుసంధానించ	-11.2986
ప్రాణాల	-11.3
మోతాదులలో	-11.3004
▁ఐశ్వర్య	-11.301
▁రచించాడ	-11.3013
▁నివసించినాడ	-11.3033
్తుడై	-11.3068
▁వేమూర	-11.3068
▁అధ్యయనమ	-11.3079
▁నిరోధ	-11.3079
▁రైళ్ళ	-11.3081
▁పెంచెన	-11.3101
▁శ్రీకాకుళ	-11.311
గృహాల	-11.3128
▁ఇంద్రకీల	-11.3151
సమరయోధు	-11.316
ప్రఖ్యాత	-11.3161
ప్రోసెస	-11.3161
నృసింహ	-11.3162
మల్లికార్జున	-11.3163
తరగతి	-11.3163
వరాహ	-11.3163
కంపెనీ	-11.3163
తొమ్మిద	-11.3164
చెయ్యడానికి	-11.3164
ఊ	-11.3164
సామ్రాజ్య	-11.3164
సౌకర్యం	-11.3164
చూసిన	-11.3164
పద్మ	-11.3168
నాధుడ	-11.3173
▁ముఖ్యపట్టణ	-11.3176
రచించారు	-11.318
▁మహాలక్ష్మ	-11.3187
బడుట	-11.3212
దూరం	-11.3214
▁వీలులేన	-11.3214
▁ఆదేశించ	-11.3229
ియోల	-11.324
▁మేనేజ	-11.3243
మంగమ్మ	-11.3244
▁పేరుగాంచి	-11.3247
ాఖ్యానం	-11.3284
క్యూట	-11.329
▁భృగు	-11.3303
ిష్ణు	-11.3307
ిలువలు	-11.331
▁ఫ్రేమ	-11.3311
శీర్ష	-11.3312
ాశ్చర్య	-11.3312
▁కార్తీకమాసము	-11.3312
▁జైలుపాలయ్యా	-11.3312
▁దార్శనిక	-11.3312
▁విల్లంబుల	-11.3312
▁శ్రీమన్నారాయణుడ	-11.3312
పరాగసంపర్క	-11.3312
▁ఉపశయనం	-11.3312
▁దేశికతోడి	-11.3312
▁పరిశొధనల	-11.3312
▁పరిష్కరించ	-11.3312
▁భీభత్స	-11.3312
▁మహాభాగవత	-11.3312
▁మైదుకూరు	-11.3312
▁రెచ్చగొట్ట	-11.3312
▁సంక్షిప్త	-11.3312
▁స్కంధం	-11.3312
ంపచోడవరం	-11.3312
వ్యవహారము	-11.3312
ొంటోంద	-11.3312
▁అలంకరిస్తారు	-11.3312
▁ఆణిముత్య	-11.3312
▁కార్తీక	-11.3312
▁కిలోమీటరు	-11.3312
▁కిలోమీర్లు	-11.3312
▁కుకుంబర్	-11.3312
▁కుబ్జవిష్ణు	-11.3312
▁గుంతకల్లు	-11.3312
▁గోరింటాకు	-11.3312
▁గ్లూకోజ	-11.3312
▁జగతిమెట్	-11.3312
▁జరత్కారువు	-11.3312
▁జాపత్రి	-11.3312
▁జొచ్చెన్	-11.3312
▁దామోదర	-11.3312
▁ధాన్యాగారం	-11.3312
▁నహుషు	-11.3312
▁నిమగ్నమ	-11.3312
▁పారిజాతాపహరణం	-11.3312
▁బర్రె	-11.3312
▁బ్లాజర్	-11.3312
▁మళయాళ	-11.3312
▁మాధుర్య	-11.3312
▁మావోయిస్టు	-11.3312
▁యజ్ఞోపవీత	-11.3312
▁రవీంద్ర	-11.3312
▁రాగిరేకుల	-11.3312
▁రికార్డింగ	-11.3312
▁విద్వాంసులు	-11.3312
▁వృత్తాకార	-11.3312
▁వైఖానస	-11.3312
▁శిష్యుని	-11.3312
▁శ్రికృష్ణుడ	-11.3312
▁సంక్షోభ	-11.3312
▁సిఫార్సు	-11.3312
▁సౌమ్యనాథాలయ	-11.3312
▁అబివృద్	-11.3312
▁కంచుకోట	-11.3312
▁కురవడ	-11.3312
▁గ్రామపంచాయితీ	-11.3312
▁తొడిగి	-11.3312
▁నిఖిల	-11.3312
▁నిరూపిత	-11.3312
▁బలహీన	-11.3312
▁భవిష్య	-11.3312
▁భాండాగార	-11.3312
▁మరుసటి	-11.3312
▁యర్రగ	-11.3312
▁వెంట్రుక	-11.3312
▁సాధికార	-11.3312
ఫ్లవరు	-11.3312
▁ఉత్పన్న	-11.3312
▁ఘోషిస్తున్నాయి	-11.3312
▁ధారపోస	-11.3312
▁పరమాణు	-11.3312
▁పసిఫి	-11.3312
▁పుష్కల	-11.3312
▁పౌష్టిక	-11.3312
▁యత్నము	-11.3312
▁శ్రేష్ఠమ	-11.3312
▁ప్రాభవం	-11.3312
▁బొంతపల్లి	-11.3312
▁రొయ్యల	-11.3312
▁వదులుతున్న	-11.3312
▁స్నేహం	-11.3312
▁ఎడిషన్	-11.3312
▁ఖరీదు	-11.3312
▁మణికంఠేశ్వర	-11.3312
▁మహాబలవంతు	-11.3312
▁సేకరణ	-11.3312
▁ఒరియా	-11.3312
▁క్వార్ట	-11.3312
▁థీయర	-11.3312
▁ముఖద్వారం	-11.3312
▁ముగుస్తుంది	-11.3312
▁కుర్చీ	-11.3312
▁రైలుమార్గ	-11.3312
▁గాయకులు	-11.3312
▁బోలెడ	-11.3312
▁యుద్ధోన్ము	-11.3312
▁అంతర్వేది	-11.3312
▁ఉపనయన	-11.3312
▁భావింపబడుతున్న	-11.3312
ర్రగొండపాలెం	-11.3312
▁తెలియజేస్తున్న	-11.3312
▁విరక్తి	-11.3312
▁అర్చిస్తార	-11.3312
▁సువర్ణపాదాల	-11.3312
▁కచ్చితంగ	-11.3312
▁ధనియాలు	-11.3312
▁పలువిధాల	-11.3312
▁సంచరిస్త	-11.3312
▁ధ్ర్మ	-11.3312
▁గాలిపటం	-11.3312
▁కోటిలింగేశ్వర	-11.3312
▁ఉపఖండము	-11.3312
▁గాయపడి	-11.3312
▁ముసలితన	-11.3312
▁విసిగి	-11.3312
▁అల్గారి	-11.3312
▁అవతలి	-11.3312
▁పొత్తిళ్ళల	-11.3312
ాగ్రము	-11.3312
▁గొడుగు	-11.3312
▁చౌద	-11.3312
▁ఛందో	-11.3312
▁తులసీ	-11.3312
▁కోవిదు	-11.3312
▁జనార్ధన	-11.3312
▁సమకాలీకు	-11.3312
▁హెలి	-11.3312
▁పరిమితుల	-11.3312
▁పారాయణ	-11.3312
▁సలాడ్	-11.3312
▁వింధ్య	-11.3312
▁మరణిస్తా	-11.3313
▁క్రమశిక్షణ	-11.3313
▁భీతిల్లి	-11.3313
▁సామవేద	-11.3313
విశ్రాంతి	-11.3313
▁సంస్కార	-11.3313
▁జగదాంబ	-11.3313
▁దుఖా	-11.3313
▁రచింపబడిన	-11.3313
▁ధాటిక	-11.3313
▁దొరుకుత	-11.3313
▁విక్రయ	-11.3313
▁శారంగాల	-11.3313
▁అతీత	-11.3313
▁జాజి	-11.3313
▁ఎనలేని	-11.3313
▁నర్తక	-11.3313
▁పాదపద్మ	-11.3313
▁పిలకల	-11.3313
కీయంగా	-11.3313
▁తీపి	-11.3313
▁నిలువెత్తు	-11.3313
▁పద్దతుల	-11.3313
▁గాజువాక	-11.3313
▁ఆటగాళ్ళ	-11.3314
▁కళకళ	-11.3314
▁తీర్పు	-11.3314
▁విస్త్రుతమైనది	-11.3314
▁జిహ్వ	-11.3314
▁పలుచని	-11.3314
ప్రాశస్త	-11.3314
▁ఊరుగాయ	-11.3314
▁లొంగ	-11.3314
ావస్థలో	-11.3314
▁చీడ	-11.3314
▁సలాబ	-11.3314
▁పాడుకొ	-11.3315
▁ఉండినవి	-11.3315
▁సరిపోల	-11.3315
▁లక్ష్మినరసింహ	-11.3315
▁లలిత	-11.3315
▁ముకుంద	-11.3315
▁క్రమేణ	-11.3316
కీర్తుల	-11.3316
▁భక్షించ	-11.3316
▁త్రోస	-11.3316
▁బేధ	-11.3316
నిచ్చారు	-11.3317
▁అనల్పార్	-11.3317
▁డేగ	-11.3318
▁హస్థి	-11.3318
▁జీతాల	-11.3319
▁ఉత్తేజ	-11.3319
▁ఆదరం	-11.3319
▁పదేళ్ళ	-11.332
▁తీర్చి	-11.332
▁సామాను	-11.332
▁సభ్యుడ	-11.332
▁మహర్షుల	-11.332
▁అనుకరించ	-11.3322
▁ఆరోప	-11.3322
▁టైలర	-11.3326
▁కలిగియున్న	-11.3326
▁త్రాగునీ	-11.3328
గ్రేట	-11.3328
▁కనుక్కున్న	-11.3328
▁ఇంకొం	-11.3329
▁పంజా	-11.3332
▁బోనాల	-11.3336
▁కొంతకాలము	-11.3337
▁పోస్ట	-11.3339
ాంకుర	-11.334
▁దారుక	-11.3347
▁రైస	-11.3349
▁వర్ణిస్త	-11.335
▁ముగించ	-11.3353
▁సడలిం	-11.3353
విజన్	-11.3354
▁పధక	-11.3356
డుచుచ	-11.3358
▁నడపడంగ	-11.3365
▁జగన్నాథ	-11.3367
▁ప్రయాణించడ	-11.3373
మంతుడ	-11.3382
▁ప్రతీపున	-11.3383
▁పెదతండ్ర	-11.3389
జాఫర	-11.3393
▁అహోబిలక్షేత్ర	-11.3401
▁సముద్	-11.3404
▁కంప్యూట	-11.343
▁చిల్ల	-11.344
పార్టీల	-11.3449
▁వాకిట	-11.345
▁పంపుతా	-11.345
▁తీసుకోవడ	-11.3451
▁పాపముల	-11.3453
▁పోటీచేస	-11.3457
▁గోదార	-11.3461
▁పాడుబడి	-11.3491
▁ప్రేర	-11.3493
▁వేడుకొన	-11.3497
▁సఖు	-11.3523
జేసె	-11.3556
▁గురవుత	-11.3558
మార్గాల్లో	-11.3579
▁యముడ	-11.3582
శ్రీనివాసమూర్తి	-11.3595
▁మదనపల్ల	-11.3595
▁హిరణ్యాక్ష	-11.3604
్రేలియ	-11.3613
▁వేయడమ	-11.3673
ాండవ	-11.3681
▁ఆగ్నేయ	-11.3705
ండిపెం	-11.375
సింహాసన	-11.3769
సిద్ధం	-11.3772
▁ప్రసేనుడ	-11.3783
ాంకిత	-11.3784
చిత్రణ	-11.3805
▁సుప్రసిద్ధుల	-11.3838
్యూస	-11.3839
▁అరటికాయల	-11.3843
▁కశ్యపుడ	-11.3858
▁ప్రచుర	-11.3874
వేయబడిన	-11.3894
ణాసురుడ	-11.3915
నరేంద్రుని	-11.3931
వశేషం	-11.3987
కార్డ్	-11.4007
తాతయ్య	-11.4008
తగ్గడము	-11.4014
ంబ్రా	-11.4041
వకాశాలు	-11.4085
కూర్చేవారు	-11.4115
▁విస్తరించుకొన	-11.4118
చ్చదనం	-11.4121
▁రోహిణ	-11.4176
▁ప్రవహి	-11.4219
▁పీల్చ	-11.4247
▁నైరుత	-11.4254
▁సందర్శనా	-11.4261
ుకోకూడద	-11.4273
గుర్తిస్తాడు	-11.4287
▁బెంగుళూర	-11.43
గస్ట	-11.4323
▁చెప్పుటక	-11.4334
కూడద	-11.4339
భారతీయుల	-11.4407
కుటుంబాల	-11.4414
భువన	-11.4414
కళాకారుల	-11.4414
ఉండవచ్చు	-11.4414
ఆలయం	-11.4415
తరువాత	-11.4415
కూడిన	-11.4416
మళ్ళీ	-11.4416
ిపేసి	-11.4417
ారంభంలో	-11.4429
▁భరించ	-11.4435
మొక్కల	-11.4452
▁వ్యవహర	-11.4469
▁శంకరాచార్య	-11.4527
▁ఇరువద	-11.4535
ర్జునుడి	-11.4543
్రాచీన	-11.455
లకత్తా	-11.4551
చరించడ	-11.4556
పబడుతున్నది	-11.4559
▁వెంకటేశ్	-11.4559
▁విస్త్రుత	-11.456
సక్తి	-11.456
▁ప్రళయ	-11.4561
సుకోడానిక	-11.4562
ింహారావు	-11.4562
▁చినతిరు	-11.4562
▁ఉత్తరాభిముఖు	-11.4562
▁పరవశింపజేస	-11.4562
▁భగీర	-11.4562
▁శఠకోప	-11.4562
ద్వంద్వ	-11.4562
▁అంతమొంది	-11.4562
▁ఇంద్రప్రస్థం	-11.4562
▁ఉధృతరూపం	-11.4562
▁కలనకలశం	-11.4562
▁జటాజూటం	-11.4562
▁జీవరసాయన	-11.4562
▁డీకంపైల	-11.4562
▁దశాబ్దాల	-11.4562
▁పంచభూతలింగము	-11.4562
▁బంగళా	-11.4562
▁మృత్యు	-11.4562
▁రూపురేఖల	-11.4562
▁విద్వత్	-11.4562
▁వ్యర్ధ	-11.4562
▁వ్యవహారిక	-11.4562
▁సంకర్షణ	-11.4562
▁హరిహరాద్వైత	-11.4562
నియమించుకున్నాడు	-11.4562
బానిసత్వం	-11.4562
శబ్దరత్నాకరమ	-11.4562
ష్యశృంగు	-11.4562
ుకొంటాడు	-11.4562
▁అత్యద్భుత	-11.4562
▁అధర్వణ	-11.4562
▁అవ్వబోతున్నది	-11.4562
▁అశాంతి	-11.4562
▁అశేష	-11.4562
▁అష్టాధ్యాయి	-11.4562
▁ఆళ్వారుస్వామి	-11.4562
▁ఆవిష్కర	-11.4562
▁ఉద్భుటారా	-11.4562
▁ఊరగాయలవాడకం	-11.4562
▁ఎడిటరు	-11.4562
▁ఎదుర్కొంటోంది	-11.4562
▁ఐరొపా	-11.4562
▁కూచిపుడి	-11.4562
▁కోరుకొమ్మన్నాడు	-11.4562
▁కౌస్తుభమ	-11.4562
▁క్రెటాషియస	-11.4562
▁క్రేటను	-11.4562
▁క్షమాపణ	-11.4562
▁గుత్తివంకాయ	-11.4562
▁గ్రామపంచాయతి	-11.4562
▁చాకచక్య	-11.4562
▁చారిత్రాత్మ	-11.4562
▁చీపురు	-11.4562
▁జంగారెడ్డిగూడెం	-11.4562
▁డిమాన్స్ట్రేటరు	-11.4562
▁తిరుమంజన	-11.4562
▁తొడిమల	-11.4562
▁త్రిపురాంతక	-11.4562
▁దక్షిణభారతదేశ	-11.4562
▁దాచిఉంచవలెను	-11.4562
▁దినపత్రికలు	-11.4562
▁ద్వారపరయుగ	-11.4562
▁నమోదైంది	-11.4562
▁పందొమ్మిద	-11.4562
▁ప్రత్యూష	-11.4562
▁ప్రమాదకర	-11.4562
▁ప్రొజెక్టర	-11.4562
▁బదలాయించ	-11.4562
▁భట్టారకు	-11.4562
▁మహేంద్రగిరిపై	-11.4562
▁మార్పుచెంద	-11.4562
▁ముఖ్యబేధ	-11.4562
▁మెగస్తనీస	-11.4562
▁మెతుకుసీమ	-11.4562
▁యేర్పడిన	-11.4562
▁రాజప్రతినిధి	-11.4562
▁రూపశిల్ప	-11.4562
▁రెఫ్రిజిరేటర్ల	-11.4562
▁వఛ్ఛ	-11.4562
▁వాదోపవాదాల	-11.4562
▁వార్తాపత్రిక	-11.4562
▁విఫలమయ్యాయి	-11.4562
▁విభజిస్తారు	-11.4562
▁విష్ణుపాదోద్భవి	-11.4562
▁వైవిధ్యము	-11.4562
▁శిరస్సు	-11.4562
▁శిల్పసంపద	-11.4562
▁సంకల్పించాడు	-11.4562
▁సజీవమూర్తిగ	-11.4562
▁సాధ్యపడదు	-11.4562
▁సృజనాత్మక	-11.4562
▁సౌభాగ్య	-11.4562
▁హార్డువేరు	-11.4562
చాతుర్య	-11.4562
తమార్చెన	-11.4562
ుషేణుడ	-11.4562
▁అనునయించి	-11.4562
▁ఆపాదిస్తున్నాయి	-11.4562
▁ఉపాఖ్యానము	-11.4562
▁క్యూబ	-11.4562
▁గురువాయూర	-11.4562
▁గోదాదేవి	-11.4562
▁టాకీసు	-11.4562
▁తాత్పర్యం	-11.4562
▁తిరుపతుల	-11.4562
▁నామవాచక	-11.4562
▁పాలుపంచుకొన్న	-11.4562
▁ప్రతేకమైన	-11.4562
▁ప్రార్ధించారు	-11.4562
▁ప్రెసి	-11.4562
▁ప్రేక్షకుల	-11.4562
▁బృహద్	-11.4562
▁యోగ్యతా	-11.4562
▁రేకెత్తిస్త	-11.4562
▁వీరేశలింగం	-11.4562
▁వెంకటరామయ్య	-11.4562
▁వ్యూహ	-11.4562
▁అణ్వ	-11.4562
▁రసరమ్య	-11.4562
▁తహసీల	-11.4562
▁నరాంకిత	-11.4562
▁పావుగంట	-11.4562
▁బజ్జీల	-11.4562
▁మర్యాదల	-11.4562
▁ముర్ముర్	-11.4562
▁స్కాంద	-11.4562
▁అభ్రక	-11.4562
▁అసాధ్యం	-11.4562
▁పుల్లల	-11.4562
▁ప్రెజర	-11.4562
▁మెషీన	-11.4562
▁ఉల్లాస	-11.4562
▁చుట్టుముట్ట	-11.4562
▁లంఘించ	-11.4562
▁క్షీరాబ్	-11.4562
▁చెపుతుంటారు	-11.4562
వస్వత	-11.4562
▁భగవత	-11.4562
▁ఛానల్	-11.4562
▁వ్రాలాడు	-11.4562
▁పాలతుత్త	-11.4562
▁రాజగోపుర	-11.4562
్రసిద్ధిచెందింది	-11.4562
▁ప్రార్ధించి	-11.4562
▁వృధా	-11.4562
▁బయల్పడ	-11.4562
▁హటికేశ్వర	-11.4562
ంచుమించు	-11.4562
▁అంటార్కటికా	-11.4562
ిమ్పక	-11.4562
▁బాలకృష్ణుని	-11.4562
▁జర్మన్	-11.4562
▁టెర్ర	-11.4562
▁మిగుల్చు	-11.4562
▁నవాబై	-11.4562
▁పెద్దలందరి	-11.4562
▁ప్రతీపాలపుర	-11.4562
▁శిఖరాగ్ర	-11.4562
▁మత్రమే	-11.4562
▁గజపతుల	-11.4562
▁తీర్చుకొన	-11.4562
▁మురిసి	-11.4562
▁ప్రెసిడెంట్	-11.4562
▁శుభ్రంచే	-11.4562
▁అంతకంతక	-11.4562
▁అవిరళ	-11.4562
▁భూగర్భం	-11.4562
▁మాదన్న	-11.4562
▁చిన్నచిన్న	-11.4562
▁బోయీల	-11.4562
▁ఘాటుగా	-11.4562
▁పొటాట	-11.4562
▁సికింద	-11.4562
▁అంగీకార	-11.4562
▁గద్దె	-11.4562
▁ముగియ	-11.4563
▁ఉడకపెట్ట	-11.4563
▁గాయత్ర	-11.4563
▁సూక్తుల	-11.4563
ుచుందురు	-11.4563
▁మీర్జా	-11.4563
▁ఊటీ	-11.4563
▁అపురూప	-11.4563
▁ఉసిరిచెట్టు	-11.4563
▁శిబి	-11.4563
▁సన్నాహ	-11.4563
▁అంగుళ	-11.4563
▁అలభ్య	-11.4563
▁వంశీయుల	-11.4563
▁కుసుమా	-11.4563
▁వరించింది	-11.4563
బొమ్మలాటల	-11.4563
▁మహోగ	-11.4563
▁రైళ్ల	-11.4563
▁తలపెట్టిన	-11.4563
▁ఎన్టీ	-11.4563
▁ఆకర్షణీయమై	-11.4563
▁అనుభూతి	-11.4563
▁మూడేళ్ళ	-11.4563
▁నుతించి	-11.4563
▁అర్ధాంతరముల	-11.4563
▁అతిదగ్గర	-11.4563
్రస్వ	-11.4563
▁కమాండ	-11.4564
▁పందె	-11.4564
▁శోమ	-11.4564
ప్రతిబింబిస్తాయి	-11.4564
▁అసియాలో	-11.4564
్గ్ఫ్	-11.4564
▁మ్యూ	-11.4564
▁అవలంబిస్త	-11.4564
▁కెరట	-11.4565
▁షష్ఠి	-11.4565
▁విసర్జ	-11.4565
▁యెర్ర	-11.4565
▁క్యాసెట్	-11.4565
▁బాధపడుతు	-11.4565
▁అవగత	-11.4566
ట్రంలో	-11.4566
▁ఆనవాలు	-11.4566
▁శమీకు	-11.4566
▁పునీత	-11.4567
▁బంధకముల	-11.4567
▁కల్నల	-11.4567
ుకొన్నాడట	-11.4568
▁మనుమల	-11.4568
ప్రభంజనంల	-11.4568
▁కోస్తున్నా	-11.4568
▁ముండ్లుండ	-11.4569
▁వెదుక	-11.4569
▁మరిగించ	-11.4569
ిపోతాడు	-11.4573
క్సిస్	-11.4573
కాబోలు	-11.4574
పడేట	-11.4578
▁గియాసుద్	-11.4579
▁తగిలే	-11.4579
▁మనుమరా	-11.458
పరాజితుడ	-11.458
▁వస్తాద	-11.4583
▁మహాప్రభ	-11.4585
▁నెలవై	-11.4585
▁గాధలలోన	-11.4588
▁హంగుల	-11.4591
ాస్ట్రి	-11.4596
▁స్త్రీపర్వ	-11.4599
▁మదమణ	-11.4601
త్మారామ	-11.4602
పరిభాష	-11.4606
▁వంచించ	-11.4609
▁ఏర్పడ్డప	-11.461
▁తెలిసికొన	-11.4612
▁అపస్తం	-11.4616
▁ఉన్నంతవరక	-11.4618
పూర్ణిమ	-11.4621
▁పఠించె	-11.4625
ుంటున్నారు	-11.4626
▁ఆఖ్యా	-11.4645
▁ఫౌం	-11.4651
దక్షణా	-11.4651
ించారట	-11.4652
▁ప్రారంభించాలన	-11.4653
శేషువు	-11.4654
▁కొలిచ	-11.4657
▁చేయటమ	-11.4661
చిదానంద	-11.4664
▁తింటు	-11.4669
షూటి	-11.4674
▁వధిస్తా	-11.468
▁నొక్కేమ	-11.4685
▁సమగ్రముగ	-11.4685
▁విజృంభ	-11.4688
▁వేడనారంభ	-11.4689
▁ఇన్నాళ్	-11.4691
క్రోధమ	-11.4699
▁ఆప్టి	-11.4701
▁అలోపత	-11.4703
▁రిటైరయ్యా	-11.4715
▁ఇంద్రకీలుడ	-11.4747
▁తెలుపుటక	-11.4773
▁సంగ్రహపర	-11.4788
ండరాద	-11.4792
▁కందనూర	-11.4798
▁కలుపుత	-11.4803
▁వ్రాయడానిక	-11.4804
పరమేశ్వర	-11.4822
▁మరిచిపో	-11.4823
▁దేవుళ్	-11.4842
▁వేదాంతమన	-11.4843
▁సందర్శించారన	-11.486
▁జరుపుకొన	-11.4893
▁ఈశ్వర	-11.4907
ర్షీ	-11.4927
కొద్దిపాటి	-11.4938
▁ఆంజనేయుడ	-11.4952
ుకున్నందువల	-11.4994
▁ఆశ్రయించ	-11.5014
▁వర్గీకర	-11.5053
రించినవాడ	-11.5065
▁భైరవ	-11.5072
▁పెట్టుకోవడ	-11.5086
బైల	-11.5094
▁కల్గుతుంద	-11.5129
జెన్స	-11.5143
▁ఆకర్షించేవ	-11.5198
▁నేర్పించ	-11.5237
▁మరచిపో	-11.5278
ఉపయోగిస్తున్నారు	-11.5303
▁విష్ణుకుండిన	-11.5341
▁ఈశ్వరుడ	-11.5341
▁ప్రయాణిస్త	-11.5444
▁నిరాకర	-11.5455
దాసీన	-11.5491
▁బాధపడే	-11.5495
▁ప్రోత్సహ	-11.5503
▁కృష్ణమాచార్య	-11.5571
▁చాలావరక	-11.5572
▁నందవర	-11.5586
▁అంతరించ	-11.5666
పండితులక	-11.5695
భరణాలు	-11.5723
▁పుడతా	-11.5759
▁బ్రిటీష	-11.5761
▁వచ్చాడ	-11.5762
▁రోడ్డుమార్గ	-11.5793
▁మచ్చుక	-11.5796
▁ఆహ్లాద	-11.5798
▁వెయ్యమన	-11.5804
▁నృత్యరీత	-11.5823
▁రాష్త్ర	-11.5831
నలుమూలల	-11.5841
ప్రాకార	-11.5841
ప్రకాశ	-11.5841
రైతుల	-11.5842
ధాన్యాల	-11.5842
ఈ	-11.951
ఞ	-14.0488
